{
  "version": "1.0",
  "truncation": null,
  "padding": null,
  "added_tokens": [
    {
      "id": 0,
      "content": "<unk>",
      "single_word": false,
      "lstrip": false,
      "rstrip": false,
      "normalized": false,
      "special": true
    },
    {
      "id": 1,
      "content": "<s>",
      "single_word": false,
      "lstrip": false,
      "rstrip": false,
      "normalized": false,
      "special": true
    },
    {
      "id": 2,
      "content": "</s>",
      "single_word": false,
      "lstrip": false,
      "rstrip": false,
      "normalized": false,
      "special": true
    },
    {
      "id": 3,
      "content": "<pad>",
      "single_word": false,
      "lstrip": false,
      "rstrip": false,
      "normalized": false,
      "special": true
    },
    {
      "id": 4,
      "content": "[INST]",
      "single_word": false,
      "lstrip": false,
      "rstrip": false,
      "normalized": false,
      "special": true
    },
    {
      "id": 5,
      "content": "[/INST]",
      "single_word": false,
      "lstrip": false,
      "rstrip": false,
      "normalized": false,
      "special": true
    },
    {
      "id": 6,
      "content": "<<SYS>>",
      "single_word": false,
      "lstrip": false,
      "rstrip": false,
      "normalized": false,
      "special": true
    },
    {
      "id": 7,
      "content": "<</SYS>>",
      "single_word": false,
      "lstrip": false,
      "rstrip": false,
      "normalized": false,
      "special": true
    }
  ],
  "normalizer": {
    "type": "NFKC"
  },
  "pre_tokenizer": {
    "type": "Metaspace",
    "replacement": "▁",
    "prepend_scheme": "always",
    "split": true
  },
  "post_processor": null,
  "decoder": {
    "type": "Metaspace",
    "replacement": "▁",
    "prepend_scheme": "always",
    "split": true
  },
  "model": {
    "type": "BPE",
    "dropout": null,
    "unk_token": "<unk>",
    "continuing_subword_prefix": null,
    "end_of_word_suffix": null,
    "fuse_unk": false,
    "byte_fallback": false,
    "ignore_merges": false,
    "vocab": {
      "<unk>": 0,
      "<s>": 1,
      "</s>": 2,
      "<pad>": 3,
      "[INST]": 4,
      "[/INST]": 5,
      "<<SYS>>": 6,
      "<</SYS>>": 7,
      "\u0000": 8,
      "\u0001": 9,
      "\u0002": 10,
      "\u0004": 11,
      "\u0006": 12,
      "\u0007": 13,
      "\b": 14,
      "\n": 15,
      "\u000e": 16,
      "\u000f": 17,
      "\u0012": 18,
      "\u0018": 19,
      "\u001a": 20,
      " ": 21,
      "!": 22,
      "\"": 23,
      "#": 24,
      "$": 25,
      "%": 26,
      "&": 27,
      "'": 28,
      "(": 29,
      ")": 30,
      "*": 31,
      "+": 32,
      ",": 33,
      "-": 34,
      ".": 35,
      "/": 36,
      "0": 37,
      "1": 38,
      "2": 39,
      "3": 40,
      "4": 41,
      "5": 42,
      "6": 43,
      "7": 44,
      "8": 45,
      "9": 46,
      ":": 47,
      ";": 48,
      "<": 49,
      "=": 50,
      ">": 51,
      "?": 52,
      "@": 53,
      "A": 54,
      "B": 55,
      "C": 56,
      "D": 57,
      "E": 58,
      "F": 59,
      "G": 60,
      "H": 61,
      "I": 62,
      "J": 63,
      "K": 64,
      "L": 65,
      "M": 66,
      "N": 67,
      "O": 68,
      "P": 69,
      "Q": 70,
      "R": 71,
      "S": 72,
      "T": 73,
      "U": 74,
      "V": 75,
      "W": 76,
      "X": 77,
      "Y": 78,
      "Z": 79,
      "[": 80,
      "\\": 81,
      "]": 82,
      "^": 83,
      "_": 84,
      "`": 85,
      "a": 86,
      "b": 87,
      "c": 88,
      "d": 89,
      "e": 90,
      "f": 91,
      "g": 92,
      "h": 93,
      "i": 94,
      "j": 95,
      "k": 96,
      "l": 97,
      "m": 98,
      "n": 99,
      "o": 100,
      "p": 101,
      "q": 102,
      "r": 103,
      "s": 104,
      "t": 105,
      "u": 106,
      "v": 107,
      "w": 108,
      "x": 109,
      "y": 110,
      "z": 111,
      "{": 112,
      "|": 113,
      "}": 114,
      "~": 115,
      "": 116,
      "°": 117,
      "Ó": 118,
      "ó": 119,
      "Ą": 120,
      "ą": 121,
      "Ć": 122,
      "ć": 123,
      "Ę": 124,
      "ę": 125,
      "Ł": 126,
      "ł": 127,
      "Ń": 128,
      "ń": 129,
      "Ś": 130,
      "ś": 131,
      "Ź": 132,
      "ź": 133,
      "Ż": 134,
      "ż": 135,
      "▁": 136,
      "ie": 137,
      "▁p": 138,
      "▁w": 139,
      "▁s": 140,
      "▁z": 141,
      "na": 142,
      "ow": 143,
      "ni": 144,
      "cz": 145,
      "rz": 146,
      "ch": 147,
      "nie": 148,
      "st": 149,
      "ra": 150,
      "▁o": 151,
      "▁d": 152,
      "▁t": 153,
      "ro": 154,
      "▁m": 155,
      "▁k": 156,
      "▁po": 157,
      "▁na": 158,
      "▁i": 159,
      "dz": 160,
      "sz": 161,
      "li": 162,
      "ne": 163,
      "je": 164,
      "go": 165,
      "ia": 166,
      "ny": 167,
      "ię": 168,
      "rze": 169,
      "ka": 170,
      "le": 171,
      "▁b": 172,
      "ła": 173,
      "re": 174,
      "▁za": 175,
      "ar": 176,
      "ów": 177,
      "▁do": 178,
      "owa": 179,
      "ci": 180,
      "ta": 181,
      "ki": 182,
      "nia": 183,
      ".\n": 184,
      "▁P": 185,
      "wa": 186,
      "▁u": 187,
      "la": 188,
      "▁nie": 189,
      "▁je": 190,
      "▁wy": 191,
      "że": 192,
      "rzy": 193,
      "▁się": 194,
      "▁a": 195,
      "ko": 196,
      "ja": 197,
      "da": 198,
      "▁-": 199,
      "ce": 200,
      "te": 201,
      "no": 202,
      "ry": 203,
      "ją": 204,
      "mi": 205,
      "ło": 206,
      "▁prze": 207,
      "ty": 208,
      "▁W": 209,
      "cy": 210,
      "ku": 211,
      "or": 212,
      "sta": 213,
      "czy": 214,
      "cze": 215,
      "▁S": 216,
      "kie": 217,
      "▁1": 218,
      "▁ko": 219,
      "po": 220,
      "▁ro": 221,
      "▁g": 222,
      "▁te": 223,
      "cie": 224,
      "wo": 225,
      "ści": 226,
      "cj": 227,
      "dy": 228,
      "ma": 229,
      "▁M": 230,
      "▁od": 231,
      "wi": 232,
      "tu": 233,
      "▁N": 234,
      "▁K": 235,
      "▁2": 236,
      "nych": 237,
      "en": 238,
      "er": 239,
      "to": 240,
      "▁T": 241,
      "dzie": 242,
      "ły": 243,
      "▁że": 244,
      "tó": 245,
      "em": 246,
      "▁A": 247,
      "ru": 248,
      "▁któ": 249,
      "wie": 250,
      "▁D": 251,
      "lu": 252,
      "▁mo": 253,
      "cji": 254,
      "▁to": 255,
      "owy": 256,
      "my": 257,
      "owe": 258,
      "ca": 259,
      "▁ty": 260,
      "▁C": 261,
      "▁przy": 262,
      "▁B": 263,
      "by": 264,
      "szy": 265,
      "▁ja": 266,
      "▁by": 267,
      "za": 268,
      "dzi": 269,
      "▁f": 270,
      "▁Po": 271,
      "zy": 272,
      "lo": 273,
      "▁ma": 274,
      "▁ta": 275,
      "mie": 276,
      "▁(": 277,
      "ży": 278,
      "▁jest": 279,
      "▁J": 280,
      "▁R": 281,
      "▁Z": 282,
      "cza": 283,
      "ga": 284,
      "pa": 285,
      "▁pro": 286,
      "▁\"": 287,
      "łu": 288,
      "sze": 289,
      "▁pod": 290,
      "owie": 291,
      "▁O": 292,
      "ną": 293,
      "▁in": 294,
      "ski": 295,
      "pi": 296,
      "co": 297,
      "ob": 298,
      "raz": 299,
      "nej": 300,
      "nego": 301,
      "du": 302,
      "si": 303,
      "▁ob": 304,
      "▁sp": 305,
      "▁20": 306,
      "owi": 307,
      "▁dz": 308,
      "mo": 309,
      "ść": 310,
      "sa": 311,
      "▁ś": 312,
      "▁pra": 313,
      "wia": 314,
      "▁pa": 315,
      "▁e": 316,
      "mu": 317,
      "▁roz": 318,
      "ró": 319,
      "▁G": 320,
      "▁ch": 321,
      "skie": 322,
      "wy": 323,
      "de": 324,
      "▁re": 325,
      "▁I": 326,
      "gi": 327,
      "nym": 328,
      "▁ni": 329,
      "▁sz": 330,
      "bi": 331,
      "▁L": 332,
      "▁sta": 333,
      "in": 334,
      "▁wie": 335,
      "ska": 336,
      "on": 337,
      "cja": 338,
      "pie": 339,
      "an": 340,
      "▁|": 341,
      "cia": 342,
      "▁r": 343,
      "▁jed": 344,
      "niu": 345,
      "su": 346,
      "we": 347,
      "▁st": 348,
      "niej": 349,
      "ków": 350,
      "sy": 351,
      "owo": 352,
      "▁mie": 353,
      "▁lu": 354,
      "▁przez": 355,
      "pe": 356,
      "▁co": 357,
      "▁U": 358,
      "do": 359,
      "▁Na": 360,
      "▁czy": 361,
      "▁jak": 362,
      "▁cz": 363,
      "cho": 364,
      "dze": 365,
      "ez": 366,
      "ju": 367,
      "dzia": 368,
      "il": 369,
      "▁który": 370,
      "kt": 371,
      "m,": 372,
      "▁go": 373,
      "▁tak": 374,
      "▁F": 375,
      "ności": 376,
      "▁ka": 377,
      "▁spo": 378,
      "bie": 379,
      "▁19": 380,
      "bli": 381,
      "▁li": 382,
      "sza": 383,
      "ba": 384,
      "osta": 385,
      "▁E": 386,
      "▁dla": 387,
      "owych": 388,
      "▁kon": 389,
      "ier": 390,
      "▁Nie": 391,
      "łe": 392,
      "gra": 393,
      "un": 394,
      "▁które": 395,
      "sty": 396,
      "▁3": 397,
      "▁ze": 398,
      "▁mi": 399,
      "▁sa": 400,
      "rzą": 401,
      "▁naj": 402,
      "▁h": 403,
      "dni": 404,
      "sie": 405,
      "ję": 406,
      "rowa": 407,
      "mia": 408,
      "pu": 409,
      "▁H": 410,
      "▁n": 411,
      "▁są": 412,
      "men": 413,
      "fi": 414,
      "▁Je": 415,
      "▁bę": 416,
      "▁ra": 417,
      "▁zna": 418,
      "ół": 419,
      "▁da": 420,
      "ża": 421,
      "sto": 422,
      "kła": 423,
      "zna": 424,
      "ek": 425,
      "owej": 426,
      "▁Ka": 427,
      "stę": 428,
      "bo": 429,
      "▁wo": 430,
      "tycz": 431,
      "▁dzie": 432,
      "jący": 433,
      "pra": 434,
      "ter": 435,
      "▁roku": 436,
      "▁mu": 437,
      "me": 438,
      "▁201": 439,
      "▁przed": 440,
      "gu": 441,
      "▁la": 442,
      "zu": 443,
      "▁oraz": 444,
      "kre": 445,
      "jąc": 446,
      "io": 447,
      "▁tym": 448,
      "al": 449,
      "▁pu": 450,
      "▁ale": 451,
      "tów": 452,
      "▁le": 453,
      "łem": 454,
      "nę": 455,
      "sp": 456,
      "▁Za": 457,
      "▁zosta": 458,
      "rza": 459,
      "▁Pol": 460,
      "▁wię": 461,
      "so": 462,
      "▁poz": 463,
      "spo": 464,
      "nika": 465,
      "▁Ja": 466,
      "art": 467,
      "ran": 468,
      "▁wi": 469,
      "bu": 470,
      "▁może": 471,
      "tego": 472,
      "dzo": 473,
      "cyj": 474,
      "00": 475,
      "nd": 476,
      "owego": 477,
      "czo": 478,
      "▁wła": 479,
      "lko": 480,
      ")\n": 481,
      "▁Ma": 482,
      "cha": 483,
      "js": 484,
      "towa": 485,
      "▁tego": 486,
      "▁ju": 487,
      "szyst": 488,
      "▁ce": 489,
      "▁fi": 490,
      "▁spra": 491,
      "jące": 492,
      "nu": 493,
      "▁lub": 494,
      "m\n": 495,
      "rod": 496,
      "ką": 497,
      "▁mia": 498,
      "▁sy": 499,
      "łą": 500,
      "▁4": 501,
      "czas": 502,
      "▁de": 503,
      "czą": 504,
      "nio": 505,
      "cu": 506,
      "wią": 507,
      "dza": 508,
      "▁wz": 509,
      "ć,": 510,
      "▁Da": 511,
      "for": 512,
      "▁swo": 513,
      "▁publi": 514,
      "skiego": 515,
      "stęp": 516,
      "ze": 517,
      "śli": 518,
      "▁me": 519,
      "▁już": 520,
      "▁jego": 521,
      "niem": 522,
      "szcze": 523,
      "▁bez": 524,
      "ńst": 525,
      "ur": 526,
      "ście": 527,
      "▁Ko": 528,
      "▁ży": 529,
      "kowa": 530,
      "▁będzie": 531,
      "▁To": 532,
      "▁bo": 533,
      "▁bar": 534,
      "rę": 535,
      "▁wszyst": 536,
      "wó": 537,
      "▁5": 538,
      "▁we": 539,
      "nak": 540,
      "▁Ro": 541,
      "ch,": 542,
      "kę": 543,
      "sią": 544,
      "się": 545,
      "ł,": 546,
      "▁sto": 547,
      "▁powie": 548,
      "dowa": 549,
      "pad": 550,
      "cje": 551,
      "nie,": 552,
      "▁pe": 553,
      "▁Ch": 554,
      "▁tylko": 555,
      "skiej": 556,
      "kacji": 557,
      "ji": 558,
      "▁Do": 559,
      "ri": 560,
      "iała": 561,
      "▁moż": 562,
      "gl": 563,
      "nik": 564,
      "ność": 565,
      "żo": 566,
      "▁Mi": 567,
      "▁os": 568,
      "cią": 569,
      "▁Wy": 570,
      "tem": 571,
      "▁też": 572,
      "▁Ta": 573,
      "▁pre": 574,
      "cję": 575,
      "dzy": 576,
      "▁ca": 577,
      "se": 578,
      "▁pi": 579,
      "dat": 580,
      "nt": 581,
      "▁pier": 582,
      "▁jej": 583,
      "sowa": 584,
      "tor": 585,
      "powie": 586,
      "▁usta": 587,
      "▁ich": 588,
      "?\n": 589,
      "nię": 590,
      "\"\n": 591,
      "▁świa": 592,
      "▁Pa": 593,
      "wię": 594,
      "▁jednak": 595,
      "ób": 596,
      "uro": 597,
      "▁war": 598,
      "dą": 599,
      "▁pow": 600,
      "▁ba": 601,
      "s\n": 602,
      "▁miejs": 603,
      "-1": 604,
      "ów,": 605,
      "▁jako": 606,
      "kiem": 607,
      "▁r\n": 608,
      "▁mog": 609,
      "lej": 610,
      "▁Mo": 611,
      "▁być": 612,
      "▁rów": 613,
      "czne": 614,
      "),": 615,
      "▁sob": 616,
      "▁200": 617,
      "▁no": 618,
      "▁6": 619,
      "den": 620,
      "▁działa": 621,
      "▁także": 622,
      "▁ry": 623,
      "ria": 624,
      "rak": 625,
      "kich": 626,
      "trzy": 627,
      "-0": 628,
      "dnie": 629,
      "▁Data": 630,
      "▁gdy": 631,
      "▁był": 632,
      "sko": 633,
      "nia,": 634,
      "ól": 635,
      "cznie": 636,
      "ówi": 637,
      "▁bu": 638,
      "▁pot": 639,
      "▁cze": 640,
      "▁pierw": 641,
      "dział": 642,
      "czę": 643,
      "py": 644,
      "▁wa": 645,
      "śmy": 646,
      "▁publikacji": 647,
      "▁dy": 648,
      "▁było": 649,
      "ej": 650,
      "▁rze": 651,
      "he": 652,
      "ny,": 653,
      "▁sie": 654,
      "▁gł": 655,
      "war": 656,
      "sia": 657,
      "ona": 658,
      "▁og": 659,
      "▁publikacji:": 660,
      "ową": 661,
      "ii": 662,
      "▁czę": 663,
      "▁cho": 664,
      "ec": 665,
      "słu": 666,
      "▁wyko": 667,
      "▁okre": 668,
      "▁wyda": 669,
      "▁du": 670,
      "tni": 671,
      "sła": 672,
      "t\n": 673,
      "nist": 674,
      "cznych": 675,
      "▁kie": 676,
      "el": 677,
      "ców": 678,
      "..\n": 679,
      "ktu": 680,
      "▁praw": 681,
      "▁cza": 682,
      "gie": 683,
      "mowa": 684,
      "prowa": 685,
      "k,": 686,
      "▁Prze": 687,
      "ch\n": 688,
      "▁poli": 689,
      ":\n": 690,
      "dzą": 691,
      "▁raz": 692,
      "nowa": 693,
      "szą": 694,
      "▁Ra": 695,
      "▁tej": 696,
      "▁7": 697,
      "śnie": 698,
      "nowi": 699,
      "kty": 700,
      "rów": 701,
      "nymi": 702,
      "▁pol": 703,
      "rą": 704,
      "▁In": 705,
      "▁wsp": 706,
      "▁lo": 707,
      "▁gru": 708,
      "▁stro": 709,
      "cej": 710,
      "▁op": 711,
      "owym": 712,
      "▁dru": 713,
      "▁kra": 714,
      "róż": 715,
      "cą": 716,
      "tegoria": 717,
      "▁mówi": 718,
      "▁niż": 719,
      "praw": 720,
      "dzenia": 721,
      "ński": 722,
      "▁ku": 723,
      "▁dob": 724,
      "▁pla": 725,
      "kra": 726,
      "kład": 727,
      "▁V": 728,
      "ti": 729,
      "▁tu": 730,
      "▁cie": 731,
      "kim": 732,
      "▁Kategoria": 733,
      "▁równie": 734,
      "▁Kategoria:": 735,
      "sku": 736,
      "rzę": 737,
      "rzu": 738,
      "jących": 739,
      "▁bardzo": 740,
      "▁nad": 741,
      "▁fa": 742,
      "k\n": 743,
      "20": 744,
      "szych": 745,
      "▁samo": 746,
      "ki,": 747,
      "ne,": 748,
      "c\n": 749,
      "▁or": 750,
      "prze": 751,
      "ha": 752,
      "▁Przy": 753,
      "▁ten": 754,
      "wet": 755,
      "wier": 756,
      "ste": 757,
      "▁8": 758,
      "ge": 759,
      "▁jeszcze": 760,
      "im": 761,
      "▁c": 762,
      "dar": 763,
      "forma": 764,
      "▁sobie": 765,
      "fe": 766,
      "▁gra": 767,
      "kiego": 768,
      "um": 769,
      "▁Co": 770,
      "czenia": 771,
      "▁tra": 772,
      "ór": 773,
      "owni": 774,
      "ć\n": 775,
      "mię": 776,
      "▁prac": 777,
      "nie\n": 778,
      "▁również": 779,
      "nku": 780,
      "▁of": 781,
      "ę,": 782,
      "lar": 783,
      "sk": 784,
      "na,": 785,
      "szka": 786,
      "▁Le": 787,
      "▁Ś": 788,
      "▁kil": 789,
      "ns": 790,
      "dziej": 791,
      "nii": 792,
      "wiąza": 793,
      "cznej": 794,
      "▁się,": 795,
      "stu": 796,
      "ner": 797,
      "bra": 798,
      "▁Te": 799,
      "czu": 800,
      "tka": 801,
      "owia": 802,
      "tra": 803,
      "▁można": 804,
      "▁odpowie": 805,
      "\",": 806,
      "kaza": 807,
      "▁Re": 808,
      "zie": 809,
      "liwo": 810,
      "▁bi": 811,
      "ny\n": 812,
      "▁su": 813,
      "ów\n": 814,
      "▁która": 815,
      "ne\n": 816,
      "▁lat": 817,
      "kiej": 818,
      "stem": 819,
      "żą": 820,
      "▁produ": 821,
      "▁których": 822,
      "▁sk": 823,
      "▁powi": 824,
      "▁Ale": 825,
      "▁trze": 826,
      "ng": 827,
      "wał": 828,
      "▁au": 829,
      "glą": 830,
      "ary": 831,
      "two": 832,
      "▁Bo": 833,
      "szym": 834,
      "▁al": 835,
      "▁9": 836,
      "▁kom": 837,
      "▁mię": 838,
      "tek": 839,
      "nia\n": 840,
      "▁była": 841,
      "▁sze": 842,
      "skich": 843,
      "▁nawet": 844,
      "▁swoje": 845,
      "▁jedno": 846,
      "sji": 847,
      "▁ust": 848,
      "▁10": 849,
      "rem": 850,
      "tnie": 851,
      "▁zd": 852,
      "▁ga": 853,
      "liśmy": 854,
      "tro": 855,
      "zowa": 856,
      "▁Od": 857,
      "▁orga": 858,
      "pre": 859,
      "szo": 860,
      "pro": 861,
      "di": 862,
      "▁my": 863,
      "▁każ": 864,
      "mi,": 865,
      "▁ar": 866,
      "▁Euro": 867,
      "▁fun": 868,
      "ble": 869,
      "▁osta": 870,
      "▁spraw": 871,
      "art\n": 872,
      "▁przypad": 873,
      "strze": 874,
      "lę": 875,
      "dę": 876,
      "tach": 877,
      "▁Ty": 878,
      "ali": 879,
      "szej": 880,
      "ństwa": 881,
      "▁powo": 882,
      "▁środ": 883,
      "▁kolej": 884,
      "▁spos": 885,
      "gro": 886,
      "▁uwa": 887,
      "▁nale": 888,
      "▁Wie": 889,
      "▁pracy": 890,
      "▁zło": 891,
      "▁fir": 892,
      "ród": 893,
      "▁Sta": 894,
      "dem": 895,
      "owią": 896,
      "pisa": 897,
      "fa": 898,
      "trzyma": 899,
      "nął": 900,
      "▁hi": 901,
      "▁dzi": 902,
      "▁Li": 903,
      "▁dnia": 904,
      "pły": 905,
      "▁|\n": 906,
      "ciu": 907,
      "tych": 908,
      "tk": 909,
      "▁dro": 910,
      "▁Sa": 911,
      "▁Pols": 912,
      "▁Pro": 913,
      "▁ła": 914,
      "▁pie": 915,
      "▁pew": 916,
      "kcji": 917,
      "▁dłu": 918,
      "oba": 919,
      "▁prowa": 920,
      "nek": 921,
      "▁szcze": 922,
      "s,": 923,
      "▁18": 924,
      "▁War": 925,
      "▁art\n": 926,
      "▁Czy": 927,
      "▁to,": 928,
      "▁rodzi": 929,
      "▁którym": 930,
      "▁zł": 931,
      "rząd": 932,
      "ral": 933,
      "▁rozpo": 934,
      "▁słu": 935,
      "wać": 936,
      "▁ser": 937,
      "▁znaj": 938,
      "▁for": 939,
      "▁kiedy": 940,
      "por": 941,
      "stą": 942,
      "▁zmie": 943,
      "ki\n": 944,
      "▁uży": 945,
      "▁będą": 946,
      "spodar": 947,
      "▁Mar": 948,
      "▁Sz": 949,
      "tał": 950,
      "stwa": 951,
      "▁Jak": 952,
      "łowie": 953,
      "dłu": 954,
      "lności": 955,
      "▁mnie": 956,
      "▁ru": 957,
      "▁więc": 958,
      "▁czas": 959,
      "▁spe": 960,
      "▁sko": 961,
      "▁mają": 962,
      "mina": 963,
      "▁mar": 964,
      "mier": 965,
      "trz": 966,
      "peł": 967,
      "▁Ar": 968,
      "ren": 969,
      "wania": 970,
      "▁informa": 971,
      "rzysta": 972,
      "▁ust\n": 973,
      "t,": 974,
      "czenie": 975,
      "twa": 976,
      "na\n": 977,
      "▁stanowi": 978,
      "▁stra": 979,
      "▁posta": 980,
      "▁zmia": 981,
      "tą": 982,
      "▁ele": 983,
      "czej": 984,
      "▁on": 985,
      "więk": 986,
      "▁fina": 987,
      "▁Pi": 988,
      "▁między": 989,
      "rzo": 990,
      "ła,": 991,
      "▁zda": 992,
      "▁osób": 993,
      "cznego": 994,
      "śla": 995,
      "szego": 996,
      "▁aby": 997,
      "bior": 998,
      "dów": 999,
      "daw": 1000,
      "ód": 1001,
      "▁poja": 1002,
      "▁ją": 1003,
      "owania": 1004,
      "▁proc\n": 1005,
      "nad": 1006,
      "▁tych": 1007,
      "▁Pod": 1008,
      "nic": 1009,
      "kar": 1010,
      "▁róż": 1011,
      "czyć": 1012,
      "kry": 1013,
      "pła": 1014,
      "et": 1015,
      "ka,": 1016,
      "▁proce": 1017,
      "wu": 1018,
      "▁podat": 1019,
      "zji": 1020,
      "▁więk": 1021,
      "▁został": 1022,
      "▁podsta": 1023,
      "tua": 1024,
      "nią": 1025,
      "świa": 1026,
      "▁im": 1027,
      "pisy": 1028,
      "▁,": 1029,
      "▁zro": 1030,
      "▁szy": 1031,
      "czywi": 1032,
      "szcza": 1033,
      "▁koń": 1034,
      "▁sprze": 1035,
      "▁gdzie": 1036,
      "▁zw": 1037,
      "tar": 1038,
      "▁bra": 1039,
      "▁której": 1040,
      "lnych": 1041,
      "kro": 1042,
      "dia": 1043,
      "▁ml": 1044,
      "dzenie": 1045,
      "scy": 1046,
      "now": 1047,
      "pis": 1048,
      "waż": 1049,
      "▁więcej": 1050,
      "lą": 1051,
      "sł": 1052,
      "chodzi": 1053,
      "▁199": 1054,
      "▁15": 1055,
      "▁Ba": 1056,
      "zacji": 1057,
      "łości": 1058,
      "▁*": 1059,
      "▁sposób": 1060,
      "▁Pra": 1061,
      "tr": 1062,
      "logi": 1063,
      "ować": 1064,
      "szu": 1065,
      "▁sza": 1066,
      "▁Wo": 1067,
      "lnie": 1068,
      "n,": 1069,
      "mi\n": 1070,
      "▁pomo": 1071,
      "▁We": 1072,
      "dź": 1073,
      "łam": 1074,
      "maga": 1075,
      "tę": 1076,
      "▁202": 1077,
      "dnia": 1078,
      "zi": 1079,
      "▁By": 1080,
      "▁wyso": 1081,
      "ował": 1082,
      "mniej": 1083,
      "gląda": 1084,
      "▁ek": 1085,
      "gł": 1086,
      "gen": 1087,
      "ka\n": 1088,
      "▁X": 1089,
      "▁gospodar": 1090,
      "miast": 1091,
      "kach": 1092,
      "▁nau": 1093,
      "ciw": 1094,
      "tere": 1095,
      "mio": 1096,
      "▁gło": 1097,
      "▁mieszka": 1098,
      "▁Wi": 1099,
      "ho": 1100,
      "óź": 1101,
      "▁Polsce": 1102,
      "▁mogą": 1103,
      "▁Au": 1104,
      "▁si": 1105,
      "▁nich": 1106,
      "wiet": 1107,
      "lne": 1108,
      "grani": 1109,
      "cją": 1110,
      "chu": 1111,
      "glę": 1112,
      "domo": 1113,
      "kłada": 1114,
      "▁warto": 1115,
      "▁kar": 1116,
      "yta": 1117,
      "zen": 1118,
      "ój": 1119,
      "owski": 1120,
      "▁zach": 1121,
      "ing": 1122,
      "▁Ż": 1123,
      "▁12": 1124,
      "sem": 1125,
      "▁fil": 1126,
      "▁społe": 1127,
      "ścia": 1128,
      "ezpie": 1129,
      "p\n": 1130,
      "tyw": 1131,
      "gól": 1132,
      "▁którzy": 1133,
      "czego": 1134,
      "▁Lu": 1135,
      "kona": 1136,
      "▁były": 1137,
      "mów": 1138,
      "▁ci": 1139,
      "tru": 1140,
      "▁sytua": 1141,
      "▁szko": 1142,
      "▁tam": 1143,
      "cji,": 1144,
      "▁(1": 1145,
      "mery": 1146,
      "dno": 1147,
      "▁ksią": 1148,
      "ktor": 1149,
      "th": 1150,
      "jem": 1151,
      "▁ża": 1152,
      "▁system": 1153,
      "czył": 1154,
      "▁włas": 1155,
      "▁obowią": 1156,
      "-2": 1157,
      "▁[": 1158,
      "pli": 1159,
      "▁tele": 1160,
      "róci": 1161,
      "dł": 1162,
      "▁pozosta": 1163,
      "ve": 1164,
      "▁innych": 1165,
      "liwości": 1166,
      "▁organi": 1167,
      "▁przypadku": 1168,
      "▁żeby": 1169,
      "pew": 1170,
      "wiąz": 1171,
      "nów": 1172,
      "▁głów": 1173,
      "bor": 1174,
      "tora": 1175,
      "stor": 1176,
      "lnego": 1177,
      "wali": 1178,
      "▁miał": 1179,
      "zuje": 1180,
      "▁pię": 1181,
      "dow": 1182,
      "▁decy": 1183,
      "▁peł": 1184,
      "stępu": 1185,
      "▁11": 1186,
      "▁zgo": 1187,
      "▁właści": 1188,
      "▁ustawy": 1189,
      "bezpie": 1190,
      "chy": 1191,
      "cych": 1192,
      "▁Bi": 1193,
      "ników": 1194,
      "żej": 1195,
      "▁wzro": 1196,
      "dek": 1197,
      "▁niez": 1198,
      "▁0": 1199,
      "ck": 1200,
      "▁trzy": 1201,
      "zyden": 1202,
      "w\n": 1203,
      "▁współ": 1204,
      "nk": 1205,
      "▁osob": 1206,
      "▁cią": 1207,
      "▁wska": 1208,
      "▁pan": 1209,
      "gę": 1210,
      "bywa": 1211,
      "stwo": 1212,
      "▁se": 1213,
      "▁cy": 1214,
      "owiada": 1215,
      "stru": 1216,
      "▁Naj": 1217,
      "▁chwi": 1218,
      "▁kilka": 1219,
      "ich": 1220,
      "▁zawo": 1221,
      "▁sprawie": 1222,
      "czny": 1223,
      "\".\n": 1224,
      "▁potrze": 1225,
      "▁powin": 1226,
      "▁miejsce": 1227,
      "▁16": 1228,
      "n\n": 1229,
      "▁kró": 1230,
      "▁kosz": 1231,
      "nych,": 1232,
      "▁przeciw": 1233,
      "▁sku": 1234,
      "▁Wa": 1235,
      "ser": 1236,
      "dził": 1237,
      "li,": 1238,
      "der": 1239,
      "dnio": 1240,
      "▁Go": 1241,
      "ty,": 1242,
      "▁albo": 1243,
      "▁nas": 1244,
      "▁mowa": 1245,
      "▁zale": 1246,
      "▁obec": 1247,
      "łego": 1248,
      "▁the": 1249,
      "bę": 1250,
      "sja": 1251,
      "dzić": 1252,
      "▁oko": 1253,
      "▁inter": 1254,
      "▁progra": 1255,
      "skim": 1256,
      ").\n": 1257,
      "▁kla": 1258,
      "▁rę": 1259,
      "▁Ga": 1260,
      "ene": 1261,
      "▁bie": 1262,
      "▁nim": 1263,
      "▁ponad": 1264,
      "▁bardziej": 1265,
      "tku": 1266,
      "▁14": 1267,
      "▁zdo": 1268,
      "▁kry": 1269,
      "▁proje": 1270,
      "żeli": 1271,
      "▁woj": 1272,
      "iadomo": 1273,
      "▁Ni": 1274,
      "▁proble": 1275,
      "in\n": 1276,
      "▁Cz": 1277,
      "świad": 1278,
      "▁zasa": 1279,
      "▁Kon": 1280,
      "▁wiel": 1281,
      "▁naz": 1282,
      "owanie": 1283,
      "pera": 1284,
      "▁jeśli": 1285,
      "▁tru": 1286,
      "l\n": 1287,
      "lnej": 1288,
      "pej": 1289,
      "łym": 1290,
      "▁Ł": 1291,
      "muje": 1292,
      ".,": 1293,
      "▁kobie": 1294,
      "lega": 1295,
      "▁Me": 1296,
      "duje": 1297,
      "nicy": 1298,
      "▁13": 1299,
      "▁mę": 1300,
      "cześ": 1301,
      "▁pła": 1302,
      "▁wszystko": 1303,
      "▁bada": 1304,
      "▁Dla": 1305,
      "▁Polski": 1306,
      "▁17": 1307,
      "nta": 1308,
      "nosi": 1309,
      "łów": 1310,
      "nić": 1311,
      "▁książ": 1312,
      "stra": 1313,
      "dług": 1314,
      "rek": 1315,
      "▁teraz": 1316,
      "!\n": 1317,
      "▁Warsza": 1318,
      "łowa": 1319,
      "▁podczas": 1320,
      "rwa": 1321,
      "jącego": 1322,
      "▁zwy": 1323,
      "▁doda": 1324,
      "wen": 1325,
      "▁począ": 1326,
      "nistra": 1327,
      "▁niego": 1328,
      "▁ad": 1329,
      "▁przedsta": 1330,
      "▁dwa": 1331,
      "▁życie": 1332,
      "stytu": 1333,
      "▁pół": 1334,
      "wsze": 1335,
      "be": 1336,
      "cki": 1337,
      "II": 1338,
      "wój": 1339,
      "▁musi": 1340,
      "stro": 1341,
      "ul": 1342,
      "tej": 1343,
      "▁wal": 1344,
      "..": 1345,
      "chro": 1346,
      "▁tym,": 1347,
      "tel": 1348,
      "▁szyb": 1349,
      "lep": 1350,
      "pada": 1351,
      "▁two": 1352,
      "cznym": 1353,
      "rywa": 1354,
      "nem": 1355,
      "my,": 1356,
      "▁sprzeda": 1357,
      "usz": 1358,
      "wem": 1359,
      "mar": 1360,
      "koń": 1361,
      "ten": 1362,
      "▁so": 1363,
      "▁licz": 1364,
      "▁powsta": 1365,
      "▁póź": 1366,
      "▁konie": 1367,
      "ber": 1368,
      "menta": 1369,
      "stąpi": 1370,
      "▁Ca": 1371,
      "▁mło": 1372,
      "żenia": 1373,
      "▁czer": 1374,
      "▁par": 1375,
      "▁części": 1376,
      "▁poda": 1377,
      "▁wiele": 1378,
      "▁człowie": 1379,
      "zo": 1380,
      "▁mniej": 1381,
      "soby": 1382,
      "▁m.": 1383,
      "▁ludzi": 1384,
      "taj": 1385,
      "▁wprowa": 1386,
      "star": 1387,
      "▁którego": 1388,
      "cześniej": 1389,
      "nister": 1390,
      "siada": 1391,
      "▁ok": 1392,
      "tki": 1393,
      ".p": 1394,
      "par": 1395,
      "▁zie": 1396,
      "▁jedy": 1397,
      "vi": 1398,
      "▁tran": 1399,
      "mach": 1400,
      "ekla": 1401,
      "▁latach": 1402,
      "trze": 1403,
      "▁mó": 1404,
      "lny": 1405,
      "▁związ": 1406,
      "▁sam": 1407,
      "▁związa": 1408,
      "oru": 1409,
      "▁świe": 1410,
      "▁De": 1411,
      "▁Ju": 1412,
      "nętrz": 1413,
      "cię": 1414,
      "▁Fran": 1415,
      "▁czasie": 1416,
      "▁czyli": 1417,
      "▁polity": 1418,
      "leg": 1419,
      "▁poprze": 1420,
      "meryka": 1421,
      "▁ban": 1422,
      "▁wpły": 1423,
      "▁należy": 1424,
      "wą": 1425,
      "▁cię": 1426,
      "cji\n": 1427,
      "chi": 1428,
      "biera": 1429,
      "▁właśnie": 1430,
      "▁zrobi": 1431,
      "▁czasu": 1432,
      "▁zapew": 1433,
      "hi": 1434,
      "0\n": 1435,
      "▁kto": 1436,
      "▁kre": 1437,
      "mowy": 1438,
      "per": 1439,
      "▁inwe": 1440,
      "ple": 1441,
      "▁Jo": 1442,
      "▁poz\n": 1443,
      "▁Ho": 1444,
      "wór": 1445,
      "▁powiedział": 1446,
      "▁euro": 1447,
      "ści,": 1448,
      "▁ter": 1449,
      "▁dzieci": 1450,
      "▁świat": 1451,
      "▁pró": 1452,
      "▁ho": 1453,
      "ł\n": 1454,
      "▁pozy": 1455,
      "▁Pre": 1456,
      "czną": 1457,
      "▁funk": 1458,
      "▁Roz": 1459,
      "▁wszystkich": 1460,
      "▁drugie": 1461,
      "▁tech": 1462,
      "▁ani": 1463,
      "wnętrz": 1464,
      "bar": 1465,
      "▁coś": 1466,
      "▁okreś": 1467,
      "▁pkt": 1468,
      "lie": 1469,
      "▁So": 1470,
      "ięki": 1471,
      "ń,": 1472,
      "▁an": 1473,
      "któ": 1474,
      "▁stosu": 1475,
      "▁siebie": 1476,
      "▁wnio": 1477,
      "▁wzglę": 1478,
      "▁czło": 1479,
      "▁zde": 1480,
      "▁Fi": 1481,
      "ształ": 1482,
      "▁La": 1483,
      "ut": 1484,
      "▁oce": 1485,
      "▁Ob": 1486,
      "tyczą": 1487,
      "▁An": 1488,
      "▁ozna": 1489,
      "lem": 1490,
      "nąć": 1491,
      "ków,": 1492,
      "▁pun": 1493,
      "ntów": 1494,
      "▁przygo": 1495,
      "od": 1496,
      "▁Polska": 1497,
      "▁zamie": 1498,
      "▁ponie": 1499,
      "▁ha": 1500,
      "▁dosta": 1501,
      "▁spotka": 1502,
      "łę": 1503,
      "▁m.in\n": 1504,
      "lność": 1505,
      "▁zakre": 1506,
      "łych": 1507,
      "▁tema": 1508,
      "▁dotyczą": 1509,
      "dy,": 1510,
      "▁ak": 1511,
      "nienia": 1512,
      "1\n": 1513,
      "tery": 1514,
      "pod": 1515,
      "gle": 1516,
      "▁warun": 1517,
      "▁gro": 1518,
      "ńskiego": 1519,
      "▁uda": 1520,
      "▁chce": 1521,
      "łka": 1522,
      "▁Al": 1523,
      "▁życia": 1524,
      "▁pozio": 1525,
      "▁takie": 1526,
      "ment": 1527,
      "owych,": 1528,
      "tury": 1529,
      "▁jakie": 1530,
      "resz": 1531,
      "▁Jeśli": 1532,
      "▁SS": 1533,
      "cie,": 1534,
      "śród": 1535,
      "▁przedsię": 1536,
      "▁prezyden": 1537,
      "▁temu": 1538,
      "2\n": 1539,
      "▁1,": 1540,
      "▁państ": 1541,
      "▁specja": 1542,
      "▁tys\n": 1543,
      "ma\n": 1544,
      "cer": 1545,
      "▁żad": 1546,
      "▁Mu": 1547,
      "▁zawie": 1548,
      "▁doku": 1549,
      "fia": 1550,
      "sek": 1551,
      "tera": 1552,
      "czywiście": 1553,
      "nach": 1554,
      "▁mln": 1555,
      "ni,": 1556,
      "nki": 1557,
      "▁wielu": 1558,
      "▁ws": 1559,
      "żenie": 1560,
      "▁Pe": 1561,
      "▁finans": 1562,
      "▁30": 1563,
      "▁wykona": 1564,
      "ta,": 1565,
      "wio": 1566,
      "wanie": 1567,
      "▁niej": 1568,
      "▁Jest": 1569,
      "jącej": 1570,
      "cę": 1571,
      "▁godzi": 1572,
      "▁cha": 1573,
      "łej": 1574,
      "uje": 1575,
      "spe": 1576,
      "c,": 1577,
      "▁Jed": 1578,
      "nali": 1579,
      "krai": 1580,
      "pita": 1581,
      "▁pyta": 1582,
      "r\n": 1583,
      "▁Pola": 1584,
      "▁podob": 1585,
      "mal": 1586,
      "▁198": 1587,
      "▁nada": 1588,
      "rzenia": 1589,
      "▁przysz": 1590,
      "▁And": 1591,
      "▁klu": 1592,
      "nił": 1593,
      "▁\"P": 1594,
      "▁tre": 1595,
      "zd": 1596,
      "...\n": 1597,
      "▁zdr": 1598,
      "net": 1599,
      "▁jeden": 1600,
      "▁prawa": 1601,
      "▁ostatni": 1602,
      "ską": 1603,
      "▁1\n": 1604,
      "lenia": 1605,
      "jąca": 1606,
      "▁kraju": 1607,
      "gdy": 1608,
      "▁No": 1609,
      "czności": 1610,
      "▁nam": 1611,
      "▁stu": 1612,
      "▁jaki": 1613,
      "czna": 1614,
      "▁obie": 1615,
      "▁następ": 1616,
      "▁uzna": 1617,
      "-19": 1618,
      "prezen": 1619,
      "powiada": 1620,
      "▁świad": 1621,
      "▁usłu": 1622,
      "ą,": 1623,
      "sów": 1624,
      "raca": 1625,
      "▁US": 1626,
      "▁później": 1627,
      "i,": 1628,
      "▁każdy": 1629,
      "▁wynika": 1630,
      "▁śmier": 1631,
      "syj": 1632,
      "▁bud": 1633,
      "▁em": 1634,
      "kami": 1635,
      "▁obro": 1636,
      "▁ener": 1637,
      "▁elekt": 1638,
      "rom": 1639,
      "zja": 1640,
      "działa": 1641,
      "nych\n": 1642,
      "wę": 1643,
      "teria": 1644,
      "cy,": 1645,
      "▁waż": 1646,
      "man": 1647,
      "log": 1648,
      "cjona": 1649,
      "ku,": 1650,
      "▁czym": 1651,
      "▁Hi": 1652,
      "▁wcześniej": 1653,
      "▁2\n": 1654,
      "▁rynku": 1655,
      "sti": 1656,
      "▁choć": 1657,
      "kle": 1658,
      "fo": 1659,
      "twie": 1660,
      "▁Gdy": 1661,
      "▁wszystkie": 1662,
      "▁tę": 1663,
      "kowi": 1664,
      "▁Rekla": 1665,
      "▁spół": 1666,
      "chodzą": 1667,
      "▁posiada": 1668,
      "▁Kie": 1669,
      "▁kier": 1670,
      "dniej": 1671,
      "czyna": 1672,
      "ss": 1673,
      "▁rozwiąza": 1674,
      "ke": 1675,
      "l,": 1676,
      "łość": 1677,
      "nęła": 1678,
      "żu": 1679,
      "▁part": 1680,
      "▁szczegól": 1681,
      "▁trzeba": 1682,
      "wer": 1683,
      "▁auto": 1684,
      "▁osoby": 1685,
      "▁została": 1686,
      "▁dodat": 1687,
      "▁dwó": 1688,
      "ort": 1689,
      "▁kilku": 1690,
      "pozy": 1691,
      "niki": 1692,
      "obec": 1693,
      "▁dni": 1694,
      "▁kole": 1695,
      "▁kontro": 1696,
      "wyż": 1697,
      "and": 1698,
      "che": 1699,
      "▁Są": 1700,
      "▁tro": 1701,
      "▁żo": 1702,
      "▁uzy": 1703,
      "▁chcia": 1704,
      "▁histor": 1705,
      "▁wspól": 1706,
      "▁zam": 1707,
      "▁kraj": 1708,
      "▁wysoko": 1709,
      "jęcia": 1710,
      "5\n": 1711,
      "mawia": 1712,
      "▁dobrze": 1713,
      "▁robi": 1714,
      "▁przedsiębior": 1715,
      "▁pły": 1716,
      "sły": 1717,
      "▁zawsze": 1718,
      "▁por": 1719,
      "▁woje": 1720,
      "▁Fa": 1721,
      "▁oka": 1722,
      "▁Dz": 1723,
      "▁aż": 1724,
      "▁reali": 1725,
      "▁min": 1726,
      "▁wymaga": 1727,
      "3\n": 1728,
      ",5": 1729,
      "▁Bu": 1730,
      "▁lecz": 1731,
      "▁domu": 1732,
      "tuł": 1733,
      "niku": 1734,
      "▁komu": 1735,
      "czes": 1736,
      "któw": 1737,
      "▁stanie": 1738,
      "ło,": 1739,
      "▁mili": 1740,
      "▁nic": 1741,
      "▁Or": 1742,
      "mentu": 1743,
      "tomiast": 1744,
      "▁dwóch": 1745,
      "żczy": 1746,
      "byt": 1747,
      "tion": 1748,
      "▁określo": 1749,
      "ją,": 1750,
      "ty\n": 1751,
      "sięcy": 1752,
      "▁czyn": 1753,
      "▁pamię": 1754,
      "▁Rze": 1755,
      "▁ucze": 1756,
      "jącym": 1757,
      "▁otrzyma": 1758,
      "lnym": 1759,
      "▁Ha": 1760,
      "śnia": 1761,
      "owe,": 1762,
      "▁Cho": 1763,
      "▁Bar": 1764,
      "4\n": 1765,
      "ce,": 1766,
      "▁pierwszy": 1767,
      "▁Tu": 1768,
      "▁25": 1769,
      "▁często": 1770,
      "▁podej": 1771,
      "kow": 1772,
      "łoży": 1773,
      "▁Nr": 1774,
      "▁same": 1775,
      "gło": 1776,
      "▁Tak": 1777,
      "▁ofer": 1778,
      "▁obowiąz": 1779,
      "▁pomy": 1780,
      "▁ist": 1781,
      "bia": 1782,
      "ard": 1783,
      "czeniu": 1784,
      "sław": 1785,
      "▁ska": 1786,
      "▁Reklama\n": 1787,
      "▁mógł": 1788,
      "▁stycz": 1789,
      "owych\n": 1790,
      "▁bezpie": 1791,
      "▁zaj": 1792,
      "śre": 1793,
      "▁zada": 1794,
      "▁uro": 1795,
      "▁umie": 1796,
      "▁tego,": 1797,
      "jo": 1798,
      "pisy\n": 1799,
      "▁sek": 1800,
      "ku\n": 1801,
      "▁rzecz": 1802,
      "pom": 1803,
      "▁prawo": 1804,
      "tedy": 1805,
      "▁Kra": 1806,
      "min": 1807,
      "▁miesią": 1808,
      "szę": 1809,
      "żli": 1810,
      "▁Sy": 1811,
      "piero": 1812,
      "▁II": 1813,
      "▁pracowni": 1814,
      "▁regu": 1815,
      "lan": 1816,
      "laz": 1817,
      "▁dzien": 1818,
      "▁jednost": 1819,
      "▁czego": 1820,
      "roni": 1821,
      "▁ograni": 1822,
      "czeń": 1823,
      "▁łą": 1824,
      "piej": 1825,
      "mpa": 1826,
      "▁np\n": 1827,
      "▁wyja": 1828,
      "▁ona": 1829,
      "nuje": 1830,
      "mentów": 1831,
      "▁samy": 1832,
      "lenie": 1833,
      "szenia": 1834,
      "szedł": 1835,
      "▁Przypisy\n": 1836,
      "▁rzą": 1837,
      "▁197": 1838,
      "▁przeprowa": 1839,
      "▁tygo": 1840,
      "▁stwier": 1841,
      "▁loka": 1842,
      "ktyw": 1843,
      "▁obo": 1844,
      "▁Ne": 1845,
      "▁swoich": 1846,
      "ździe": 1847,
      "▁arty": 1848,
      "▁przyzna": 1849,
      "▁dostęp": 1850,
      "mienia": 1851,
      "▁ź": 1852,
      "▁politycz": 1853,
      "ver": 1854,
      "ścią": 1855,
      ",\n": 1856,
      "8\n": 1857,
      "wca": 1858,
      "▁wyra": 1859,
      "6\n": 1860,
      "▁najwięk": 1861,
      "▁rodza": 1862,
      "gna": 1863,
      "owarzy": 1864,
      "ków\n": 1865,
      "▁bli": 1866,
      "▁ję": 1867,
      "▁wybor": 1868,
      "ld": 1869,
      "▁strony": 1870,
      "▁dziec": 1871,
      "▁wszystkim": 1872,
      "ly": 1873,
      "▁Lo": 1874,
      "▁postęp": 1875,
      "ści\n": 1876,
      "szko": 1877,
      "▁razem": 1878,
      "▁Se": 1879,
      "▁Pu": 1880,
      "zywa": 1881,
      "▁urzą": 1882,
      "▁Du": 1883,
      "▁roku\n": 1884,
      "bardziej": 1885,
      "▁194": 1886,
      "▁uważa": 1887,
      "ckiego": 1888,
      "wala": 1889,
      "▁lata": 1890,
      "▁kieru": 1891,
      "onu": 1892,
      "jącą": 1893,
      "▁Dzie": 1894,
      "▁celu": 1895,
      "▁osią": 1896,
      "sen": 1897,
      "▁podstawie": 1898,
      "rea": 1899,
      "stosowa": 1900,
      "naj": 1901,
      "▁ne": 1902,
      "▁miała": 1903,
      "cach": 1904,
      "nomi": 1905,
      "wego": 1906,
      "▁ochro": 1907,
      "▁wrze": 1908,
      "len": 1909,
      "7\n": 1910,
      "ństwo": 1911,
      "cież": 1912,
      "▁śre": 1913,
      "▁oj": 1914,
      "cydowa": 1915,
      "▁ki": 1916,
      "▁zau": 1917,
      "▁takich": 1918,
      "▁długo": 1919,
      "▁Europej": 1920,
      "▁uzyska": 1921,
      "niesie": 1922,
      "▁eksp": 1923,
      "▁państwa": 1924,
      "▁charak": 1925,
      "chę": 1926,
      "dne": 1927,
      "ministra": 1928,
      "cego": 1929,
      "▁sil": 1930,
      "▁służ": 1931,
      "try": 1932,
      "nego,": 1933,
      "▁fo": 1934,
      "▁klie": 1935,
      "tuje": 1936,
      "lowa": 1937,
      "▁niektó": 1938,
      "▁Ku": 1939,
      "kla": 1940,
      "▁tłu": 1941,
      "gii": 1942,
      "▁Kiedy": 1943,
      "▁wą": 1944,
      "łek": 1945,
      "▁każde": 1946,
      "wczy": 1947,
      "gą": 1948,
      "ńskiej": 1949,
      "▁konku": 1950,
      "▁coraz": 1951,
      "ra,": 1952,
      "czyła": 1953,
      "▁21": 1954,
      "▁\"S": 1955,
      "▁rząd": 1956,
      "▁moc": 1957,
      "▁star": 1958,
      "ca,": 1959,
      "▁stop": 1960,
      "gi:": 1961,
      "uka": 1962,
      "▁inne": 1963,
      "▁zakoń": 1964,
      "ły,": 1965,
      "▁zarzą": 1966,
      "▁gene": 1967,
      "owej,": 1968,
      "formowa": 1969,
      "▁mieć": 1970,
      "IE": 1971,
      "rach": 1972,
      "▁per": 1973,
      "▁wyłą": 1974,
      "▁którą": 1975,
      "▁myś": 1976,
      "czone": 1977,
      "??": 1978,
      "gnie": 1979,
      "▁część": 1980,
      "ster": 1981,
      "lia": 1982,
      "▁zapa": 1983,
      "cił": 1984,
      "▁chło": 1985,
      "cy\n": 1986,
      "le,": 1987,
      "kowy": 1988,
      "wódz": 1989,
      "▁zu": 1990,
      "▁początku": 1991,
      "cen": 1992,
      "▁oznacza": 1993,
      "▁TV": 1994,
      "▁mamy": 1995,
      "kowe": 1996,
      "▁poko": 1997,
      "liwość": 1998,
      "▁Tagi:": 1999,
      "rych": 2000,
      "▁Ukrai": 2001,
      "▁mężczy": 2002,
      "▁moje": 2003,
      "dio": 2004,
      "▁nowe": 2005,
      "▁100": 2006,
      "ć.\n": 2007,
      "▁poza": 2008,
      "▁współpra": 2009,
      "▁opu": 2010,
      "ła\n": 2011,
      "▁korzysta": 2012,
      "kol": 2013,
      "ń\n": 2014,
      "▁lip": 2015,
      "kom": 2016,
      "▁opera": 2017,
      "▁\"W": 2018,
      "▁pojawi": 2019,
      "▁2020": 2020,
      "2,": 2021,
      "▁dziś": 2022,
      "cie\n": 2023,
      "▁przygotowa": 2024,
      "rucho": 2025,
      "leż": 2026,
      "▁podkre": 2027,
      ";\n": 2028,
      "▁Ru": 2029,
      "▁\"T": 2030,
      "śmie": 2031,
      "▁(19": 2032,
      "▁daw": 2033,
      "lni": 2034,
      "▁inwesty": 2035,
      "▁udział": 2036,
      "▁wspo": 2037,
      "tyka": 2038,
      "▁stosowa": 2039,
      "▁Mie": 2040,
      "▁języ": 2041,
      "ryta": 2042,
      "nków": 2043,
      "▁dzięki": 2044,
      "▁spa": 2045,
      "ce\n": 2046,
      "tne": 2047,
      "▁Y": 2048,
      "▁danych": 2049,
      "no,": 2050,
      "▁potem": 2051,
      "▁24": 2052,
      "land": 2053,
      "▁zaś": 2054,
      "szyscy": 2055,
      "▁nr": 2056,
      "cześnie": 2057,
      "▁trwa": 2058,
      "li\n": 2059,
      "mem": 2060,
      "ciel": 2061,
      "czeństwa": 2062,
      "nej,": 2063,
      "▁mode": 2064,
      "d\n": 2065,
      "▁wobec": 2066,
      "▁wę": 2067,
      "▁cia": 2068,
      "9\n": 2069,
      "ną,": 2070,
      "▁wygląda": 2071,
      "szenie": 2072,
      "▁jednym": 2073,
      "stan": 2074,
      "kce": 2075,
      "▁wer": 2076,
      "▁taki": 2077,
      "piera": 2078,
      "owej\n": 2079,
      "▁zwie": 2080,
      "▁książki": 2081,
      "budowa": 2082,
      "▁zain": 2083,
      "▁firmy": 2084,
      "kuje": 2085,
      "ciąg": 2086,
      "sił": 2087,
      "▁Su": 2088,
      "▁najlep": 2089,
      "wane": 2090,
      "▁miejsc": 2091,
      "▁kul": 2092,
      "▁one": 2093,
      "▁opi": 2094,
      "▁ot": 2095,
      "matycz": 2096,
      "dli": 2097,
      "bro": 2098,
      "AT": 2099,
      "ry,": 2100,
      "miec": 2101,
      "▁iż": 2102,
      "szech": 2103,
      "▁najbardziej": 2104,
      "pę": 2105,
      "▁twa": 2106,
      "misji": 2107,
      "ńska": 2108,
      "▁kro": 2109,
      "cyjnych": 2110,
      "▁dwu": 2111,
      "▁świata": 2112,
      "▁razie": 2113,
      "nsowa": 2114,
      "▁zakresie": 2115,
      "rzenie": 2116,
      "201": 2117,
      "3,": 2118,
      "wz": 2119,
      "▁Wiel": 2120,
      "▁zawiera": 2121,
      "va": 2122,
      "▁swoją": 2123,
      "sh": 2124,
      "▁Ży": 2125,
      "łó": 2126,
      "▁and": 2127,
      "▁miasta": 2128,
      "▁sier": 2129,
      "▁Według": 2130,
      "owiem": 2131,
      "▁The": 2132,
      "▁Be": 2133,
      "▁muzy": 2134,
      "▁powodu": 2135,
      "▁materia": 2136,
      "▁Pla": 2137,
      "▁samocho": 2138,
      "łożo": 2139,
      "▁Może": 2140,
      "▁sztu": 2141,
      "cyjne": 2142,
      "▁Pier": 2143,
      "łem,": 2144,
      "▁wiadomo": 2145,
      "▁ogło": 2146,
      "▁sty": 2147,
      "▁działalności": 2148,
      "▁cał": 2149,
      "▁ameryka": 2150,
      "ogra": 2151,
      "ździer": 2152,
      "szczę": 2153,
      "▁około": 2154,
      "nością": 2155,
      "wej": 2156,
      "▁rozporzą": 2157,
      "▁listo": 2158,
      "nami": 2159,
      "kura": 2160,
      "▁czu": 2161,
      "▁eg": 2162,
      "▁kwiet": 2163,
      "▁przewo": 2164,
      "▁Autor": 2165,
      "zne": 2166,
      "▁zdoby": 2167,
      "tym": 2168,
      "fika": 2169,
      "woła": 2170,
      "fek": 2171,
      "▁Poli": 2172,
      "▁zespo": 2173,
      "▁chodzi": 2174,
      "▁większo": 2175,
      "▁Jednak": 2176,
      "prawdę": 2177,
      "▁Wię": 2178,
      "▁Uni": 2179,
      "▁temat": 2180,
      "ler": 2181,
      "▁Ry": 2182,
      "podob": 2183,
      "is": 2184,
      "stów": 2185,
      "cić": 2186,
      "▁proc": 2187,
      "▁jeżeli": 2188,
      "pia": 2189,
      "▁przykład": 2190,
      "▁3\n": 2191,
      "▁zdecydowa": 2192,
      "▁rok": 2193,
      "▁paździer": 2194,
      "▁szybko": 2195,
      "▁nigdy": 2196,
      "ciąż": 2197,
      "▁22": 2198,
      "▁jedynie": 2199,
      "▁zostały": 2200,
      "bym": 2201,
      "dy\n": 2202,
      "▁rozu": 2203,
      "▁przedstawi": 2204,
      "▁księ": 2205,
      "▁obej": 2206,
      "▁Świa": 2207,
      "▁sez": 2208,
      "1,": 2209,
      "▁miejscu": 2210,
      "▁Ze": 2211,
      "mę": 2212,
      "▁wej": 2213,
      "mii": 2214,
      "▁urzę": 2215,
      "▁przej": 2216,
      "▁reprezen": 2217,
      "kolwie": 2218,
      "om": 2219,
      "▁isto": 2220,
      "0,": 2221,
      "▁mieszkań": 2222,
      "możli": 2223,
      "pla": 2224,
      "▁drugi": 2225,
      "kcja": 2226,
      "▁przyja": 2227,
      "strzy": 2228,
      "▁kan": 2229,
      "▁ciągu": 2230,
      "nka": 2231,
      "tu,": 2232,
      "nienie": 2233,
      "▁swojej": 2234,
      "▁potra": 2235,
      "▁telewi": 2236,
      "▁swoim": 2237,
      "port": 2238,
      "▁nieza": 2239,
      "▁196": 2240,
      "nij": 2241,
      "▁Niem": 2242,
      "▁znale": 2243,
      "▁Jego": 2244,
      "▁wybra": 2245,
      "▁ponieważ": 2246,
      "▁zmienia": 2247,
      "▁Spo": 2248,
      "zacja": 2249,
      "oważ": 2250,
      "ir": 2251,
      "stw": 2252,
      "noc": 2253,
      "wych": 2254,
      "owe\n": 2255,
      "▁193": 2256,
      "kowych": 2257,
      "▁nowo": 2258,
      "west": 2259,
      "rzch": 2260,
      "▁zwięk": 2261,
      "kowo": 2262,
      "lna": 2263,
      "▁wyna": 2264,
      "działu": 2265,
      "dności": 2266,
      "z\n": 2267,
      "bieg": 2268,
      "zumie": 2269,
      "▁zoba": 2270,
      "4,": 2271,
      "▁roku,": 2272,
      "ni\n": 2273,
      "wała": 2274,
      "spoli": 2275,
      "▁związku": 2276,
      "▁USA": 2277,
      "▁informacji": 2278,
      "▁wieku": 2279,
      "6,": 2280,
      "tami": 2281,
      "▁działania": 2282,
      "▁sce": 2283,
      "▁wartości": 2284,
      "gh": 2285,
      "cenia": 2286,
      "▁natomiast": 2287,
      "▁czeka": 2288,
      "▁uczest": 2289,
      "▁wyro": 2290,
      "▁jeste": 2291,
      "▁kwo": 2292,
      "▁stycznia": 2293,
      "▁wykony": 2294,
      "▁drugiej": 2295,
      "▁samym": 2296,
      "yba": 2297,
      "▁Jan": 2298,
      "gani": 2299,
      "lacji": 2300,
      "▁preze": 2301,
      "▁wyż": 2302,
      "▁stronie": 2303,
      "▁wtedy": 2304,
      "wski": 2305,
      "▁wojs": 2306,
      "jedno": 2307,
      "kolwiek": 2308,
      "czy,": 2309,
      "▁zatru": 2310,
      "▁słowa": 2311,
      "gar": 2312,
      "▁sierp": 2313,
      "narod": 2314,
      "▁państw": 2315,
      "▁nią": 2316,
      "▁gó": 2317,
      "▁para": 2318,
      "sor": 2319,
      "▁cięż": 2320,
      "sz,": 2321,
      "zer": 2322,
      "▁ludzie": 2323,
      "▁bowiem": 2324,
      "dopodob": 2325,
      "▁ramach": 2326,
      "▁\"N": 2327,
      "je,": 2328,
      "▁wraz": 2329,
      "▁rozwo": 2330,
      "▁(w": 2331,
      "▁Wła": 2332,
      "▁dlatego": 2333,
      "▁kredy": 2334,
      "▁odda": 2335,
      "▁23": 2336,
      "▁2019": 2337,
      "▁wykorzysta": 2338,
      "▁ż": 2339,
      "kę,": 2340,
      "5,": 2341,
      "▁dalej": 2342,
      "wszy": 2343,
      "▁wło": 2344,
      "▁opła": 2345,
      "ra\n": 2346,
      "ny.\n": 2347,
      "▁mist": 2348,
      "▁skła": 2349,
      "niejsze": 2350,
      "▁intere": 2351,
      "▁odpowiedzia": 2352,
      "▁Tytuł": 2353,
      "dzeni": 2354,
      "▁prawie": 2355,
      "d,": 2356,
      "nien": 2357,
      "▁możliwości": 2358,
      "▁Wiadomo": 2359,
      "▁potwier": 2360,
      "▁administra": 2361,
      "ciem": 2362,
      "▁195": 2363,
      "tacji": 2364,
      "▁Si": 2365,
      "fer": 2366,
      "▁stwo": 2367,
      "▁be": 2368,
      "▁maja": 2369,
      "rót": 2370,
      "▁Minister": 2371,
      "▁zwo": 2372,
      "▁pani": 2373,
      "▁.\n": 2374,
      "▁naprawdę": 2375,
      "▁wia": 2376,
      "▁wśród": 2377,
      "ktycz": 2378,
      "▁dzia": 2379,
      "jecha": 2380,
      "pular": 2381,
      "jął": 2382,
      "▁nowych": 2383,
      "▁tytu": 2384,
      "▁przyj": 2385,
      "▁szczę": 2386,
      "▁czerwca": 2387,
      "▁cu": 2388,
      "▁PiS": 2389,
      "▁potrzeb": 2390,
      "owego,": 2391,
      "▁najmniej": 2392,
      "mer": 2393,
      "▁zaku": 2394,
      "▁składa": 2395,
      "▁zaczę": 2396,
      "▁podmio": 2397,
      "cent": 2398,
      "nawi": 2399,
      "moc": 2400,
      "▁ok\n": 2401,
      "▁2018": 2402,
      "▁My": 2403,
      "▁1)": 2404,
      "▁poka": 2405,
      "▁obu": 2406,
      "owy,": 2407,
      "▁termi": 2408,
      "▁Wszyst": 2409,
      "▁zewnętrz": 2410,
      "▁dopiero": 2411,
      "▁2016": 2412,
      "qu": 2413,
      "▁ofi": 2414,
      "zmu": 2415,
      "owę": 2416,
      "▁pozwo": 2417,
      "rzej": 2418,
      "▁zawar": 2419,
      "▁dwie": 2420,
      "pospoli": 2421,
      "ca\n": 2422,
      "▁niewie": 2423,
      "ńczy": 2424,
      "▁istnie": 2425,
      "czaj": 2426,
      "▁zy": 2427,
      "▁2)": 2428,
      "▁cały": 2429,
      "▁zbyt": 2430,
      "▁He": 2431,
      "▁napisa": 2432,
      "waża": 2433,
      "kół": 2434,
      "▁użytk": 2435,
      "▁klasy": 2436,
      "cyjnego": 2437,
      "▁sieci": 2438,
      "ger": 2439,
      "ium": 2440,
      "▁dowo": 2441,
      "▁wciąż": 2442,
      "tu\n": 2443,
      "▁Krzy": 2444,
      "▁dom": 2445,
      "dro": 2446,
      "konomi": 2447,
      "rii": 2448,
      "▁mam": 2449,
      "dzieć": 2450,
      "▁przewi": 2451,
      "▁Gra": 2452,
      "7,": 2453,
      "u,": 2454,
      "▁doświad": 2455,
      "wicz": 2456,
      "para": 2457,
      "▁osiąg": 2458,
      "▁udzie": 2459,
      "▁połu": 2460,
      "▁Ge": 2461,
      "▁zaka": 2462,
      "▁podstaw": 2463,
      "...": 2464,
      "▁sen": 2465,
      "czony": 2466,
      "▁jednej": 2467,
      "cio": 2468,
      "▁bia": 2469,
      "▁pienię": 2470,
      "9,": 2471,
      "dach": 2472,
      "▁otwar": 2473,
      "tural": 2474,
      "▁sobą": 2475,
      "▁możli": 2476,
      "żyć": 2477,
      "▁2015": 2478,
      "▁koniec": 2479,
      "▁\"M": 2480,
      "▁mld": 2481,
      "▁jednego": 2482,
      "000": 2483,
      "]\n": 2484,
      "żył": 2485,
      "krę": 2486,
      "łnie": 2487,
      "▁wojewódz": 2488,
      "▁przede": 2489,
      "ówczas": 2490,
      "niu,": 2491,
      "mart": 2492,
      "łoby": 2493,
      "spół": 2494,
      "▁grupy": 2495,
      "▁pisa": 2496,
      "▁sła": 2497,
      "▁(D": 2498,
      "ryty": 2499,
      "feren": 2500,
      "równo": 2501,
      "▁sły": 2502,
      "▁2021": 2503,
      "--": 2504,
      "▁rzu": 2505,
      "▁znalaz": 2506,
      "▁czar": 2507,
      "▁Jeżeli": 2508,
      "wić": 2509,
      "▁trafi": 2510,
      "▁ubezpie": 2511,
      "nal": 2512,
      ".1": 2513,
      "▁pozwala": 2514,
      "▁krzy": 2515,
      "▁cent": 2516,
      "▁dokona": 2517,
      "▁towarzy": 2518,
      "▁sło": 2519,
      "▁okaza": 2520,
      "nej\n": 2521,
      "▁Rob": 2522,
      ".0": 2523,
      "▁Przed": 2524,
      "▁grudnia": 2525,
      "zw\n": 2526,
      "▁skar": 2527,
      "▁zostanie": 2528,
      "▁uwagę": 2529,
      "▁umowy": 2530,
      "▁anali": 2531,
      "le\n": 2532,
      "ią": 2533,
      "tow": 2534,
      "▁oś": 2535,
      "czonych": 2536,
      "▁Micha": 2537,
      "▁2011": 2538,
      "lach": 2539,
      "8,": 2540,
      "▁zmiany": 2541,
      "us": 2542,
      "▁50": 2543,
      "▁Art\n": 2544,
      "▁UE": 2545,
      "▁pozna": 2546,
      "▁trak": 2547,
      "▁kur": 2548,
      "czych": 2549,
      "▁poin": 2550,
      "▁spad": 2551,
      "▁chwili": 2552,
      "dziła": 2553,
      "▁at": 2554,
      "du,": 2555,
      "▁połą": 2556,
      "▁okoli": 2557,
      "cieli": 2558,
      "rybu": 2559,
      "▁Dy": 2560,
      "nar": 2561,
      "res": 2562,
      "wor": 2563,
      "▁wynosi": 2564,
      "rzyć": 2565,
      "ry\n": 2566,
      "czął": 2567,
      "▁sytuacji": 2568,
      "▁zarówno": 2569,
      "▁okresie": 2570,
      "son": 2571,
      "▁musia": 2572,
      "▁środowi": 2573,
      "▁Pio": 2574,
      "tom": 2575,
      "▁docho": 2576,
      "▁Tym": 2577,
      "ńskie": 2578,
      "▁2014": 2579,
      "pomina": 2580,
      "▁prostu": 2581,
      "kiwa": 2582,
      "▁psy": 2583,
      "▁2017": 2584,
      "ta\n": 2585,
      "▁gmi": 2586,
      "zję": 2587,
      "▁ge": 2588,
      "ść,": 2589,
      "mpi": 2590,
      "▁według": 2591,
      "▁Ce": 2592,
      "▁2022": 2593,
      "pol": 2594,
      "szczy": 2595,
      "łeś": 2596,
      "no-": 2597,
      "▁Cze": 2598,
      "▁Autor:": 2599,
      "tur": 2600,
      "▁miejsca": 2601,
      "▁2,": 2602,
      "▁gdyby": 2603,
      "▁techno": 2604,
      "▁przyczy": 2605,
      "▁byli": 2606,
      "▁kli": 2607,
      "▁ile": 2608,
      "▁konsu": 2609,
      "nym,": 2610,
      "▁wyją": 2611,
      "▁\"R": 2612,
      "cep": 2613,
      "▁regi": 2614,
      "wal": 2615,
      "▁możemy": 2616,
      "mieniu": 2617,
      ".pl": 2618,
      "pełnie": 2619,
      "strzega": 2620,
      "wym": 2621,
      "▁książki:": 2622,
      "▁obraz": 2623,
      "gry": 2624,
      "'a": 2625,
      "▁eme": 2626,
      "▁opie": 2627,
      "▁oczy": 2628,
      "▁hand": 2629,
      "▁grani": 2630,
      "▁\"C": 2631,
      "czka": 2632,
      "▁rosyj": 2633,
      "prac": 2634,
      "szło": 2635,
      "Ba": 2636,
      "▁budże": 2637,
      "▁względu": 2638,
      "nie.\n": 2639,
      "▁Bibli": 2640,
      "▁brz": 2641,
      "ct": 2642,
      "▁Teraz": 2643,
      "▁przekona": 2644,
      "▁marca": 2645,
      "▁dużo": 2646,
      "▁cen": 2647,
      "▁końcu": 2648,
      "▁ide": 2649,
      "owała": 2650,
      "▁pierwsze": 2651,
      "zm": 2652,
      "▁Fun": 2653,
      "da,": 2654,
      "▁śmierci": 2655,
      "▁nieu": 2656,
      "▁\"D": 2657,
      "ąd": 2658,
      "▁dobre": 2659,
      "▁tere": 2660,
      "▁Kar": 2661,
      "▁27": 2662,
      "▁twier": 2663,
      "▁media": 2664,
      "▁lipca": 2665,
      "sło": 2666,
      "▁kształ": 2667,
      "tów,": 2668,
      "▁powinien": 2669,
      "▁2012": 2670,
      "cjon": 2671,
      "▁odpowiada": 2672,
      "▁kwest": 2673,
      "▁zagro": 2674,
      "▁drz": 2675,
      "▁wra": 2676,
      "▁wysokości": 2677,
      "▁tek": 2678,
      "▁myśli": 2679,
      "▁duży": 2680,
      "▁przepis": 2681,
      "teresowa": 2682,
      "▁(2": 2683,
      "▁wypo": 2684,
      "▁poinformowa": 2685,
      "▁jestem": 2686,
      "▁tak,": 2687,
      "▁skład": 2688,
      "▁niepo": 2689,
      "▁wskaza": 2690,
      "▁swój": 2691,
      "▁września": 2692,
      "▁października": 2693,
      "mp": 2694,
      "▁obecnie": 2695,
      "czni": 2696,
      "▁wyzna": 2697,
      "ownika": 2698,
      "▁poro": 2699,
      "▁Lin": 2700,
      "pię": 2701,
      "▁premie": 2702,
      "▁zagrani": 2703,
      "▁nor": 2704,
      "ownik": 2705,
      "▁Sto": 2706,
      "▁Fe": 2707,
      "▁zgodnie": 2708,
      "▁doty": 2709,
      "ściej": 2710,
      "▁wszyscy": 2711,
      "rze,": 2712,
      "ska,": 2713,
      "▁organiza": 2714,
      "cym": 2715,
      "ósł": 2716,
      "teli": 2717,
      "▁listopada": 2718,
      "fon": 2719,
      "zyj": 2720,
      "▁rozwi": 2721,
      "kowej": 2722,
      "tura": 2723,
      "ścio": 2724,
      "▁jakby": 2725,
      "▁2013": 2726,
      "▁apli": 2727,
      "▁głę": 2728,
      "▁ata": 2729,
      "la,": 2730,
      "wersy": 2731,
      "▁szef": 2732,
      "gno": 2733,
      "▁wsze": 2734,
      "owości": 2735,
      "biega": 2736,
      "▁potrafi": 2737,
      "chód": 2738,
      "▁historii": 2739,
      "dr": 2740,
      "▁trzech": 2741,
      "tował": 2742,
      "▁Wło": 2743,
      "▁wymia": 2744,
      "▁Bra": 2745,
      "lną": 2746,
      "▁zawod": 2747,
      "ckie": 2748,
      "▁ocze": 2749,
      "▁Par": 2750,
      "▁dziennika": 2751,
      "▁wypad": 2752,
      "▁tzw\n": 2753,
      "▁Wil": 2754,
      "▁typu": 2755,
      "com": 2756,
      "▁sprzedaży": 2757,
      "▁ogrom": 2758,
      "gan": 2759,
      "nale": 2760,
      "▁Narod": 2761,
      "▁192": 2762,
      "kwi": 2763,
      "jrza": 2764,
      "▁instytu": 2765,
      "▁Warszawie": 2766,
      "kowego": 2767,
      "▁Mia": 2768,
      "zio": 2769,
      "▁pią": 2770,
      "▁wygra": 2771,
      "nięcia": 2772,
      "▁usług": 2773,
      "menty": 2774,
      "▁aktyw": 2775,
      "▁nadzie": 2776,
      "kształ": 2777,
      "▁różnych": 2778,
      "czki": 2779,
      "▁swojego": 2780,
      "▁Ban": 2781,
      "pier": 2782,
      "▁oba": 2783,
      "▁zamk": 2784,
      "pośre": 2785,
      "▁kolei": 2786,
      "logii": 2787,
      "▁26": 2788,
      "jemy": 2789,
      "▁rea": 2790,
      "▁rekla": 2791,
      "łaszcza": 2792,
      "▁opa": 2793,
      "▁zre": 2794,
      "▁poś": 2795,
      "przy": 2796,
      "jcie": 2797,
      "▁cel": 2798,
      "▁v": 2799,
      "niach": 2800,
      "▁zapro": 2801,
      "▁okrę": 2802,
      "▁komunika": 2803,
      "arów": 2804,
      "▁leka": 2805,
      "ł.\n": 2806,
      "ton": 2807,
      "ciej": 2808,
      "▁następu": 2809,
      "▁uli": 2810,
      "tt": 2811,
      "▁gwia": 2812,
      "stwie": 2813,
      "bio": 2814,
      "kiem,": 2815,
      "▁sprawa": 2816,
      "▁zastosowa": 2817,
      "ura": 2818,
      "▁wykorzy": 2819,
      "▁konta": 2820,
      "▁obywa": 2821,
      "fia\n": 2822,
      "cka": 2823,
      "dko": 2824,
      "tnych": 2825,
      "▁przezna": 2826,
      "▁Zoba": 2827,
      "▁kwietnia": 2828,
      "emo": 2829,
      "▁wielo": 2830,
      "cjach": 2831,
      "▁\"K": 2832,
      "▁zł\n": 2833,
      "▁pole": 2834,
      "ców,": 2835,
      "▁28": 2836,
      "▁Ste": 2837,
      "▁koro": 2838,
      "ksy": 2839,
      "▁obli": 2840,
      "owane": 2841,
      "▁2010": 2842,
      "▁prywa": 2843,
      "rócił": 2844,
      "towy": 2845,
      "mencie": 2846,
      "▁tyle": 2847,
      "▁pierwszej": 2848,
      "▁choro": 2849,
      "lił": 2850,
      "kę\n": 2851,
      "▁ucie": 2852,
      "▁dal": 2853,
      "▁zainteresowa": 2854,
      "wersyte": 2855,
      "▁wystar": 2856,
      "ckiej": 2857,
      "▁ktoś": 2858,
      "▁wybo": 2859,
      "▁przecież": 2860,
      "▁lotni": 2861,
      "sach": 2862,
      "ol": 2863,
      "▁Rosji": 2864,
      "m.\n": 2865,
      "▁meto": 2866,
      "IA": 2867,
      "▁dzień": 2868,
      "▁PO": 2869,
      "▁sę": 2870,
      "cyjny": 2871,
      "▁Ci": 2872,
      "równa": 2873,
      "▁St": 2874,
      "tności": 2875,
      "50": 2876,
      "▁wąt": 2877,
      "▁pom": 2878,
      "▁prawdzi": 2879,
      "wy,": 2880,
      "dzę": 2881,
      "▁Europy": 2882,
      "tychczas": 2883,
      "▁poważ": 2884,
      "▁ryzy": 2885,
      "▁pięk": 2886,
      "▁świę": 2887,
      "▁(z": 2888,
      "fikowa": 2889,
      "▁krót": 2890,
      "▁zob": 2891,
      "śni": 2892,
      "▁znajduje": 2893,
      "▁końca": 2894,
      "▁fizy": 2895,
      "▁budy": 2896,
      "▁środków": 2897,
      "jaw": 2898,
      "▁Pan": 2899,
      "▁pora": 2900,
      "▁nadal": 2901,
      "ur\n": 2902,
      "▁Gru": 2903,
      "▁lep": 2904,
      "▁fran": 2905,
      "▁jedną": 2906,
      "▁jas": 2907,
      "ciaż": 2908,
      "▁powierzch": 2909,
      "-3": 2910,
      "tory": 2911,
      "▁Rady": 2912,
      "▁pienią": 2913,
      "nego\n": 2914,
      "▁lepiej": 2915,
      "▁sąd": 2916,
      "▁tutaj": 2917,
      "▁bezpośre": 2918,
      "▁Cen": 2919,
      "▁takiego": 2920,
      "▁cieka": 2921,
      "ło\n": 2922,
      "▁stru": 2923,
      "trów": 2924,
      "rew": 2925,
      "▁sukce": 2926,
      "▁oświad": 2927,
      "u\n": 2928,
      "US": 2929,
      "▁zwycię": 2930,
      "▁nieco": 2931,
      "▁zapy": 2932,
      "▁Chi": 2933,
      "tować": 2934,
      "▁polski": 2935,
      "rzył": 2936,
      "▁ludz": 2937,
      "▁Bia": 2938,
      "▁speł": 2939,
      "mysł": 2940,
      "rze\n": 2941,
      "▁31": 2942,
      "lor": 2943,
      "▁wszel": 2944,
      "▁stara": 2945,
      "▁decyzji": 2946,
      "du\n": 2947,
      "▁rzeczywi": 2948,
      "▁minister": 2949,
      "szpa": 2950,
      "▁innymi": 2951,
      "▁Ten": 2952,
      "▁występu": 2953,
      "▁przekaza": 2954,
      "wały": 2955,
      "▁rozpoczę": 2956,
      "▁0,": 2957,
      "niósł": 2958,
      "▁Ser": 2959,
      "▁tłuma": 2960,
      "lii": 2961,
      "jęcie": 2962,
      "▁możliwość": 2963,
      "▁znaleź": 2964,
      "▁przedmio": 2965,
      "▁nowy": 2966,
      "cami": 2967,
      "na.\n": 2968,
      "bą": 2969,
      "▁narod": 2970,
      "▁szuka": 2971,
      "▁chyba": 2972,
      "▁tow": 2973,
      "▁Dzi": 2974,
      "skiego,": 2975,
      "puszcza": 2976,
      "dać": 2977,
      "▁projekt": 2978,
      "sio": 2979,
      "wzglę": 2980,
      "codaw": 2981,
      "dra": 2982,
      "▁ogól": 2983,
      "▁wówczas": 2984,
      "▁trochę": 2985,
      "rowi": 2986,
      "▁uza": 2987,
      "▁lek": 2988,
      "▁film": 2989,
      "▁wyj": 2990,
      "▁świecie": 2991,
      "▁40": 2992,
      "cyjnej": 2993,
      "▁upraw": 2994,
      "▁utwo": 2995,
      "▁źród": 2996,
      "▁wymie": 2997,
      "nne": 2998,
      "▁całkowi": 2999,
      "▁informacje": 3000,
      "▁znacznie": 3001,
      "dzone": 3002,
      "▁efek": 3003,
      "tny": 3004,
      "sję": 3005,
      "▁lutego": 3006,
      "dniu": 3007,
      "dowo": 3008,
      "▁polskich": 3009,
      "lić": 3010,
      "▁pomocy": 3011,
      "ctwa": 3012,
      "▁Ber": 3013,
      "dział,": 3014,
      "▁ostatnich": 3015,
      "rami": 3016,
      "czność": 3017,
      "zda": 3018,
      "▁Cie": 3019,
      "▁miesięcy": 3020,
      "sa,": 3021,
      "▁chciał": 3022,
      "óż": 3023,
      "▁Zie": 3024,
      "rysty": 3025,
      "chem": 3026,
      "let": 3027,
      "▁wynagro": 3028,
      "nione": 3029,
      "▁najważ": 3030,
      "▁zarządza": 3031,
      "story": 3032,
      "czeni": 3033,
      "▁Inter": 3034,
      "towi": 3035,
      "▁koncer": 3036,
      "▁Był": 3037,
      "▁zostało": 3038,
      "sługu": 3039,
      "▁szero": 3040,
      "▁prezen": 3041,
      "czne,": 3042,
      "▁wyłącznie": 3043,
      "▁29": 3044,
      "▁zostać": 3045,
      "▁wzrost": 3046,
      "▁żołnie": 3047,
      "▁serwi": 3048,
      "▁inf": 3049,
      "giel": 3050,
      "▁wice": 3051,
      "▁pracu": 3052,
      "▁spowo": 3053,
      "▁Ki": 3054,
      "cznych,": 3055,
      "▁bro": 3056,
      "▁reje": 3057,
      "między": 3058,
      "▁rodzaju": 3059,
      "▁pił": 3060,
      "sługi": 3061,
      "tal": 3062,
      "ski,": 3063,
      "▁(ur\n": 3064,
      "▁zaczyna": 3065,
      "▁Zjedno": 3066,
      "chowa": 3067,
      "▁wido": 3068,
      "▁zdrowia": 3069,
      "pisu": 3070,
      "dzeniu": 3071,
      "▁odby": 3072,
      "nim": 3073,
      "▁Dlatego": 3074,
      "▁sierpnia": 3075,
      "waran": 3076,
      "ografia\n": 3077,
      "▁jaką": 3078,
      "▁dość": 3079,
      "▁popular": 3080,
      "▁produkcji": 3081,
      "▁szczeg": 3082,
      "wił": 3083,
      "▁systemu": 3084,
      "fy": 3085,
      "czne\n": 3086,
      "▁rozwoju": 3087,
      "▁pracę": 3088,
      "▁gdyż": 3089,
      "▁mieli": 3090,
      "▁niektórych": 3091,
      "▁budow": 3092,
      "▁obser": 3093,
      "▁kompu": 3094,
      "▁prób": 3095,
      "▁2009": 3096,
      "ńskich": 3097,
      "▁mimo": 3098,
      "▁ilo": 3099,
      "nawia": 3100,
      "▁um": 3101,
      "▁mor": 3102,
      "czym": 3103,
      "cenie": 3104,
      "▁internet": 3105,
      "▁razy": 3106,
      "▁rzeczy": 3107,
      "▁Uro": 3108,
      "prawie": 3109,
      "▁fundu": 3110,
      "ciela": 3111,
      "▁drodze": 3112,
      "▁zab": 3113,
      "obie": 3114,
      "▁niemal": 3115,
      "▁zapła": 3116,
      "▁wspom": 3117,
      "fie": 3118,
      "▁cywi": 3119,
      "ną\n": 3120,
      "▁4\n": 3121,
      "▁każdym": 3122,
      "▁twór": 3123,
      "▁agen": 3124,
      "▁czwar": 3125,
      "▁skrzy": 3126,
      "ron": 3127,
      "szła": 3128,
      "pospolitej": 3129,
      "▁dra": 3130,
      "▁Zobacz": 3131,
      "lony": 3132,
      "▁wojny": 3133,
      "racji": 3134,
      "▁For": 3135,
      "▁fe": 3136,
      "▁dia": 3137,
      "▁zapo": 3138,
      "▁blo": 3139,
      "klu": 3140,
      "rój": 3141,
      "ksa": 3142,
      "chodni": 3143,
      "▁orze": 3144,
      "rytyj": 3145,
      "▁zobowią": 3146,
      "gła": 3147,
      "▁tem": 3148,
      "▁znajdu": 3149,
      "ks": 3150,
      "▁Komi": 3151,
      "▁wspar": 3152,
      "tan": 3153,
      "tual": 3154,
      "cję,": 3155,
      "▁gry": 3156,
      "▁nierucho": 3157,
      "▁autor": 3158,
      "▁kandy": 3159,
      "▁czyta": 3160,
      "żna": 3161,
      "▁pomoc": 3162,
      "ktury": 3163,
      "▁tysięcy": 3164,
      "RA": 3165,
      "▁zupełnie": 3166,
      "▁Tru": 3167,
      "lin": 3168,
      "▁zatrzyma": 3169,
      "▁poczu": 3170,
      "lizacji": 3171,
      "▁dow": 3172,
      "▁strze": 3173,
      "▁sł": 3174,
      "ki.\n": 3175,
      "▁dziedzi": 3176,
      "▁skute": 3177,
      "▁międzynarod": 3178,
      "▁prowadzą": 3179,
      "skiego\n": 3180,
      "fli": 3181,
      "▁wysta": 3182,
      "▁nadz": 3183,
      "▁aktu": 3184,
      "krotnie": 3185,
      "▁191": 3186,
      "▁takiej": 3187,
      "cem": 3188,
      "▁ostat": 3189,
      "▁zaa": 3190,
      "▁komi": 3191,
      "▁głównie": 3192,
      "fikacji": 3193,
      "▁bizne": 3194,
      "▁pojawia": 3195,
      "▁akcji": 3196,
      "▁nowego": 3197,
      "▁mówił": 3198,
      "rytor": 3199,
      "▁naszych": 3200,
      "noszą": 3201,
      "▁Ada": 3202,
      "▁utrzyma": 3203,
      "▁Trze": 3204,
      "▁chcą": 3205,
      "▁Hu": 3206,
      "▁pierwszym": 3207,
      "bur": 3208,
      "▁/": 3209,
      "▁takim": 3210,
      "▁przeka": 3211,
      "lizowa": 3212,
      "▁europej": 3213,
      "▁dane": 3214,
      "▁forma": 3215,
      "▁mężczyz": 3216,
      "▁Sej": 3217,
      "▁mogli": 3218,
      "▁trans": 3219,
      "▁wewnętrz": 3220,
      "▁śle": 3221,
      "▁Bibliografia\n": 3222,
      "▁piłka": 3223,
      "skar": 3224,
      "▁Sam": 3225,
      "▁osobi": 3226,
      "▁życiu": 3227,
      "działem": 3228,
      "▁techni": 3229,
      "▁robo": 3230,
      "▁dotyczące": 3231,
      "listy": 3232,
      "▁Rosja": 3233,
      "▁\"B": 3234,
      "dzie,": 3235,
      "▁boha": 3236,
      "▁ofia": 3237,
      "▁rozm": 3238,
      "▁bran": 3239,
      "▁podatku": 3240,
      "▁pomocą": 3241,
      "▁am": 3242,
      "▁dyre": 3243,
      "▁zasta": 3244,
      "▁najbli": 3245,
      "bry": 3246,
      "▁nauczy": 3247,
      "▁druży": 3248,
      "▁procent": 3249,
      "▁uśmie": 3250,
      "tów\n": 3251,
      "usza": 3252,
      "▁następnie": 3253,
      "▁mogła": 3254,
      "g\n": 3255,
      "▁stre": 3256,
      "▁dotychczas": 3257,
      "ortu": 3258,
      "kor": 3259,
      "▁postaci": 3260,
      "▁brak": 3261,
      "▁wpływ": 3262,
      "▁ab": 3263,
      "▁Ad": 3264,
      "▁odkry": 3265,
      "nowie": 3266,
      "▁poprzez": 3267,
      "wany": 3268,
      "godnie": 3269,
      "owego\n": 3270,
      "▁ponow": 3271,
      "▁okres": 3272,
      "▁gór": 3273,
      "siaj": 3274,
      "▁zja": 3275,
      "tna": 3276,
      "mi.\n": 3277,
      "sną": 3278,
      "▁he": 3279,
      "tem,": 3280,
      "koj": 3281,
      "letni": 3282,
      "go,": 3283,
      "licza": 3284,
      "▁l": 3285,
      "▁szpita": 3286,
      "▁Pie": 3287,
      "▁Stra": 3288,
      "▁trady": 3289,
      "▁2008": 3290,
      "twór": 3291,
      "reszcie": 3292,
      "▁firm": 3293,
      "▁opowiada": 3294,
      "▁Unii": 3295,
      "▁smart": 3296,
      "▁eta": 3297,
      "▁jakim": 3298,
      "ciąga": 3299,
      "▁dolar": 3300,
      "kowania": 3301,
      "os": 3302,
      "▁słucha": 3303,
      "▁obsz": 3304,
      "dwie": 3305,
      "▁pewno": 3306,
      "ców\n": 3307,
      "▁zauwa": 3308,
      "▁prawdopodob": 3309,
      "ję,": 3310,
      "▁gatu": 3311,
      "▁pomiędzy": 3312,
      "▁błę": 3313,
      "▁raczej": 3314,
      "nictwa": 3315,
      "▁Sie": 3316,
      "ZE": 3317,
      "▁przycho": 3318,
      "aru": 3319,
      "syw": 3320,
      "▁stanu": 3321,
      "▁nikt": 3322,
      "/1": 3323,
      "▁pieniądze": 3324,
      "▁kierunku": 3325,
      "▁medy": 3326,
      "'s": 3327,
      "▁powinna": 3328,
      "▁zmar": 3329,
      "▁mał": 3330,
      "▁terytor": 3331,
      "▁przeciwko": 3332,
      "▁prowadzi": 3333,
      "▁stronę": 3334,
      "śle": 3335,
      "les": 3336,
      "▁PK": 3337,
      "cła": 3338,
      "▁programu": 3339,
      "ły\n": 3340,
      "żąda": 3341,
      "▁try": 3342,
      "dzieć,": 3343,
      "▁określa": 3344,
      "nikiem": 3345,
      "wienia": 3346,
      "▁gi": 3347,
      "▁Przez": 3348,
      "▁niemiec": 3349,
      "▁miały": 3350,
      "▁anty": 3351,
      "▁poziomie": 3352,
      "▁nieruchomo": 3353,
      "ów.\n": 3354,
      "najmniej": 3355,
      "grzy": 3356,
      "▁Ameryka": 3357,
      "▁aktor": 3358,
      "▁pokaza": 3359,
      "dzi,": 3360,
      "ll": 3361,
      "cznik": 3362,
      "▁Bie": 3363,
      "mienie": 3364,
      "▁całej": 3365,
      "▁Zda": 3366,
      "▁3,": 3367,
      "30": 3368,
      "▁najbliż": 3369,
      "skiej,": 3370,
      "naczej": 3371,
      "▁wio": 3372,
      "▁bezpieczeństwa": 3373,
      "AR": 3374,
      "▁oczywiście": 3375,
      "▁odw": 3376,
      "dowy": 3377,
      "▁U\n": 3378,
      "▁świet": 3379,
      "▁liczba": 3380,
      "▁Gre": 3381,
      "toli": 3382,
      "▁'": 3383,
      "▁wypła": 3384,
      "▁kapita": 3385,
      "▁polega": 3386,
      "▁konkuren": 3387,
      "▁opar": 3388,
      "wa,": 3389,
      "▁umożli": 3390,
      "▁Cza": 3391,
      "▁osoba": 3392,
      "▁Iz": 3393,
      "▁zni": 3394,
      "▁drzwi": 3395,
      "▁jakiś": 3396,
      "ką,": 3397,
      "▁ciem": 3398,
      "▁Dob": 3399,
      "▁obni": 3400,
      "▁powia": 3401,
      "▁ukry": 3402,
      "▁papie": 3403,
      "▁zobowiąza": 3404,
      "▁związane": 3405,
      "▁zmniej": 3406,
      "▁III": 3407,
      "ąc": 3408,
      "▁podzie": 3409,
      "▁rela": 3410,
      "▁ekonomi": 3411,
      "onie": 3412,
      "▁przyję": 3413,
      "szczegól": 3414,
      "kon": 3415,
      "▁korzy": 3416,
      "▁ścia": 3417,
      "▁wyniku": 3418,
      "▁pracodaw": 3419,
      "▁podkreśla": 3420,
      "br": 3421,
      "my\n": 3422,
      "▁zwłaszcza": 3423,
      "▁sub": 3424,
      "▁ple": 3425,
      "▁przestrze": 3426,
      "▁kolejne": 3427,
      "owany": 3428,
      "▁odci": 3429,
      "▁\"A": 3430,
      "tali": 3431,
      ".)": 3432,
      "▁wyraź": 3433,
      "ad": 3434,
      "▁się\n": 3435,
      "▁r.,": 3436,
      "▁znajdzie": 3437,
      "[/": 3438,
      "▁ode": 3439,
      "ciele": 3440,
      "lub": 3441,
      "▁pracowników": 3442,
      "rusza": 3443,
      "pen": 3444,
      "▁zało": 3445,
      "▁Joh": 3446,
      "grywa": 3447,
      "▁prakty": 3448,
      "▁Pow": 3449,
      "▁transp": 3450,
      "ST": 3451,
      "ska\n": 3452,
      "kładu": 3453,
      "▁sprzę": 3454,
      "▁Uniwersyte": 3455,
      "▁profe": 3456,
      "dzeń": 3457,
      "k.\n": 3458,
      "nawiru": 3459,
      "ft": 3460,
      "▁wypowie": 3461,
      "AN": 3462,
      "▁jedna": 3463,
      "▁Osta": 3464,
      "▁zagra": 3465,
      "▁doprowa": 3466,
      "▁km": 3467,
      "▁3)": 3468,
      "▁Już": 3469,
      "nnych": 3470,
      "żd": 3471,
      "ckich": 3472,
      "▁muszą": 3473,
      "żności": 3474,
      "▁nasze": 3475,
      "rad": 3476,
      "▁nimi": 3477,
      "99": 3478,
      "▁udało": 3479,
      "▁przepisów": 3480,
      "▁sprawy": 3481,
      "▁otrzy": 3482,
      "▁Sport": 3483,
      "▁kryzy": 3484,
      "▁wyraz": 3485,
      "zują": 3486,
      "▁cztery": 3487,
      "gre": 3488,
      "▁Szcze": 3489,
      "dostęp": 3490,
      "s.\n": 3491,
      "szyć": 3492,
      "owaniu": 3493,
      "▁elektry": 3494,
      "▁jednak,": 3495,
      "ian": 3496,
      "skiej\n": 3497,
      "▁(Dz\n": 3498,
      "niejszych": 3499,
      "OR": 3500,
      "▁mistrzo": 3501,
      "publi": 3502,
      "nięcie": 3503,
      "▁?": 3504,
      "cja,": 3505,
      "wła": 3506,
      "ko,": 3507,
      "▁zabezpie": 3508,
      "ou": 3509,
      "▁indy": 3510,
      "zwy": 3511,
      "▁zaję": 3512,
      "▁względem": 3513,
      "▁rośli": 3514,
      "szczo": 3515,
      "▁północ": 3516,
      "torzy": 3517,
      "▁czynności": 3518,
      "▁oficja": 3519,
      "god": 3520,
      "▁poszu": 3521,
      "kąd": 3522,
      "onów": 3523,
      "▁przypomina": 3524,
      "▁duże": 3525,
      "▁\"Z": 3526,
      "raź": 3527,
      "▁niezwy": 3528,
      "▁oto": 3529,
      "▁naszej": 3530,
      "wną": 3531,
      "ę\n": 3532,
      "umer": 3533,
      "dniczą": 3534,
      "▁pamięta": 3535,
      "▁it": 3536,
      "▁Każ": 3537,
      "▁skó": 3538,
      "▁jednocześnie": 3539,
      "▁seria": 3540,
      "▁osób,": 3541,
      "▁doko": 3542,
      "▁szczególnie": 3543,
      "f\n": 3544,
      "▁oni": 3545,
      "▁history": 3546,
      "ert": 3547,
      "▁drze": 3548,
      "▁dr": 3549,
      "twarza": 3550,
      "▁wydat": 3551,
      "miar": 3552,
      "▁\"G": 3553,
      "▁firma": 3554,
      "krzy": 3555,
      "▁Cy": 3556,
      "▁zabi": 3557,
      "▁samego": 3558,
      "▁mini": 3559,
      "▁większość": 3560,
      "▁kr": 3561,
      "świet": 3562,
      "tnego": 3563,
      "▁niewy": 3564,
      "▁całą": 3565,
      "▁stanowią": 3566,
      "▁natural": 3567,
      "▁porówna": 3568,
      "szył": 3569,
      "▁energii": 3570,
      "wolu": 3571,
      "▁Nor": 3572,
      "▁występ": 3573,
      "▁ogó": 3574,
      "▁działalność": 3575,
      "▁Europie": 3576,
      "ową,": 3577,
      "plo": 3578,
      "sami": 3579,
      "gia": 3580,
      "▁Praw": 3581,
      "▁dosko": 3582,
      "▁Di": 3583,
      "▁pięć": 3584,
      "▁zazna": 3585,
      "▁San": 3586,
      "▁prokura": 3587,
      "▁2007": 3588,
      "▁Dzięki": 3589,
      "jąć": 3590,
      "▁wprowadza": 3591,
      "▁konkre": 3592,
      "kowski": 3593,
      "▁dobry": 3594,
      "▁siedzi": 3595,
      "boo": 3596,
      "▁Dru": 3597,
      "▁konty": 3598,
      "▁rozumie": 3599,
      "▁uwzglę": 3600,
      "▁wróci": 3601,
      "la\n": 3602,
      "▁zim": 3603,
      "gi,": 3604,
      "▁Wiadomości,": 3605,
      "▁dziewczy": 3606,
      "▁Pozna": 3607,
      "▁Sp": 3608,
      "▁ude": 3609,
      "wało": 3610,
      "▁Bę": 3611,
      "▁zatem": 3612,
      "ą\n": 3613,
      "▁powiedziała": 3614,
      "▁Oczywiście": 3615,
      "▁Mist": 3616,
      "▁użytkowni": 3617,
      "▁przesta": 3618,
      "widu": 3619,
      "zem": 3620,
      "▁mało": 3621,
      "▁trzyma": 3622,
      "cje,": 3623,
      "▁sposob": 3624,
      "pienia": 3625,
      "▁wartość": 3626,
      "▁polskiej": 3627,
      "▁badania": 3628,
      "▁dłuż": 3629,
      "wienie": 3630,
      "▁szczy": 3631,
      "kiem\n": 3632,
      "▁zawodni": 3633,
      "▁60": 3634,
      "▁wydaje": 3635,
      "▁Kró": 3636,
      "ponowa": 3637,
      "▁pali": 3638,
      "tnej": 3639,
      "tąd": 3640,
      "▁dowie": 3641,
      "▁zao": 3642,
      "▁skle": 3643,
      "▁problem": 3644,
      "▁będziemy": 3645,
      "▁Kraj": 3646,
      "▁ochrony": 3647,
      "▁podlega": 3648,
      "▁czasem": 3649,
      "nym\n": 3650,
      "▁Warto": 3651,
      "▁spółki": 3652,
      "▁pio": 3653,
      "▁liczby": 3654,
      "wan": 3655,
      "limpi": 3656,
      "sko-": 3657,
      "▁ostate": 3658,
      "owymi": 3659,
      "ch.\n": 3660,
      "szcz": 3661,
      "▁popra": 3662,
      "lone": 3663,
      "-10": 3664,
      "▁(P": 3665,
      "▁podpisa": 3666,
      "▁naby": 3667,
      "▁spodzie": 3668,
      "▁Gu": 3669,
      "▁bru": 3670,
      "IT": 3671,
      ">>": 3672,
      "▁opowie": 3673,
      "czeństwo": 3674,
      "ya": 3675,
      "▁Toma": 3676,
      "ściu": 3677,
      "tfor": 3678,
      "▁niezależ": 3679,
      "lę,": 3680,
      "spi": 3681,
      "▁każdego": 3682,
      "▁Vi": 3683,
      "▁nu": 3684,
      "waj": 3685,
      "▁zwro": 3686,
      "żony": 3687,
      "▁artyku": 3688,
      "pio": 3689,
      "wit": 3690,
      "▁Linki": 3691,
      "▁Gro": 3692,
      "▁Fo": 3693,
      "▁wielko": 3694,
      "▁musiał": 3695,
      "▁minu": 3696,
      "▁zdaniem": 3697,
      "▁zewnętrzne\n": 3698,
      "owy\n": 3699,
      "▁wier": 3700,
      "▁Czę": 3701,
      "▁powy": 3702,
      "A\n": 3703,
      "▁Andrzej": 3704,
      "▁organizacji": 3705,
      "▁wystąpi": 3706,
      "OW": 3707,
      "▁ści": 3708,
      "niła": 3709,
      "▁usu": 3710,
      "zdy": 3711,
      "▁powro": 3712,
      "tkowo": 3713,
      "▁wniosek": 3714,
      "dliwości": 3715,
      "▁chwilę": 3716,
      "▁zgło": 3717,
      "togra": 3718,
      "▁prezes": 3719,
      "pełnia": 3720,
      "lek": 3721,
      "▁całym": 3722,
      "▁Szy": 3723,
      "▁czo": 3724,
      "▁program": 3725,
      "▁zbli": 3726,
      "cje\n": 3727,
      "▁wyposa": 3728,
      "▁TVP": 3729,
      "cję\n": 3730,
      "▁sport": 3731,
      "wki": 3732,
      "no\n": 3733,
      "▁tytułu": 3734,
      "▁zapewnia": 3735,
      "▁dlaczego": 3736,
      "▁trakcie": 3737,
      "rzuca": 3738,
      "tencja": 3739,
      "chani": 3740,
      "ją\n": 3741,
      "▁francu": 3742,
      "▁naszym": 3743,
      "▁bio": 3744,
      "▁możliwe": 3745,
      "kł": 3746,
      "▁postanowi": 3747,
      "mbo": 3748,
      "▁Wal": 3749,
      "sława": 3750,
      "▁nazwi": 3751,
      "sa\n": 3752,
      "▁zaraz": 3753,
      "lta": 3754,
      "▁zrobić": 3755,
      "▁chociaż": 3756,
      "▁strate": 3757,
      "▁dło": 3758,
      "▁trudno": 3759,
      "▁tur": 3760,
      "▁Usta": 3761,
      "liza": 3762,
      "▁powinny": 3763,
      "▁nieo": 3764,
      "▁chę": 3765,
      "▁lat\n": 3766,
      "▁ceny": 3767,
      "▁nastąpi": 3768,
      "▁VAT": 3769,
      "IN": 3770,
      "▁pieniędzy": 3771,
      "▁śmie": 3772,
      "tychmiast": 3773,
      "id": 3774,
      "▁cór": 3775,
      "▁opo": 3776,
      "kować": 3777,
      "dzna": 3778,
      "▁samolo": 3779,
      "torem": 3780,
      "▁Piotr": 3781,
      "mon": 3782,
      "▁Fil": 3783,
      "▁klientów": 3784,
      "rób": 3785,
      "dal": 3786,
      "ssi": 3787,
      "▁wniosku": 3788,
      "▁głębo": 3789,
      "▁niewiel": 3790,
      "owali": 3791,
      "▁dotyczy": 3792,
      "▁ogląda": 3793,
      "gów": 3794,
      "80": 3795,
      "cznych\n": 3796,
      "▁kampa": 3797,
      "robi": 3798,
      "da\n": 3799,
      "pierw": 3800,
      "▁kierow": 3801,
      "▁instru": 3802,
      "demii": 3803,
      "ven": 3804,
      "▁reli": 3805,
      "▁stosunku": 3806,
      "▁kwar": 3807,
      "▁przesz": 3808,
      "▁przepisy": 3809,
      "lew": 3810,
      "▁niedo": 3811,
      "▁poszczegól": 3812,
      "owość": 3813,
      "▁innego": 3814,
      "gi\n": 3815,
      "▁kata": 3816,
      "▁Car": 3817,
      "▁inaczej": 3818,
      "▁odpowiedni": 3819,
      "at": 3820,
      "▁Ludzie": 3821,
      "▁Szko": 3822,
      "▁uch": 3823,
      "▁Q": 3824,
      "▁dale": 3825,
      "▁postępowania": 3826,
      "fii": 3827,
      "niony": 3828,
      "▁kana": 3829,
      "je\n": 3830,
      "VI": 3831,
      "kierowa": 3832,
      "ądź": 3833,
      "▁dź": 3834,
      "▁spowodowa": 3835,
      "▁Piłka": 3836,
      "▁wybu": 3837,
      "▁pacje": 3838,
      "niu\n": 3839,
      "▁zakłada": 3840,
      "lu,": 3841,
      "▁Tur": 3842,
      "▁naszego": 3843,
      "▁zespołu": 3844,
      "▁Tele": 3845,
      "▁polskiego": 3846,
      "▁produk": 3847,
      "żone": 3848,
      "10": 3849,
      "▁zaczął": 3850,
      "są": 3851,
      "organi": 3852,
      "▁projektu": 3853,
      "▁znaleźć": 3854,
      "▁PR": 3855,
      "▁dostar": 3856,
      "▁średni": 3857,
      "rócz": 3858,
      "▁zmian": 3859,
      "▁obję": 3860,
      "▁prote": 3861,
      "▁człowieka": 3862,
      "▁is": 3863,
      "▁rzeczywisto": 3864,
      "▁prezydenta": 3865,
      "▁odno": 3866,
      "▁trud": 3867,
      "y,": 3868,
      "▁litera": 3869,
      "maty": 3870,
      "▁Nau": 3871,
      "▁Obec": 3872,
      "sekwen": 3873,
      "nci": 3874,
      "▁Rzeczy": 3875,
      "▁ostatnie": 3876,
      "▁emery": 3877,
      "nica": 3878,
      "tyczne": 3879,
      "▁tajem": 3880,
      "▁archi": 3881,
      "▁koronawiru": 3882,
      "raj": 3883,
      "ted": 3884,
      "spa": 3885,
      "tkiem": 3886,
      "▁Urodzeni": 3887,
      "▁El": 3888,
      "pomnia": 3889,
      "▁znów": 3890,
      "▁nar": 3891,
      "mien": 3892,
      "woje": 3893,
      "40": 3894,
      "dniego": 3895,
      "▁Win": 3896,
      "szczenia": 3897,
      "widual": 3898,
      "▁rodziny": 3899,
      "▁ruchu": 3900,
      "▁potę": 3901,
      "pliwości": 3902,
      "▁dysku": 3903,
      "trza": 3904,
      "▁miało": 3905,
      "▁Sze": 3906,
      "▁zesta": 3907,
      "▁Man": 3908,
      "▁Głów": 3909,
      "resztą": 3910,
      "czasem": 3911,
      "hat": 3912,
      "owie,": 3913,
      "▁\"O": 3914,
      "czeniem": 3915,
      "rzeć": 3916,
      "g,": 3917,
      "rzy,": 3918,
      "60": 3919,
      "▁taką": 3920,
      "▁prę": 3921,
      "▁2004": 3922,
      "▁Ap": 3923,
      "ńskim": 3924,
      "▁Opis": 3925,
      "▁\"J": 3926,
      "▁mieszkańców": 3927,
      "krót": 3928,
      "▁sama": 3929,
      "▁Wszystko": 3930,
      "mują": 3931,
      "lus": 3932,
      "łat": 3933,
      "▁chi": 3934,
      "▁zapowie": 3935,
      "▁kolo": 3936,
      "ON": 3937,
      "emokra": 3938,
      "-12": 3939,
      "rocła": 3940,
      "▁propozy": 3941,
      "cale": 3942,
      "▁cier": 3943,
      "▁nowej": 3944,
      "▁zez": 3945,
      "▁boga": 3946,
      "▁przedstawia": 3947,
      "gaż": 3948,
      "limpij": 3949,
      "▁Bryta": 3950,
      "dami": 3951,
      "▁kolejnych": 3952,
      "▁młody": 3953,
      "chodniej": 3954,
      "▁żadnych": 3955,
      "▁rozporządzenia": 3956,
      "▁obok": 3957,
      "▁poświę": 3958,
      "ogle": 3959,
      "pić": 3960,
      "▁jesteśmy": 3961,
      "▁kart": 3962,
      "▁Dlaczego": 3963,
      "ką\n": 3964,
      "▁kocha": 3965,
      "▁funkcjon": 3966,
      "▁5\n": 3967,
      "▁południ": 3968,
      "raża": 3969,
      "kli": 3970,
      "groma": 3971,
      "▁swego": 3972,
      "▁stał": 3973,
      "▁emi": 3974,
      "cjonari": 3975,
      "▁wyob": 3976,
      "▁Podczas": 3977,
      "rie": 3978,
      "▁odpowiednio": 3979,
      "▁maszy": 3980,
      "▁należą": 3981,
      "fina": 3982,
      "▁Lon": 3983,
      "rab": 3984,
      "dzenia,": 3985,
      "▁nazywa": 3986,
      "▁Ti": 3987,
      "▁elektroni": 3988,
      "▁wokół": 3989,
      "▁służby": 3990,
      "▁linii": 3991,
      "▁szczegół": 3992,
      "▁stand": 3993,
      "▁emo": 3994,
      "▁kosztów": 3995,
      "▁Cha": 3996,
      "▁jakieś": 3997,
      "▁konkur": 3998,
      "▁Jej": 3999,
      "▁sur": 4000,
      "▁pokry": 4001,
      "▁dokumentów": 4002,
      "cznej,": 4003,
      "▁energe": 4004,
      "giem": 4005,
      "▁opubli": 4006,
      "▁ur": 4007,
      "▁najwyż": 4008,
      "▁rodzin": 4009,
      "▁sytuacja": 4010,
      "nden": 4011,
      "▁kandyda": 4012,
      "▁spę": 4013,
      "▁niebezpie": 4014,
      "▁komple": 4015,
      "dzonych": 4016,
      "link": 4017,
      "dyna": 4018,
      "kracza": 4019,
      "wanych": 4020,
      "kt,": 4021,
      ":1": 4022,
      "▁niedzie": 4023,
      "▁kos": 4024,
      "▁Tra": 4025,
      "▁Rzeczypospolitej": 4026,
      "▁roku.\n": 4027,
      "▁stan": 4028,
      "▁New": 4029,
      "▁Har": 4030,
      "▁rozmawia": 4031,
      "▁numer": 4032,
      "▁pozytyw": 4033,
      "▁meczu": 4034,
      "ff": 4035,
      "knął": 4036,
      "▁Zna": 4037,
      "▁wchodzi": 4038,
      "-11": 4039,
      "▁mój": 4040,
      "owo-": 4041,
      "biu": 4042,
      "▁powoła": 4043,
      "lno": 4044,
      "wnątrz": 4045,
      "▁poży": 4046,
      "▁Ponad": 4047,
      "ciła": 4048,
      "▁poje": 4049,
      "szto": 4050,
      "j\n": 4051,
      "row": 4052,
      "szem": 4053,
      "▁władzy": 4054,
      "nowu": 4055,
      "ową\n": 4056,
      "▁blisko": 4057,
      "▁inte": 4058,
      "▁powinno": 4059,
      "▁(o": 4060,
      "▁Podob": 4061,
      "▁punktu": 4062,
      "▁Kto": 4063,
      "▁ogóle": 4064,
      "▁4,": 4065,
      "▁zła": 4066,
      "▁przestęp": 4067,
      "▁pracy,": 4068,
      "▁en": 4069,
      "nkiem": 4070,
      "▁mogę": 4071,
      "▁dzisiaj": 4072,
      "dzie\n": 4073,
      "jów": 4074,
      "towania": 4075,
      "▁formie": 4076,
      "▁osie": 4077,
      "▁potencja": 4078,
      "▁taka": 4079,
      "▁zaba": 4080,
      "▁wywia": 4081,
      "kładnie": 4082,
      "▁pośre": 4083,
      "▁grup": 4084,
      "▁uzasa": 4085,
      "ne.\n": 4086,
      "chow": 4087,
      "▁rozwija": 4088,
      "▁zbior": 4089,
      "▁natychmiast": 4090,
      "skiem": 4091,
      "▁konsekwen": 4092,
      "▁2000": 4093,
      "▁wspiera": 4094,
      "▁pogo": 4095,
      "syła": 4096,
      "▁człowiek": 4097,
      "▁dziw": 4098,
      "ii,": 4099,
      "▁2006": 4100,
      "mu,": 4101,
      "widen": 4102,
      "▁Kolej": 4103,
      "▁prezydent": 4104,
      "▁sia": 4105,
      "▁przynajmniej": 4106,
      "lu\n": 4107,
      "▁Google": 4108,
      "miona": 4109,
      "▁Czytaj": 4110,
      "▁bram": 4111,
      "spie": 4112,
      "▁powszech": 4113,
      "niejszy": 4114,
      "su,": 4115,
      "▁kogo": 4116,
      "▁podkreśli": 4117,
      "▁zwraca": 4118,
      "▁dziesię": 4119,
      "▁zasady": 4120,
      "ga,": 4121,
      "▁dar": 4122,
      "it": 4123,
      "nisty": 4124,
      "częściej": 4125,
      "▁Słu": 4126,
      "▁Poz": 4127,
      "wają": 4128,
      "▁miesię": 4129,
      "nionych": 4130,
      "kowym": 4131,
      "ower": 4132,
      "▁chłop": 4133,
      "rzeń": 4134,
      "ktora": 4135,
      "▁mil": 4136,
      "▁wykorzysty": 4137,
      "▁uczu": 4138,
      "ności,": 4139,
      "czona": 4140,
      "▁głos": 4141,
      "▁indywidual": 4142,
      "mówie": 4143,
      "▁innym": 4144,
      "logia": 4145,
      "▁wyz": 4146,
      "nia.\n": 4147,
      "▁parla": 4148,
      "mor": 4149,
      "▁sprawia": 4150,
      "▁rolę": 4151,
      "ph": 4152,
      "dziel": 4153,
      "tek,": 4154,
      "wy\n": 4155,
      "▁otwo": 4156,
      "ś,": 4157,
      "▁Wę": 4158,
      "▁Mimo": 4159,
      "▁zbro": 4160,
      "ństw": 4161,
      "▁terenie": 4162,
      "▁Tylko": 4163,
      "▁tar": 4164,
      "▁pojaz": 4165,
      "suje": 4166,
      "▁Że": 4167,
      "▁Kaczy": 4168,
      "▁ciąg": 4169,
      "▁Warszawa": 4170,
      "▁Jaro": 4171,
      "▁fan": 4172,
      "torów": 4173,
      "deo": 4174,
      "▁Cyta": 4175,
      "t:\n": 4176,
      "▁handl": 4177,
      "▁łatwo": 4178,
      "▁XX": 4179,
      "▁zamierza": 4180,
      "▁wersji": 4181,
      "▁tygodni": 4182,
      "▁Polskiej": 4183,
      "ER": 4184,
      "▁die": 4185,
      "▁pozba": 4186,
      "fry": 4187,
      "▁pamięci": 4188,
      "▁niezbę": 4189,
      "▁bądź": 4190,
      "gla": 4191,
      "▁Bez": 4192,
      "▁poch": 4193,
      "chun": 4194,
      "▁pal": 4195,
      "▁kontra": 4196,
      "▁pierwszego": 4197,
      "ła.\n": 4198,
      "ściach": 4199,
      "strowa": 4200,
      "ka.\n": 4201,
      "-03": 4202,
      "▁nagle": 4203,
      "▁Hiszpa": 4204,
      "szek": 4205,
      "-01": 4206,
      "▁2005": 4207,
      "▁rządu": 4208,
      "▁opublikowa": 4209,
      "▁finansowa": 4210,
      "▁urządzenia": 4211,
      "▁Fina": 4212,
      "▁włą": 4213,
      "czyli": 4214,
      "▁Powie": 4215,
      "▁mocno": 4216,
      "▁poł": 4217,
      "nder": 4218,
      "lepiej": 4219,
      "▁nag": 4220,
      "▁dziecko": 4221,
      "▁wzią": 4222,
      "car": 4223,
      "▁pory": 4224,
      "▁poprzedni": 4225,
      "▁ujaw": 4226,
      "nieść": 4227,
      "▁Wyda": 4228,
      "▁s\n": 4229,
      "czek": 4230,
      "▁wią": 4231,
      "▁rozpa": 4232,
      "▁powinni": 4233,
      "jąc,": 4234,
      "nicja": 4235,
      "▁członk": 4236,
      "▁okazji": 4237,
      "wana": 4238,
      "▁charaktery": 4239,
      "▁(po": 4240,
      "tytu": 4241,
      ".2": 4242,
      "▁epi": 4243,
      "tyki": 4244,
      "rabia": 4245,
      "jącymi": 4246,
      "▁stosuje": 4247,
      "prost": 4248,
      "▁skierowa": 4249,
      "▁należa": 4250,
      "▁ło": 4251,
      "▁przyszłości": 4252,
      "▁doszło": 4253,
      "▁daje": 4254,
      "▁zespół": 4255,
      "krótce": 4256,
      "dzeniem": 4257,
      "minu": 4258,
      "▁oskar": 4259,
      "▁Bru": 4260,
      "▁oprac": 4261,
      "mią": 4262,
      "cro": 4263,
      "▁krę": 4264,
      "jach": 4265,
      "▁dyrektor": 4266,
      "▁<": 4267,
      "▁x": 4268,
      "▁różne": 4269,
      "▁odleg": 4270,
      "▁skorzysta": 4271,
      "widł": 4272,
      "▁Spraw": 4273,
      "▁planowa": 4274,
      "▁RP": 4275,
      "▁Preze": 4276,
      "▁pokoju": 4277,
      "▁Cytat:\n": 4278,
      "▁kor": 4279,
      "▁Pół": 4280,
      "▁kontroli": 4281,
      "▁Informa": 4282,
      "▁policja": 4283,
      "▁zdjęcia": 4284,
      "sow": 4285,
      "▁kwa": 4286,
      "▁rozpozna": 4287,
      "▁badań": 4288,
      "▁działań": 4289,
      "▁Więcej": 4290,
      "stry": 4291,
      "towany": 4292,
      "▁odpar": 4293,
      "zeta": 4294,
      "▁potrzeby": 4295,
      "▁związanych": 4296,
      "▁dyspo": 4297,
      "▁gwaran": 4298,
      "▁położo": 4299,
      "▁katego": 4300,
      "▁ką": 4301,
      "▁lat,": 4302,
      "▁byłoby": 4303,
      "▁tysią": 4304,
      "▁rynek": 4305,
      "▁:": 4306,
      "▁y": 4307,
      "▁poni": 4308,
      "zów": 4309,
      "▁czerwo": 4310,
      "▁premier": 4311,
      "dzony": 4312,
      "żeń": 4313,
      "▁Ła": 4314,
      "▁kwali": 4315,
      "▁Można": 4316,
      "niosła": 4317,
      "▁zak": 4318,
      "▁usły": 4319,
      "▁Os": 4320,
      "▁całego": 4321,
      "▁wierzy": 4322,
      "▁Ang": 4323,
      "▁ubieg": 4324,
      "▁odpowiedzi": 4325,
      "▁każdej": 4326,
      "▁wzrostu": 4327,
      "▁spokoj": 4328,
      "▁narzę": 4329,
      "▁pocho": 4330,
      "▁łó": 4331,
      "▁dowód": 4332,
      "myś": 4333,
      "grze": 4334,
      "lacja": 4335,
      "▁Sza": 4336,
      "▁doro": 4337,
      "▁eksper": 4338,
      "▁pę": 4339,
      "ręcz": 4340,
      "dzien": 4341,
      "▁psycho": 4342,
      "działy": 4343,
      "▁zł,": 4344,
      "▁ć": 4345,
      "su\n": 4346,
      "▁uczestni": 4347,
      "▁ciebie": 4348,
      "▁twarz": 4349,
      "▁hu": 4350,
      "▁połowie": 4351,
      "▁oszczę": 4352,
      "vo": 4353,
      "ine": 4354,
      "▁moim": 4355,
      "sy,": 4356,
      "▁stoli": 4357,
      "▁Jedno": 4358,
      "'e": 4359,
      "nii,": 4360,
      "▁Nawet": 4361,
      "zje": 4362,
      "▁Instytu": 4363,
      "tków": 4364,
      "gę,": 4365,
      "▁Opis:": 4366,
      "▁miasto": 4367,
      "▁r.\n": 4368,
      "▁zarzu": 4369,
      "▁grze": 4370,
      "ctwo": 4371,
      "wód": 4372,
      "ski\n": 4373,
      "▁pracy\n": 4374,
      "Bo": 4375,
      "TA": 4376,
      "nęły": 4377,
      "leń": 4378,
      "▁podróż": 4379,
      "▁80": 4380,
      "▁pana": 4381,
      "owskiego": 4382,
      "▁koszty": 4383,
      "▁mechani": 4384,
      "w,": 4385,
      "dnienia": 4386,
      "▁głoś": 4387,
      "lona": 4388,
      "▁Świę": 4389,
      "ngu": 4390,
      "▁zapyta": 4391,
      "▁budowa": 4392,
      "cznymi": 4393,
      "▁realizacji": 4394,
      "-05": 4395,
      "▁zwykle": 4396,
      "▁35": 4397,
      "łoru": 4398,
      "▁nagra": 4399,
      "▁Krzyszto": 4400,
      "▁Zosta": 4401,
      "▁uczy": 4402,
      "nau": 4403,
      "trzymy": 4404,
      "ket": 4405,
      "▁wody": 4406,
      "▁stanowisko": 4407,
      "rego": 4408,
      "łach": 4409,
      "stej": 4410,
      "▁wyb": 4411,
      "towe": 4412,
      "▁dotyczących": 4413,
      "▁zle": 4414,
      "▁proces": 4415,
      "kój": 4416,
      "▁transa": 4417,
      "▁Aleksa": 4418,
      "▁poziom": 4419,
      "▁ponownie": 4420,
      "tysty": 4421,
      "cjo": 4422,
      "▁Związ": 4423,
      "▁wątpliwości": 4424,
      "▁konstru": 4425,
      "▁nasz": 4426,
      "▁zamknię": 4427,
      "▁szans": 4428,
      "nęło": 4429,
      "▁filmu": 4430,
      "▁500": 4431,
      "▁warunki": 4432,
      "▁32": 4433,
      "▁Stu": 4434,
      "▁grupa": 4435,
      "▁klub": 4436,
      "▁\"F": 4437,
      "▁Mię": 4438,
      "terze": 4439,
      "▁znajdowa": 4440,
      "▁inny": 4441,
      "nos": 4442,
      "▁porząd": 4443,
      "dzono": 4444,
      "mil": 4445,
      "rum": 4446,
      "turę": 4447,
      "▁przepisa": 4448,
      "▁zamiast": 4449,
      "spekty": 4450,
      "▁kolejny": 4451,
      "▁udostęp": 4452,
      "▁utra": 4453,
      "▁typ": 4454,
      "▁zdję": 4455,
      "cji.\n": 4456,
      "▁brytyj": 4457,
      "-06": 4458,
      "▁pewnością": 4459,
      "tio": 4460,
      "▁Histor": 4461,
      "ść\n": 4462,
      "▁pozwoli": 4463,
      "▁Krak": 4464,
      "kcie": 4465,
      "▁+": 4466,
      "▁spoj": 4467,
      "▁zbudowa": 4468,
      "gach": 4469,
      "▁Face": 4470,
      "▁samej": 4471,
      "-04": 4472,
      "tnym": 4473,
      "owanych": 4474,
      "▁Per": 4475,
      "▁cztere": 4476,
      "▁Kata": 4477,
      "▁znajo": 4478,
      "▁wcale": 4479,
      "▁rachun": 4480,
      "▁reży": 4481,
      "▁jest,": 4482,
      "rzem": 4483,
      "▁Nieste": 4484,
      "▁Gene": 4485,
      "▁Mor": 4486,
      "▁Następ": 4487,
      "▁(n": 4488,
      "▁członków": 4489,
      "▁ostro": 4490,
      "▁mocy": 4491,
      "▁konferen": 4492,
      "▁najnow": 4493,
      "czeka": 4494,
      "owi,": 4495,
      "skim,": 4496,
      "III": 4497,
      "jąco": 4498,
      "▁syn": 4499,
      "▁masz": 4500,
      "▁ł": 4501,
      "tymi": 4502,
      "dziesią": 4503,
      "▁wraca": 4504,
      "dnych": 4505,
      "źni": 4506,
      "▁zobaczy": 4507,
      "▁odwie": 4508,
      "siej": 4509,
      "▁rapor": 4510,
      "▁zamia": 4511,
      "▁infor": 4512,
      "▁Stani": 4513,
      "▁dokładnie": 4514,
      "nę,": 4515,
      "▁powierzchni": 4516,
      "▁zmu": 4517,
      "▁wywoła": 4518,
      "▁ministra": 4519,
      "▁gu": 4520,
      "słucha": 4521,
      "▁mogły": 4522,
      "▁odwoła": 4523,
      "bel": 4524,
      "rag": 4525,
      "die": 4526,
      "▁Trzeba": 4527,
      "mat": 4528,
      "▁Fundu": 4529,
      "▁zjawi": 4530,
      "i\n": 4531,
      "▁komór": 4532,
      "▁wreszcie": 4533,
      "ność,": 4534,
      "▁podda": 4535,
      "▁wro": 4536,
      "▁Sąd": 4537,
      "cyjnym": 4538,
      "▁On": 4539,
      "towych": 4540,
      "▁przekro": 4541,
      "owie\n": 4542,
      "▁przer": 4543,
      "▁Mam": 4544,
      "▁Agen": 4545,
      "▁decyzję": 4546,
      "-09": 4547,
      "▁wynik": 4548,
      "tarza": 4549,
      "▁rza": 4550,
      "dzię": 4551,
      "▁współpracy": 4552,
      "▁jednostki": 4553,
      "▁Komisji": 4554,
      "▁większości": 4555,
      "▁pasa": 4556,
      "70": 4557,
      "▁komenta": 4558,
      "▁Doda": 4559,
      "gazy": 4560,
      "▁sędzi": 4561,
      "sić": 4562,
      "▁klucz": 4563,
      "▁genera": 4564,
      "▁wil": 4565,
      "▁doj": 4566,
      "▁XI": 4567,
      "tycznych": 4568,
      "▁wywo": 4569,
      "▁umożliwia": 4570,
      "niesio": 4571,
      "▁jakiego": 4572,
      "▁partii": 4573,
      "▁bohater": 4574,
      "▁noc": 4575,
      "▁uz": 4576,
      "jona": 4577,
      "▁upły": 4578,
      "▁Gdyby": 4579,
      "▁rozwój": 4580,
      "▁=": 4581,
      "▁młodzie": 4582,
      "▁Hen": 4583,
      "▁2023": 4584,
      "sse": 4585,
      "▁staje": 4586,
      "▁Con": 4587,
      "▁potrzebu": 4588,
      "łem\n": 4589,
      "-07": 4590,
      "▁tytuł": 4591,
      "▁port": 4592,
      "iu": 4593,
      "ński,": 4594,
      "▁Wrocła": 4595,
      "komu": 4596,
      "▁obsza": 4597,
      "▁znowu": 4598,
      "▁000": 4599,
      "▁stało": 4600,
      "▁skarb": 4601,
      "▁egza": 4602,
      "▁Adam": 4603,
      "▁opozy": 4604,
      "roz": 4605,
      "▁polityki": 4606,
      "emi": 4607,
      "nce": 4608,
      "łopo": 4609,
      "łby": 4610,
      "▁edu": 4611,
      "▁niedaw": 4612,
      "▁kobiet": 4613,
      "▁Ri": 4614,
      "▁Karo": 4615,
      "▁wydo": 4616,
      "pią": 4617,
      "▁mówią": 4618,
      "▁wez": 4619,
      "▁promo": 4620,
      "▁Skar": 4621,
      "▁Gda": 4622,
      "lina": 4623,
      "▁sobo": 4624,
      "mą": 4625,
      "-M": 4626,
      "▁upad": 4627,
      "▁zmieni": 4628,
      "▁trzeci": 4629,
      "▁symbo": 4630,
      "cin": 4631,
      "nictwo": 4632,
      "▁Musi": 4633,
      "▁dniu": 4634,
      ".)\n": 4635,
      "▁pracownika": 4636,
      "▁tą": 4637,
      "▁statu": 4638,
      "▁CO": 4639,
      "▁procedu": 4640,
      "organizowa": 4641,
      "del": 4642,
      "▁godzin": 4643,
      "▁reprezenta": 4644,
      "▁złotych": 4645,
      "minowa": 4646,
      "▁Mon": 4647,
      "ssa": 4648,
      "▁was": 4649,
      "▁momencie": 4650,
      "▁zrozumie": 4651,
      "▁Prawo": 4652,
      "CH": 4653,
      "nu,": 4654,
      "j,": 4655,
      "▁dniem": 4656,
      "▁Polaków": 4657,
      "▁interne": 4658,
      "pania": 4659,
      "▁70": 4660,
      "▁Jako": 4661,
      "y\n": 4662,
      "weł": 4663,
      "▁(S": 4664,
      "▁Op": 4665,
      "▁roze": 4666,
      "▁w\n": 4667,
      "prasza": 4668,
      "ręb": 4669,
      "▁stawia": 4670,
      "▁scena": 4671,
      "▁pomaga": 4672,
      "loba": 4673,
      "▁pisze": 4674,
      "▁Europejskiej": 4675,
      "cis": 4676,
      "ktycznie": 4677,
      "▁Polsce\n": 4678,
      "▁wskazuje": 4679,
      "▁służb": 4680,
      ");": 4681,
      "▁tempera": 4682,
      "diów": 4683,
      "▁sobie,": 4684,
      "dzić,": 4685,
      "▁zwolnie": 4686,
      "rybuna": 4687,
      "dyn": 4688,
      "ścić": 4689,
      "▁Natomiast": 4690,
      "▁dołą": 4691,
      "▁podobnie": 4692,
      "▁równo": 4693,
      "dny": 4694,
      "▁ocenia": 4695,
      "dz\n": 4696,
      "▁piosen": 4697,
      "▁mecz": 4698,
      "▁aplikacji": 4699,
      "-02": 4700,
      "▁mas": 4701,
      "nor": 4702,
      "▁\"L": 4703,
      "ght": 4704,
      "OS": 4705,
      "▁Part": 4706,
      "lozo": 4707,
      "▁szczególności": 4708,
      "owym,": 4709,
      "▁rozmowie": 4710,
      "▁jakiej": 4711,
      "▁będę": 4712,
      "▁założy": 4713,
      "▁usługi": 4714,
      "▁rol": 4715,
      "▁defi": 4716,
      "▁rady": 4717,
      "jekt": 4718,
      "▁zwróci": 4719,
      "▁Jeszcze": 4720,
      "▁ludzi,": 4721,
      "▁udziela": 4722,
      "▁zaledwie": 4723,
      "▁wizy": 4724,
      "▁wyniki": 4725,
      "▁zostaną": 4726,
      "▁zależy": 4727,
      "▁ukoń": 4728,
      "tem\n": 4729,
      "▁Rz": 4730,
      "rzego": 4731,
      "90": 4732,
      "▁dodaje": 4733,
      "cznej\n": 4734,
      "▁podwyż": 4735,
      "▁pierwo": 4736,
      "▁model": 4737,
      "▁przemy": 4738,
      "▁lubi": 4739,
      "kali": 4740,
      "▁tea": 4741,
      "▁telewizyj": 4742,
      "▁kontynu": 4743,
      "▁sio": 4744,
      "▁her": 4745,
      "▁zaw": 4746,
      "▁Ło": 4747,
      "parta": 4748,
      "▁św\n": 4749,
      "▁Pierw": 4750,
      "▁pełni": 4751,
      "▁Bel": 4752,
      "▁odbior": 4753,
      "▁ul": 4754,
      "▁razu": 4755,
      "zumia": 4756,
      "dła": 4757,
      "▁Woj": 4758,
      "▁zanie": 4759,
      "▁maksy": 4760,
      "▁ds\n": 4761,
      "lum": 4762,
      "▁mobi": 4763,
      "▁terminie": 4764,
      "▁albu": 4765,
      "▁Wielkiej": 4766,
      "mos": 4767,
      "▁impre": 4768,
      "▁produce": 4769,
      "▁resz": 4770,
      "obi": 4771,
      "gru": 4772,
      "▁uni": 4773,
      "ckim": 4774,
      "????": 4775,
      "▁pierwszych": 4776,
      "czer": 4777,
      "dor": 4778,
      "czyta": 4779,
      "towane": 4780,
      "rz\n": 4781,
      "▁pis": 4782,
      "▁Fir": 4783,
      "▁zabra": 4784,
      "szy,": 4785,
      "▁staro": 4786,
      "▁wynika,": 4787,
      "▁drogi": 4788,
      "▁mat": 4789,
      "fr": 4790,
      "▁drugim": 4791,
      "▁pras": 4792,
      "▁Prezyden": 4793,
      "▁społeczności": 4794,
      "owana": 4795,
      "▁naro": 4796,
      "lika": 4797,
      "▁określonych": 4798,
      "▁funkcji": 4799,
      "▁4)": 4800,
      "▁Niemiec": 4801,
      "▁wszystko,": 4802,
      "▁rado": 4803,
      "▁Choć": 4804,
      "▁ciep": 4805,
      "-08": 4806,
      "sch": 4807,
      "strzyma": 4808,
      "▁całe": 4809,
      "▁zastęp": 4810,
      "▁RO": 4811,
      "▁wejścia": 4812,
      "szał": 4813,
      "▁Faceboo": 4814,
      "▁całkowicie": 4815,
      "▁trakt": 4816,
      "żdża": 4817,
      "▁konfli": 4818,
      "▁kobiety": 4819,
      "▁odbywa": 4820,
      "ństwie": 4821,
      "▁szan": 4822,
      "b]": 4823,
      "szczenie": 4824,
      "▁Między": 4825,
      "▁unij": 4826,
      "fekt": 4827,
      "▁zauważy": 4828,
      "▁charakter": 4829,
      "▁jaka": 4830,
      "▁2003": 4831,
      "kowane": 4832,
      "▁Ek": 4833,
      "▁wolności": 4834,
      "▁udziału": 4835,
      "rz,": 4836,
      "towej": 4837,
      "▁bla": 4838,
      "żeniem": 4839,
      "▁Ex": 4840,
      "▁ocza": 4841,
      "by,": 4842,
      "▁prawda": 4843,
      "▁190": 4844,
      "we,": 4845,
      "▁walu": 4846,
      "świetla": 4847,
      "▁Obecnie": 4848,
      "ściół": 4849,
      "▁wzię": 4850,
      "▁zwierzę": 4851,
      "▁Zgodnie": 4852,
      "▁ut": 4853,
      "dna": 4854,
      "zyg": 4855,
      "▁zgi": 4856,
      "▁nagro": 4857,
      "szone": 4858,
      "▁Ich": 4859,
      "▁Potem": 4860,
      "▁aplika": 4861,
      "▁jakich": 4862,
      "▁zm\n": 4863,
      "▁imię": 4864,
      "▁gazu": 4865,
      "▁reda": 4866,
      "▁wyco": 4867,
      "▁Czar": 4868,
      "▁zajmowa": 4869,
      "▁Apple": 4870,
      "▁zwierzą": 4871,
      "▁Samo": 4872,
      "▁widać": 4873,
      "▁kwarta": 4874,
      "nny": 4875,
      "▁grafi": 4876,
      "mes": 4877,
      "ności\n": 4878,
      "▁zakup": 4879,
      "ryj": 4880,
      "▁polskie": 4881,
      "▁szczęście": 4882,
      "▁zebra": 4883,
      "▁Księ": 4884,
      "▁e-": 4885,
      "▁pło": 4886,
      "▁placów": 4887,
      "▁treści": 4888,
      "mieni": 4889,
      "nera": 4890,
      "sy\n": 4891,
      "▁bieżą": 4892,
      "▁pośredni": 4893,
      "▁Bardzo": 4894,
      "▁Poza": 4895,
      "▁prowadzenia": 4896,
      ".pl\n": 4897,
      "▁urlo": 4898,
      "dry": 4899,
      "ony": 4900,
      "▁brze": 4901,
      "AM": 4902,
      "gu,": 4903,
      "▁Ponadto": 4904,
      "scypli": 4905,
      "cyjna": 4906,
      "▁milionów": 4907,
      "▁oku": 4908,
      "łki": 4909,
      "jeżdża": 4910,
      "▁Kul": 4911,
      "alizowa": 4912,
      "▁win": 4913,
      "dził,": 4914,
      "12": 4915,
      "▁wysła": 4916,
      "▁twarzy": 4917,
      "gij": 4918,
      "▁bezpośrednio": 4919,
      "▁miłości": 4920,
      "▁spełnia": 4921,
      "▁wsi": 4922,
      "prawia": 4923,
      "▁uwie": 4924,
      "ścił": 4925,
      ".\"": 4926,
      "▁pokona": 4927,
      "emu": 4928,
      "niec": 4929,
      "stka": 4930,
      "▁Pamię": 4931,
      "dle": 4932,
      "▁chro": 4933,
      "▁dobra": 4934,
      ".pl,": 4935,
      "▁Her": 4936,
      "▁więzie": 4937,
      "▁groma": 4938,
      "▁też,": 4939,
      "▁Michał": 4940,
      "kowanie": 4941,
      "98": 4942,
      "▁zanim": 4943,
      "stego": 4944,
      "▁najlepiej": 4945,
      "te,": 4946,
      "ma,": 4947,
      "▁zachowa": 4948,
      "gię": 4949,
      "gatyw": 4950,
      "▁dwo": 4951,
      "▁pomi": 4952,
      "▁pomó": 4953,
      "▁TVN": 4954,
      "poli": 4955,
      "▁kryty": 4956,
      "▁sporzą": 4957,
      "▁rezer": 4958,
      "mula": 4959,
      "▁struktu": 4960,
      "sługuje": 4961,
      "ther": 4962,
      "▁jesteś": 4963,
      "kładzie": 4964,
      "▁prawdopodobnie": 4965,
      "▁wyróż": 4966,
      "▁zorganizowa": 4967,
      "dów,": 4968,
      "▁wybiera": 4969,
      "▁magazy": 4970,
      "▁Tymczasem": 4971,
      "▁Ws": 4972,
      "kiewicz": 4973,
      "▁kiedyś": 4974,
      "▁państwo": 4975,
      ":0": 4976,
      "zę": 4977,
      "▁nadzieję,": 4978,
      "▁rozmowy": 4979,
      "▁świadczenia": 4980,
      "▁najczęściej": 4981,
      "▁przyby": 4982,
      "▁ojcie": 4983,
      "▁di": 4984,
      "▁mieście": 4985,
      "▁Polacy": 4986,
      "▁ucz": 4987,
      "▁specjali": 4988,
      "ku.\n": 4989,
      "▁król": 4990,
      "lkoho": 4991,
      "▁insta": 4992,
      "naście": 4993,
      "▁podró": 4994,
      "▁Ślą": 4995,
      "▁Robert": 4996,
      "mówi": 4997,
      "▁czterech": 4998,
      "kse": 4999,
      "nemu": 5000,
      "▁90": 5001,
      "▁umieję": 5002,
      "▁komputer": 5003,
      "▁warunków": 5004,
      "▁wiem,": 5005,
      "▁regula": 5006,
      "czyło": 5007,
      "▁(np\n": 5008,
      "ciół": 5009,
      "▁zdrowo": 5010,
      "▁apara": 5011,
      "▁Zmar": 5012,
      "czenia,": 5013,
      "▁dyplo": 5014,
      "▁sprzedaż": 5015,
      "▁stary": 5016,
      "▁inten": 5017,
      "▁serii": 5018,
      "▁rozwiązania": 5019,
      "▁angiel": 5020,
      "▁general": 5021,
      "▁mojej": 5022,
      "▁głosowa": 5023,
      "▁śpie": 5024,
      "gda": 5025,
      "nda": 5026,
      "▁granicy": 5027,
      "▁pomysł": 5028,
      "▁głu": 5029,
      "ieł": 5030,
      "▁Sko": 5031,
      "▁Aby": 5032,
      "▁pozycji": 5033,
      "▁real": 5034,
      "gram": 5035,
      "cal": 5036,
      "▁odzy": 5037,
      "▁5,": 5038,
      "▁tych,": 5039,
      "bija": 5040,
      "▁gwał": 5041,
      "▁Pary": 5042,
      "ker": 5043,
      "ret": 5044,
      "▁opro": 5045,
      "▁2001": 5046,
      "ty.\n": 5047,
      "▁6\n": 5048,
      "▁przeży": 5049,
      "▁eli": 5050,
      "▁edy": 5051,
      "▁broni": 5052,
      "▁zakład": 5053,
      "▁noż": 5054,
      "24": 5055,
      "szli": 5056,
      "dera": 5057,
      "▁zako": 5058,
      "▁walki": 5059,
      "dacji": 5060,
      "▁zgroma": 5061,
      "angaż": 5062,
      "▁możesz": 5063,
      "▁śla": 5064,
      "óg": 5065,
      "▁znaczą": 5066,
      "▁podję": 5067,
      "▁łu": 5068,
      "▁2002": 5069,
      "-S": 5070,
      "▁środki": 5071,
      "shi": 5072,
      "▁pomie": 5073,
      "dyj": 5074,
      "cjami": 5075,
      "▁szkole": 5076,
      "dziale": 5077,
      "▁szere": 5078,
      "▁przeko": 5079,
      "▁współczes": 5080,
      "▁prędko": 5081,
      "▁opodat": 5082,
      "▁przewodniczą": 5083,
      "▁Jestem": 5084,
      "▁zasko": 5085,
      "towała": 5086,
      "▁rozgry": 5087,
      "▁realizowa": 5088,
      "zację": 5089,
      "lome": 5090,
      "dom": 5091,
      "▁plane": 5092,
      "que": 5093,
      "▁bieg": 5094,
      "▁GB": 5095,
      "sje": 5096,
      "▁krwi": 5097,
      "▁wyka": 5098,
      "▁rozli": 5099,
      "orą": 5100,
      "stych": 5101,
      "▁poszczególnych": 5102,
      "▁szkoły": 5103,
      "▁Mosk": 5104,
      "▁Będzie": 5105,
      "▁uka": 5106,
      "rzędu": 5107,
      "▁żadnego": 5108,
      "sten": 5109,
      "▁bły": 5110,
      "▁adre": 5111,
      "▁osa": 5112,
      "lon": 5113,
      "▁proc.,": 5114,
      "▁uzu": 5115,
      "▁katoli": 5116,
      "▁układ": 5117,
      "▁Kry": 5118,
      "gier": 5119,
      "dzili": 5120,
      "rześci": 5121,
      "▁far": 5122,
      "bili": 5123,
      "▁metrów": 5124,
      "lot": 5125,
      "▁porozumie": 5126,
      "45": 5127,
      "▁poziomu": 5128,
      "▁Historia": 5129,
      "▁upo": 5130,
      "▁złoty": 5131,
      "▁sił": 5132,
      "▁biznes": 5133,
      "▁fotogra": 5134,
      "▁Zdaniem": 5135,
      "AP": 5136,
      "▁widzi": 5137,
      "▁(a": 5138,
      "▁krajów": 5139,
      "▁kultury": 5140,
      "▁punkt": 5141,
      "▁wykonywania": 5142,
      "miu": 5143,
      "▁wypadku": 5144,
      "▁ruch": 5145,
      "▁Lud": 5146,
      "▁pobli": 5147,
      "▁problemy": 5148,
      "▁perspekty": 5149,
      "▁Jó": 5150,
      "▁ubra": 5151,
      "żeniu": 5152,
      "▁Oba": 5153,
      "▁wieś": 5154,
      "ctwem": 5155,
      "on,": 5156,
      "rześcija": 5157,
      "wek": 5158,
      "▁władze": 5159,
      "▁nieruchomości": 5160,
      "▁Środ": 5161,
      "▁pochodzi": 5162,
      "▁długi": 5163,
      "▁Uniwersytetu": 5164,
      "▁małże": 5165,
      "▁argu": 5166,
      "▁zasad": 5167,
      "skach": 5168,
      "ięk": 5169,
      "▁studen": 5170,
      "▁ręce": 5171,
      "▁up": 5172,
      "mowania": 5173,
      "▁sezonie": 5174,
      "▁platfor": 5175,
      "żem": 5176,
      "▁inicja": 5177,
      "▁dlatego,": 5178,
      "----": 5179,
      "▁stać": 5180,
      "▁Dzien": 5181,
      "tyfika": 5182,
      "▁a)": 5183,
      "▁zwyk": 5184,
      "▁demokra": 5185,
      "▁36": 5186,
      "▁warsza": 5187,
      "tną": 5188,
      "towanie": 5189,
      "dzania": 5190,
      "▁budowla": 5191,
      "sza,": 5192,
      "OK": 5193,
      "▁Państwa": 5194,
      "owiec": 5195,
      "▁Tomasz": 5196,
      "lidar": 5197,
      "▁dotar": 5198,
      "gina": 5199,
      "▁stała": 5200,
      "▁świą": 5201,
      ":2": 5202,
      "▁opisa": 5203,
      "kę.\n": 5204,
      "▁zdra": 5205,
      "kcje": 5206,
      "▁wszystki": 5207,
      "skie,": 5208,
      "▁ów": 5209,
      "▁\"Nie": 5210,
      "▁gorą": 5211,
      "iera": 5212,
      "▁popraw": 5213,
      "▁siły": 5214,
      "▁otrzymał": 5215,
      "koła": 5216,
      "czny,": 5217,
      "▁Jor": 5218,
      "▁widz": 5219,
      "cyjną": 5220,
      "▁codzien": 5221,
      "▁drew": 5222,
      "▁pia": 5223,
      "▁Ke": 5224,
      "▁nowym": 5225,
      "owicz": 5226,
      "▁bank": 5227,
      "▁mą": 5228,
      "▁pochodzą": 5229,
      "cja\n": 5230,
      "chowy": 5231,
      "▁Miejs": 5232,
      "em,": 5233,
      "▁33": 5234,
      "▁plan": 5235,
      "▁ziemi": 5236,
      "▁Paweł": 5237,
      "teligen": 5238,
      "▁poe": 5239,
      "▁prowi": 5240,
      "▁PS": 5241,
      "▁urucho": 5242,
      "▁Han": 5243,
      "▁ono": 5244,
      "▁iden": 5245,
      "kował": 5246,
      "▁Dziś": 5247,
      "▁b)": 5248,
      "▁negatyw": 5249,
      "▁ukrai": 5250,
      "▁roli": 5251,
      "▁Gór": 5252,
      "▁przekracza": 5253,
      "▁słoń": 5254,
      "▁rzeczywiście": 5255,
      "cia,": 5256,
      "▁Niektó": 5257,
      "▁abso": 5258,
      "▁bisku": 5259,
      "CZ": 5260,
      "ga\n": 5261,
      "▁produktów": 5262,
      "▁zresztą": 5263,
      "▁Nale": 5264,
      "▁uwagi": 5265,
      "▁podło": 5266,
      "b\n": 5267,
      "▁prof\n": 5268,
      "▁Była": 5269,
      "rem,": 5270,
      "▁świadomo": 5271,
      "▁Spe": 5272,
      "▁sygna": 5273,
      "▁Japo": 5274,
      "▁niezna": 5275,
      "deł": 5276,
      "orów": 5277,
      "waniu": 5278,
      "nom": 5279,
      "▁gospodarczej": 5280,
      "▁Rozpo": 5281,
      "gląd": 5282,
      "win": 5283,
      "czyk": 5284,
      "▁Kobie": 5285,
      "▁popar": 5286,
      "▁kola": 5287,
      "▁niemie": 5288,
      "ning": 5289,
      "padek": 5290,
      "▁zastanawia": 5291,
      "cząc": 5292,
      "▁Produ": 5293,
      "▁potwierdza": 5294,
      "▁filozo": 5295,
      "głę": 5296,
      "▁stopniu": 5297,
      "▁nową": 5298,
      "wentual": 5299,
      "▁Kościo": 5300,
      "▁interpre": 5301,
      "chnął": 5302,
      "z,": 5303,
      "▁przyjem": 5304,
      "▁Nic": 5305,
      "-20": 5306,
      "▁stó": 5307,
      "gu\n": 5308,
      "czoraj": 5309,
      "▁(od": 5310,
      "▁Jana": 5311,
      "owych.\n": 5312,
      "tują": 5313,
      "▁tr": 5314,
      "▁zaangaż": 5315,
      "lec": 5316,
      "▁porusza": 5317,
      "▁pytanie": 5318,
      "▁Minist": 5319,
      "▁Im": 5320,
      "▁gar": 5321,
      "go\n": 5322,
      "ci,": 5323,
      "▁Tak,": 5324,
      "▁polskim": 5325,
      "▁wynagrodzenia": 5326,
      "▁zali": 5327,
      "▁zaufa": 5328,
      "▁Jez": 5329,
      "▁turysty": 5330,
      "▁&": 5331,
      "▁musimy": 5332,
      "▁owo": 5333,
      "▁miej": 5334,
      "kłady": 5335,
      "▁dyrek": 5336,
      "▁Wojcie": 5337,
      "▁Dar": 5338,
      "▁kierowni": 5339,
      "▁alkoho": 5340,
      "cza,": 5341,
      "-C": 5342,
      "▁(200": 5343,
      "▁Nowa": 5344,
      "▁zapowiada": 5345,
      "▁zapewne": 5346,
      "▁obra": 5347,
      "▁wspomnia": 5348,
      "dzona": 5349,
      "owym\n": 5350,
      "▁ziem": 5351,
      "kta": 5352,
      "▁skra": 5353,
      "AS": 5354,
      "▁konstytu": 5355,
      "▁aktual": 5356,
      "▁żąda": 5357,
      "ują": 5358,
      "ii\n": 5359,
      "▁Krzysztof": 5360,
      "▁Republi": 5361,
      "nes": 5362,
      "75": 5363,
      "▁Ind": 5364,
      "t.\n": 5365,
      "czyły": 5366,
      "/2": 5367,
      "▁obowiązu": 5368,
      "▁Gi": 5369,
      "▁45": 5370,
      "pień": 5371,
      "wa\n": 5372,
      "▁Ab": 5373,
      "▁Mówi": 5374,
      "▁kup": 5375,
      "▁Okrę": 5376,
      "▁branży": 5377,
      "▁powiedzieć,": 5378,
      "miany": 5379,
      "▁terytorium": 5380,
      "▁Kor": 5381,
      "▁rekor": 5382,
      "tycznej": 5383,
      "▁Rów": 5384,
      "▁Wtedy": 5385,
      "▁centrum": 5386,
      "▁kapi": 5387,
      "szkodowa": 5388,
      "▁braku": 5389,
      "cone": 5390,
      "▁Ol": 5391,
      "kach,": 5392,
      "wansowa": 5393,
      "▁głowę": 5394,
      "▁większe": 5395,
      "▁ostatnim": 5396,
      "▁tworzą": 5397,
      "▁Trybuna": 5398,
      "▁znaczenie": 5399,
      "nę\n": 5400,
      "nin": 5401,
      "▁Ed": 5402,
      "▁szeroko": 5403,
      "▁obwo": 5404,
      "rastru": 5405,
      "rasta": 5406,
      "▁MS": 5407,
      "▁przegra": 5408,
      "▁atrak": 5409,
      "▁kore": 5410,
      "siała": 5411,
      "▁Qu": 5412,
      "zwyczaj": 5413,
      "▁niespo": 5414,
      "▁nocy": 5415,
      "▁ustawie": 5416,
      "czenia\n": 5417,
      "▁województwa": 5418,
      "a\n": 5419,
      "gó": 5420,
      "▁głową": 5421,
      "▁zaga": 5422,
      "▁celem": 5423,
      "15": 5424,
      "▁odczu": 5425,
      "▁unie": 5426,
      "▁poniżej": 5427,
      "▁miłość": 5428,
      "▁seku": 5429,
      "twier": 5430,
      "▁wie,": 5431,
      "▁Londy": 5432,
      "▁minut": 5433,
      "hen": 5434,
      "▁naru": 5435,
      "czał": 5436,
      "▁kłopo": 5437,
      "▁próbu": 5438,
      "brzy": 5439,
      "ńscy": 5440,
      "▁istnieje": 5441,
      "terna": 5442,
      "jrzał": 5443,
      "▁sięga": 5444,
      "▁meta": 5445,
      "▁Polskiego": 5446,
      "tch": 5447,
      "gor": 5448,
      "ić": 5449,
      "owi\n": 5450,
      "▁dzisiej": 5451,
      "▁aresz": 5452,
      "▁osoby,": 5453,
      "▁frag": 5454,
      "▁kara": 5455,
      "▁Józe": 5456,
      "▁Wz": 5457,
      "▁znalazł": 5458,
      "szyła": 5459,
      "▁Bro": 5460,
      "żonych": 5461,
      "▁pięciu": 5462,
      "one": 5463,
      "▁napę": 5464,
      "▁Najwyż": 5465,
      "▁więcej,": 5466,
      "▁sześć": 5467,
      "▁smu": 5468,
      "▁dochodzi": 5469,
      "▁central": 5470,
      "trzeb": 5471,
      "▁przyro": 5472,
      "nu\n": 5473,
      "▁myśla": 5474,
      "▁ZUS": 5475,
      "EN": 5476,
      "cznego,": 5477,
      "▁Andro": 5478,
      "stym": 5479,
      "▁rosną": 5480,
      "▁Mate": 5481,
      "staw": 5482,
      "▁stron": 5483,
      "▁Kla": 5484,
      "sual": 5485,
      "▁wraże": 5486,
      "▁liście": 5487,
      "▁Zło": 5488,
      "▁tworzy": 5489,
      "▁Mer": 5490,
      "▁jakości": 5491,
      "▁Anna": 5492,
      "wione": 5493,
      "▁powyżej": 5494,
      "▁gospodarki": 5495,
      "▁własne": 5496,
      "▁urzędni": 5497,
      "▁mężczyzna": 5498,
      "▁niczym": 5499,
      "▁socja": 5500,
      "ban": 5501,
      "▁ekra": 5502,
      "▁znik": 5503,
      "▁kategorii": 5504,
      "demi": 5505,
      "▁kolor": 5506,
      "▁zi": 5507,
      "▁niezwykle": 5508,
      "łudni": 5509,
      "▁Mary": 5510,
      "żer": 5511,
      "nicę": 5512,
      "▁patrzy": 5513,
      "ktem": 5514,
      "▁sprawę": 5515,
      "▁niech": 5516,
      "▁Aka": 5517,
      "tedy,": 5518,
      "ZP": 5519,
      "żne": 5520,
      "▁Łuka": 5521,
      "▁wspania": 5522,
      "▁wyraźnie": 5523,
      "▁okresu": 5524,
      "▁gę": 5525,
      "srod": 5526,
      "wskiego": 5527,
      "tytul": 5528,
      "▁kuch": 5529,
      "▁Rzy": 5530,
      "srodtytul": 5531,
      "e\n": 5532,
      "dej": 5533,
      "dzą,": 5534,
      "▁sądu": 5535,
      "jmy": 5536,
      "▁Sch": 5537,
      "ling": 5538,
      "▁otrzymuje": 5539,
      "szymi": 5540,
      "▁Anto": 5541,
      "▁zdecydowanie": 5542,
      "▁teor": 5543,
      "wać,": 5544,
      "▁Kil": 5545,
      "▁zastąpi": 5546,
      "▁Kan": 5547,
      "▁emeryta": 5548,
      "▁premiera": 5549,
      "▁wiedzy": 5550,
      "▁Czer": 5551,
      "więcej": 5552,
      "▁Publi": 5553,
      "ed": 5554,
      "niami": 5555,
      "▁obowiązek": 5556,
      "óz": 5557,
      "▁lekko": 5558,
      "▁rozsze": 5559,
      "▁\"nie": 5560,
      "nii\n": 5561,
      "▁sami": 5562,
      "▁zakresu": 5563,
      "▁swej": 5564,
      "▁ważne": 5565,
      "▁określi": 5566,
      "▁Wszystkie": 5567,
      "▁pój": 5568,
      "▁pewie": 5569,
      "▁ustawy,": 5570,
      "▁reżyser": 5571,
      "łaby": 5572,
      "▁IV": 5573,
      "mu\n": 5574,
      "▁szac": 5575,
      "▁pocz": 5576,
      "▁>>": 5577,
      "lij": 5578,
      "▁\"I": 5579,
      "mentem": 5580,
      "▁urządzeń": 5581,
      "owski,": 5582,
      "▁całkiem": 5583,
      "▁progno": 5584,
      "▁niepeł": 5585,
      "zajem": 5586,
      "▁studia": 5587,
      "▁skoro": 5588,
      "▁ul\n": 5589,
      "▁zastrze": 5590,
      "bów": 5591,
      "▁dem": 5592,
      "cki,": 5593,
      "▁publicznych": 5594,
      "▁krze": 5595,
      "▁A\n": 5596,
      "set": 5597,
      "▁mikro": 5598,
      "▁ekran": 5599,
      "▁rewolu": 5600,
      "▁doskona": 5601,
      "ina": 5602,
      "▁sekre": 5603,
      "▁informuje": 5604,
      "▁Nowy": 5605,
      "▁fakt,": 5606,
      "▁Odzna": 5607,
      "▁zachę": 5608,
      "▁zare": 5609,
      "▁gminie": 5610,
      "▁warunkach": 5611,
      "dzieli": 5612,
      "▁wskaź": 5613,
      "▁tor": 5614,
      "óki": 5615,
      "sków": 5616,
      "▁ustala": 5617,
      "▁Mc": 5618,
      "▁panu": 5619,
      "▁turniej": 5620,
      "▁Amery": 5621,
      "▁znajdują": 5622,
      "▁Star": 5623,
      "▁wielkie": 5624,
      "▁Wśród": 5625,
      "▁funkcjonari": 5626,
      "▁powtó": 5627,
      "▁zała": 5628,
      "dla": 5629,
      "▁norma": 5630,
      "sjona": 5631,
      "▁katastro": 5632,
      "▁używa": 5633,
      "▁Jeste": 5634,
      "▁telefon": 5635,
      "▁innej": 5636,
      "▁klubu": 5637,
      "▁przyjaciół": 5638,
      "▁najpierw": 5639,
      "▁dzieje": 5640,
      ".),": 5641,
      "▁ogro": 5642,
      "▁kwoty": 5643,
      "▁zadowo": 5644,
      "▁mów": 5645,
      "▁choćby": 5646,
      "RR": 5647,
      "cze,": 5648,
      "VID": 5649,
      "▁samorząd": 5650,
      "▁300": 5651,
      "skich,": 5652,
      "nice": 5653,
      "ote": 5654,
      "kiwania": 5655,
      "▁Tam": 5656,
      "▁sprawo": 5657,
      "▁Ministra": 5658,
      "▁ape": 5659,
      "▁Organi": 5660,
      "▁dokumenta": 5661,
      "11": 5662,
      "▁Bada": 5663,
      "cznie,": 5664,
      "▁refor": 5665,
      "▁j": 5666,
      "▁ilości": 5667,
      "rin": 5668,
      "woka": 5669,
      "▁ewentual": 5670,
      "▁liczbę": 5671,
      "▁listy": 5672,
      "▁wyjaśnia": 5673,
      "▁zdobył": 5674,
      "▁XV": 5675,
      "cząć": 5676,
      "▁zaczęła": 5677,
      "nęli": 5678,
      "▁Mil": 5679,
      "▁powiecie": 5680,
      "▁postanowie": 5681,
      "sla": 5682,
      "▁nowa": 5683,
      "▁wrześ": 5684,
      "▁którymi": 5685,
      "▁gieł": 5686,
      "▁drog": 5687,
      "▁zamieszka": 5688,
      "▁ner": 5689,
      "▁pozostaje": 5690,
      "czem": 5691,
      "▁wtedy,": 5692,
      "▁właściwy": 5693,
      "czar": 5694,
      "▁poniedzia": 5695,
      "mowanie": 5696,
      "▁tuż": 5697,
      "▁musie": 5698,
      "rej": 5699,
      "▁list": 5700,
      "nkach": 5701,
      "es": 5702,
      "▁ustaw": 5703,
      "stwem": 5704,
      "▁(C": 5705,
      "▁jednostek": 5706,
      "kową": 5707,
      "▁Brak": 5708,
      "▁Niemcze": 5709,
      "▁ewiden": 5710,
      "szony": 5711,
      "▁Północ": 5712,
      "▁inwestycji": 5713,
      "▁prace": 5714,
      "▁swobo": 5715,
      "▁wielki": 5716,
      "▁porównaniu": 5717,
      "▁spod": 5718,
      "▁(...": 5719,
      "▁zasię": 5720,
      "▁Szwe": 5721,
      "▁Maria": 5722,
      "▁obsługi": 5723,
      "▁karie": 5724,
      "niesienia": 5725,
      "▁kobieta": 5726,
      "▁Ter": 5727,
      "▁właściwie": 5728,
      "▁\"H": 5729,
      "▁znie": 5730,
      "▁sma": 5731,
      "▁swoi": 5732,
      "żar": 5733,
      "▁lą": 5734,
      "towanych": 5735,
      "▁systemie": 5736,
      "rzał": 5737,
      "▁ciała": 5738,
      "▁faktu": 5739,
      "nować": 5740,
      "rzyła": 5741,
      "▁\"Po": 5742,
      "▁szlach": 5743,
      "▁zabu": 5744,
      "▁Opi": 5745,
      "▁efekt": 5746,
      "▁wręcz": 5747,
      "▁(u": 5748,
      "▁obywate": 5749,
      "▁skaza": 5750,
      "-4": 5751,
      "▁san": 5752,
      "▁Polsce,": 5753,
      "żek": 5754,
      "▁Każdy": 5755,
      "▁niektóre": 5756,
      "▁wystarcza": 5757,
      "▁odpowiedzialności": 5758,
      "▁spó": 5759,
      "▁Białoru": 5760,
      "▁widzenia": 5761,
      "▁ustalo": 5762,
      "▁gor": 5763,
      "▁moja": 5764,
      "▁inteligen": 5765,
      "▁34": 5766,
      "ńską": 5767,
      "▁komisji": 5768,
      "▁Mło": 5769,
      "dziło": 5770,
      "▁pomyśla": 5771,
      "stnie": 5772,
      "▁dotk": 5773,
      "▁wystą": 5774,
      "▁globa": 5775,
      "▁Puch": 5776,
      "▁ojciec": 5777,
      "▁Dia": 5778,
      "▁spotkania": 5779,
      "▁wyciąg": 5780,
      "ników,": 5781,
      "turze": 5782,
      "▁Th": 5783,
      "▁czytel": 5784,
      "▁wspomina": 5785,
      "▁At": 5786,
      "▁meda": 5787,
      "▁iz": 5788,
      "▁(\"": 5789,
      "▁ośrod": 5790,
      "▁telewizji": 5791,
      "▁opinii": 5792,
      "▁pakie": 5793,
      "▁zas": 5794,
      "żyła": 5795,
      "▁pobiera": 5796,
      "czyn": 5797,
      "fil": 5798,
      "▁całości": 5799,
      "▁Zjednoczo": 5800,
      ":3": 5801,
      "▁Nowe": 5802,
      "▁chcę": 5803,
      "▁prą": 5804,
      "▁Chcia": 5805,
      "▁wto": 5806,
      "▁Va": 5807,
      "▁Takie": 5808,
      "▁mnie,": 5809,
      "rza,": 5810,
      "cony": 5811,
      "▁Stro": 5812,
      "▁nowoczes": 5813,
      "▁Char": 5814,
      "prawy": 5815,
      "▁składni": 5816,
      "▁(201": 5817,
      "▁stabi": 5818,
      "▁wykorzystu": 5819,
      "▁wiecz": 5820,
      "▁telefo": 5821,
      "twiera": 5822,
      "▁przo": 5823,
      "▁(W": 5824,
      "▁Tech": 5825,
      "▁mart": 5826,
      "robo": 5827,
      "▁tle": 5828,
      "▁gminy": 5829,
      "czono": 5830,
      "▁tygodniu": 5831,
      "▁Sh": 5832,
      "▁Francu": 5833,
      "cznie\n": 5834,
      "▁drob": 5835,
      "prawa": 5836,
      "▁własnej": 5837,
      "trum": 5838,
      "▁zacho": 5839,
      "▁Tre": 5840,
      "▁Gazeta": 5841,
      "sze,": 5842,
      "nitor": 5843,
      "▁wszelkie": 5844,
      "▁termin": 5845,
      "89": 5846,
      "25": 5847,
      "▁środowiska": 5848,
      "▁wyklu": 5849,
      "owały": 5850,
      "wiła": 5851,
      "▁Kur": 5852,
      "▁iP": 5853,
      "trzą": 5854,
      "▁unika": 5855,
      "▁jesie": 5856,
      "zywania": 5857,
      "▁6,": 5858,
      "▁godz\n": 5859,
      "▁scenari": 5860,
      "link>": 5861,
      "▁Gospodar": 5862,
      "zon": 5863,
      "▁kim": 5864,
      "▁wkrótce": 5865,
      "owej.\n": 5866,
      "▁podróży": 5867,
      "IS": 5868,
      "▁substan": 5869,
      "▁kwia": 5870,
      "▁Mamy": 5871,
      "▁skon": 5872,
      "żka": 5873,
      "▁(M": 5874,
      "▁Bizne": 5875,
      "nek,": 5876,
      "▁więcej\n": 5877,
      "▁rzekł": 5878,
      "des": 5879,
      "▁Państw": 5880,
      "▁lit\n": 5881,
      "▁cele": 5882,
      "▁decyzja": 5883,
      "▁Wszyscy": 5884,
      "ts": 5885,
      "▁liczyć": 5886,
      "-P": 5887,
      "▁przemysł": 5888,
      "niona": 5889,
      "▁olimpij": 5890,
      "niom": 5891,
      "▁py": 5892,
      "▁Mał": 5893,
      "▁wsta": 5894,
      "owców": 5895,
      "rzeniu": 5896,
      "▁nego": 5897,
      "nika,": 5898,
      "▁wycofa": 5899,
      "tu.\n": 5900,
      "rządzenie": 5901,
      "rob": 5902,
      "niem,": 5903,
      "r,": 5904,
      "▁własnych": 5905,
      "▁wieczo": 5906,
      "▁drugiego": 5907,
      "▁minist": 5908,
      "▁wychowa": 5909,
      "▁zga": 5910,
      "ciera": 5911,
      "▁Sprawie": 5912,
      "▁Bla": 5913,
      "▁oczekiwa": 5914,
      "▁im\n": 5915,
      "▁pli": 5916,
      "▁Społe": 5917,
      "ność\n": 5918,
      "▁towarów": 5919,
      "▁scho": 5920,
      "▁dyscypli": 5921,
      "cek": 5922,
      "biór": 5923,
      "▁wyści": 5924,
      "▁Nigdy": 5925,
      "▁osób\n": 5926,
      "▁ex": 5927,
      "▁ste": 5928,
      "▁Para": 5929,
      "▁Dodat": 5930,
      "▁atmos": 5931,
      "▁obcią": 5932,
      "▁ran": 5933,
      "te\n": 5934,
      "▁pewne": 5935,
      "▁Pierwszy": 5936,
      "mować": 5937,
      "▁uczni": 5938,
      "▁Twit": 5939,
      "85": 5940,
      "NIE": 5941,
      "zywać": 5942,
      "▁spotyka": 5943,
      "dziły": 5944,
      "▁(A": 5945,
      "▁samodzie": 5946,
      "▁ogranicza": 5947,
      "▁rywali": 5948,
      "▁stoi": 5949,
      "▁stopni": 5950,
      "▁godziny": 5951,
      "▁Wybor": 5952,
      "▁chrześcija": 5953,
      "▁dolarów": 5954,
      "nel": 5955,
      "▁komen": 5956,
      "NE": 5957,
      "▁Henry": 5958,
      "▁górę": 5959,
      "▁Polsa": 5960,
      "▁odrzu": 5961,
      "nem,": 5962,
      "▁funkcję": 5963,
      "▁eksplo": 5964,
      "▁zmianie": 5965,
      "nospraw": 5966,
      "cia\n": 5967,
      "fun": 5968,
      "myka": 5969,
      "yer": 5970,
      "ce.\n": 5971,
      "▁twar": 5972,
      "▁kwestia": 5973,
      "▁napisał": 5974,
      "▁7\n": 5975,
      "mist": 5976,
      "sem\n": 5977,
      "▁sprawach": 5978,
      "▁ideal": 5979,
      "▁skoń": 5980,
      "▁pracownik": 5981,
      "owca": 5982,
      "▁Polska\n": 5983,
      "▁stanowiska": 5984,
      "▁Tea": 5985,
      "▁Więk": 5986,
      "▁dynami": 5987,
      "▁nazwa": 5988,
      "▁zer": 5989,
      "▁Pozosta": 5990,
      "▁szefa": 5991,
      "pomnie": 5992,
      "sie,": 5993,
      "▁mógłby": 5994,
      "▁kościo": 5995,
      "▁zbiera": 5996,
      "▁Kana": 5997,
      "▁that": 5998,
      "▁Katarzy": 5999,
      "▁Finans": 6000,
      "czości": 6001,
      "▁\"The": 6002,
      "▁dziecka": 6003,
      "▁wykaza": 6004,
      "iusz": 6005,
      "▁Chce": 6006,
      "dłuż": 6007,
      "▁skom": 6008,
      "▁móz": 6009,
      "▁dniach": 6010,
      "▁amerykański": 6011,
      "▁regiona": 6012,
      "▁żyw": 6013,
      "▁Am": 6014,
      "▁współprac": 6015,
      "▁dekla": 6016,
      "▁Boże": 6017,
      "▁rodzaj": 6018,
      "▁cena": 6019,
      "▁sprawdza": 6020,
      "▁żołnierzy": 6021,
      "celar": 6022,
      "▁zamówie": 6023,
      "▁powiedzieć": 6024,
      "mie\n": 6025,
      "▁hy": 6026,
      "▁budynku": 6027,
      "▁Ele": 6028,
      "▁największych": 6029,
      "ore": 6030,
      "▁samorzą": 6031,
      "▁zade": 6032,
      "▁Gala": 6033,
      "▁Niemcy": 6034,
      "▁sporo": 6035,
      "▁sej": 6036,
      "nnej": 6037,
      "ley": 6038,
      "gne": 6039,
      "▁Ź": 6040,
      "▁Samsu": 6041,
      "czkę": 6042,
      "ńcu": 6043,
      "▁służą": 6044,
      "▁(na": 6045,
      "▁zawi": 6046,
      "▁przesła": 6047,
      "▁ukaza": 6048,
      "▁zajmuje": 6049,
      "jechał": 6050,
      "▁pewnie": 6051,
      "▁wysokość": 6052,
      "sponden": 6053,
      "▁choroby": 6054,
      "p,": 6055,
      "▁zaprezen": 6056,
      "dziesiąt": 6057,
      "▁test": 6058,
      "▁Polski\n": 6059,
      "▁Fre": 6060,
      "▁grupie": 6061,
      "spól": 6062,
      "▁długie": 6063,
      "▁charakterysty": 6064,
      "towego": 6065,
      "▁mówić": 6066,
      "▁Piłkarze": 6067,
      "▁prawidł": 6068,
      "serwa": 6069,
      "mie,": 6070,
      "▁sposób,": 6071,
      "▁ol": 6072,
      "▁th": 6073,
      "owska": 6074,
      "▁zyska": 6075,
      "▁niebie": 6076,
      "lnych,": 6077,
      "▁gmina": 6078,
      "▁najważniejsze": 6079,
      "▁kary": 6080,
      "▁Window": 6081,
      "łącz": 6082,
      "▁dokład": 6083,
      "-201": 6084,
      "to,": 6085,
      "▁zwa": 6086,
      "▁prepara": 6087,
      "▁wchodzą": 6088,
      "▁też\n": 6089,
      "▁Ksią": 6090,
      "ien": 6091,
      "nen": 6092,
      "szta": 6093,
      "▁wiru": 6094,
      "ws": 6095,
      "▁obserwa": 6096,
      "żona": 6097,
      "▁eko": 6098,
      "▁nieprzy": 6099,
      "▁budowy": 6100,
      "▁1997": 6101,
      "▁table": 6102,
      "▁Często": 6103,
      "35": 6104,
      "▁wideo": 6105,
      "▁ramiona": 6106,
      "▁napa": 6107,
      "produ": 6108,
      "21": 6109,
      "podleg": 6110,
      "▁Chri": 6111,
      "▁robić": 6112,
      "▁stwierdził": 6113,
      "▁przesu": 6114,
      "▁Niech": 6115,
      "▁oby": 6116,
      "pienie": 6117,
      "▁obja": 6118,
      "▁publicznej": 6119,
      "szość": 6120,
      "żę": 6121,
      "C\n": 6122,
      "86": 6123,
      "▁zwiększa": 6124,
      "▁wicepre": 6125,
      "▁Aleksand": 6126,
      "▁żadnej": 6127,
      "tycznego": 6128,
      "▁zadań": 6129,
      "▁prosto": 6130,
      "▁technologii": 6131,
      "nik,": 6132,
      "▁częściej": 6133,
      "▁napię": 6134,
      "wajcar": 6135,
      "▁posie": 6136,
      "gni": 6137,
      "▁ciągle": 6138,
      "▁głowy": 6139,
      "▁najwy": 6140,
      "▁Ucze": 6141,
      "▁zależności": 6142,
      "▁ory": 6143,
      "ódz": 6144,
      "▁stacji": 6145,
      "▁FM": 6146,
      "▁krajach": 6147,
      "▁Mora": 6148,
      "▁Woje": 6149,
      "▁ostatnio": 6150,
      "▁market": 6151,
      "▁Centrum": 6152,
      "▁wyświetla": 6153,
      "czy\n": 6154,
      "dzień": 6155,
      "skie\n": 6156,
      "▁idzie": 6157,
      "▁wolno": 6158,
      "▁Południ": 6159,
      "▁dokony": 6160,
      "▁artysty": 6161,
      "▁Wor": 6162,
      "▁Tar": 6163,
      "▁regular": 6164,
      "▁macie": 6165,
      "▁tekst": 6166,
      "▁Marek": 6167,
      "95": 6168,
      "▁Ministerstwo": 6169,
      "dują": 6170,
      "zumienia": 6171,
      "▁rezu": 6172,
      "▁administracji": 6173,
      "lian": 6174,
      "▁Mistrzo": 6175,
      "▁likwi": 6176,
      "▁byłem": 6177,
      "▁dłużej": 6178,
      "▁pokazuje": 6179,
      "ków.\n": 6180,
      "▁porta": 6181,
      "▁kampanii": 6182,
      "liśmy,": 6183,
      "▁popeł": 6184,
      "▁punktów": 6185,
      "▁specy": 6186,
      "▁Wojs": 6187,
      "▁Mart": 6188,
      "pow": 6189,
      "▁stosowania": 6190,
      "▁żół": 6191,
      "▁sprawi": 6192,
      "▁powiedział,": 6193,
      "ż\n": 6194,
      "▁Tran": 6195,
      "▁nieprze": 6196,
      "▁władz": 6197,
      "▁województwie": 6198,
      "▁krą": 6199,
      "▁dużej": 6200,
      "szy\n": 6201,
      "▁czemu": 6202,
      "kują": 6203,
      "▁siedem": 6204,
      "▁zmiana": 6205,
      "▁\"Na": 6206,
      "▁zajmu": 6207,
      "ologi": 6208,
      "▁uchy": 6209,
      "rowo": 6210,
      "-letni": 6211,
      "pach": 6212,
      "▁zdoła": 6213,
      "▁rezulta": 6214,
      "▁interesu": 6215,
      "▁musiała": 6216,
      "▁brzmieniu": 6217,
      "▁zasi": 6218,
      "▁m\n": 6219,
      "łuje": 6220,
      "wiony": 6221,
      "▁dostaw": 6222,
      "▁kopa": 6223,
      "▁drogę": 6224,
      "▁niczego": 6225,
      "tyczny": 6226,
      "▁dźwię": 6227,
      "▁drugą": 6228,
      "▁Davi": 6229,
      "▁gier": 6230,
      "▁szczęśli": 6231,
      "▁pojem": 6232,
      "▁finansów": 6233,
      "gli": 6234,
      "cie.\n": 6235,
      "komi": 6236,
      "dów\n": 6237,
      "LE": 6238,
      "sją": 6239,
      "▁#": 6240,
      "D\n": 6241,
      "▁twoje": 6242,
      "▁En": 6243,
      "▁infrastru": 6244,
      "rzym": 6245,
      "▁większą": 6246,
      "ziem": 6247,
      "seł": 6248,
      "▁rad": 6249,
      "▁gaze": 6250,
      "▁Nad": 6251,
      "▁organizowa": 6252,
      "▁Gdzie": 6253,
      "▁Mę": 6254,
      "sz\n": 6255,
      "▁życia\n": 6256,
      "▁Por": 6257,
      "▁dużą": 6258,
      "▁sklep": 6259,
      "zeum": 6260,
      "ill": 6261,
      "▁kwestii": 6262,
      "▁hipo": 6263,
      "myśla": 6264,
      "▁społeczeństwa": 6265,
      "nował": 6266,
      "skich\n": 6267,
      "▁koncep": 6268,
      "▁partner": 6269,
      "▁Jaku": 6270,
      "cko": 6271,
      "▁religij": 6272,
      "dob": 6273,
      "▁gwiazd": 6274,
      "żynie": 6275,
      "▁Ben": 6276,
      "▁37": 6277,
      "▁sre": 6278,
      "▁technologi": 6279,
      "▁uprze": 6280,
      "sel": 6281,
      "▁Aust": 6282,
      "▁Następnie": 6283,
      "-K": 6284,
      "▁obejmuje": 6285,
      "▁partne": 6286,
      "▁lekar": 6287,
      "▁niniej": 6288,
      "▁przeło": 6289,
      "sar": 6290,
      "▁grzy": 6291,
      "▁rozstrzy": 6292,
      "szty": 6293,
      "zując": 6294,
      "▁konferencji": 6295,
      "▁pielę": 6296,
      "▁dorad": 6297,
      "▁Grzego": 6298,
      "▁uzyskania": 6299,
      "jestrowa": 6300,
      "▁cyfr": 6301,
      "▁boi": 6302,
      "▁ogłoszenia": 6303,
      "▁urzędu": 6304,
      "▁przeszłości": 6305,
      "▁dą": 6306,
      "▁otwiera": 6307,
      "▁pierwszą": 6308,
      "▁cała": 6309,
      "▁5)": 6310,
      "▁Gran": 6311,
      "▁wyborach": 6312,
      "▁Bank": 6313,
      "▁sezon": 6314,
      "ąza": 6315,
      "▁bibli": 6316,
      "waniem": 6317,
      "li.\n": 6318,
      "tacza": 6319,
      "▁pracuje": 6320,
      "▁gaz": 6321,
      "ię,": 6322,
      "▁pta": 6323,
      "▁Pri": 6324,
      "▁teren": 6325,
      "tacja": 6326,
      "▁pierwsza": 6327,
      "▁spoży": 6328,
      "▁Polskie": 6329,
      "▁Micro": 6330,
      "▁Rzecz": 6331,
      "▁inni": 6332,
      "▁bur": 6333,
      "au": 6334,
      "▁stały": 6335,
      "▁przeprowadza": 6336,
      "stki": 6337,
      "▁niepełnospraw": 6338,
      "▁Cu": 6339,
      "▁piątek": 6340,
      "▁wyjaś": 6341,
      "▁Oto": 6342,
      "▁wykry": 6343,
      "▁matka": 6344,
      "▁występuje": 6345,
      "65": 6346,
      "▁unik": 6347,
      "▁powtarza": 6348,
      "▁kamie": 6349,
      "▁góry": 6350,
      "▁uwagę,": 6351,
      "▁budżetu": 6352,
      "▁odręb": 6353,
      "▁wpad": 6354,
      "▁swych": 6355,
      "nują": 6356,
      "dba": 6357,
      "▁ćwi": 6358,
      "▁zamiesz": 6359,
      "miał": 6360,
      "▁przedłu": 6361,
      "▁musieli": 6362,
      ".:": 6363,
      "em\n": 6364,
      "chan": 6365,
      "szczą": 6366,
      "▁zobaczyć": 6367,
      "rem\n": 6368,
      "▁rozwiązanie": 6369,
      "▁John": 6370,
      "▁gwałtow": 6371,
      "rzone": 6372,
      "▁[b]": 6373,
      "dować": 6374,
      "czonego": 6375,
      "cą,": 6376,
      "lonych": 6377,
      "mentar": 6378,
      "▁Nie,": 6379,
      "▁kaden": 6380,
      "sta,": 6381,
      "szeniu": 6382,
      "cją,": 6383,
      "tości": 6384,
      "tywa": 6385,
      "▁kapitał": 6386,
      "ci\n": 6387,
      "▁przedsiębiorstwa": 6388,
      "▁sprowa": 6389,
      "▁Media": 6390,
      "dło": 6391,
      "▁okoliczności": 6392,
      "▁przecię": 6393,
      "▁kraju\n": 6394,
      "▁limi": 6395,
      "▁oznacza,": 6396,
      "wol": 6397,
      "cielem": 6398,
      "▁Insta": 6399,
      "▁Ener": 6400,
      "▁myśl": 6401,
      "▁sytuacji,": 6402,
      "▁Sło": 6403,
      "▁nazwę": 6404,
      "▁tłumaczy": 6405,
      "▁Podobnie": 6406,
      "▁Działa": 6407,
      "▁Tego": 6408,
      "▁śnie": 6409,
      "gorza": 6410,
      "kowany": 6411,
      "▁pojedyn": 6412,
      "▁osiąga": 6413,
      "▁naszą": 6414,
      "▁zapytał": 6415,
      "▁zesz": 6416,
      "▁samochód": 6417,
      "87": 6418,
      "basa": 6419,
      "▁żywo": 6420,
      "▁fla": 6421,
      "wró": 6422,
      "▁myśle": 6423,
      "▁cer": 6424,
      "zwo": 6425,
      "▁odej": 6426,
      "▁rozmów": 6427,
      "twiej": 6428,
      "finansowa": 6429,
      "▁maksyma": 6430,
      "▁Tek": 6431,
      "▁puł": 6432,
      "▁organ": 6433,
      "OD": 6434,
      "▁pełno": 6435,
      "▁reprezentacji": 6436,
      "▁pewnym": 6437,
      "▁sumie": 6438,
      "lizacja": 6439,
      "▁osiem": 6440,
      "lecia": 6441,
      "▁Ponie": 6442,
      "▁COVID": 6443,
      "wand": 6444,
      "▁Jakie": 6445,
      "▁sprawiedliwości": 6446,
      "liz": 6447,
      "▁Chodzi": 6448,
      "▁odse": 6449,
      "▁Telewi": 6450,
      "▁wydaj": 6451,
      "▁powiąza": 6452,
      "▁spi": 6453,
      "▁zostaje": 6454,
      "▁poinformował": 6455,
      "▁zezwo": 6456,
      "▁ostatecznie": 6457,
      "żsa": 6458,
      "▁dotąd": 6459,
      "tycznie": 6460,
      "▁świadczeń": 6461,
      "wości": 6462,
      "▁Konstytu": 6463,
      "ok": 6464,
      "nięte": 6465,
      "▁obywatel": 6466,
      "▁bło": 6467,
      "re,": 6468,
      "▁Francji": 6469,
      "▁parę": 6470,
      "▁spła": 6471,
      "▁Należy": 6472,
      "▁Centra": 6473,
      "▁asy": 6474,
      "▁dziewię": 6475,
      "▁wojsk": 6476,
      "▁gospo": 6477,
      "rtual": 6478,
      "▁Izra": 6479,
      "▁określone": 6480,
      "tość": 6481,
      "cznego\n": 6482,
      "▁Świat\n": 6483,
      "óźniej": 6484,
      "▁pojawił": 6485,
      "nó": 6486,
      "▁wnę": 6487,
      "▁Austra": 6488,
      "▁dodał": 6489,
      "▁pobliżu": 6490,
      "hone": 6491,
      "▁rozpoczął": 6492,
      "▁Net": 6493,
      "▁konieczności": 6494,
      "▁nieko": 6495,
      "▁kilome": 6496,
      "▁zrezyg": 6497,
      "cyjnie": 6498,
      "wka": 6499,
      "▁wstęp": 6500,
      "lne,": 6501,
      "▁zwal": 6502,
      "▁mną": 6503,
      "dzonej": 6504,
      "▁bezrobo": 6505,
      "▁powoduje": 6506,
      "▁Myś": 6507,
      "▁Geor": 6508,
      "▁szta": 6509,
      "▁wiadomo,": 6510,
      "▁tań": 6511,
      "▁wystarczy": 6512,
      "▁wersja": 6513,
      "▁miast": 6514,
      "▁ostatniej": 6515,
      "▁nies": 6516,
      "▁skali": 6517,
      "▁nie\n": 6518,
      "▁1999": 6519,
      "n.\n": 6520,
      "▁rzuca": 6521,
      "22": 6522,
      "▁żaden": 6523,
      "▁Marcin": 6524,
      "▁Dro": 6525,
      "lip": 6526,
      "▁nacze": 6527,
      "▁moich": 6528,
      "'ego": 6529,
      "A,": 6530,
      "owano": 6531,
      "▁Afry": 6532,
      "▁dużych": 6533,
      "▁siebie,": 6534,
      "▁Zdr": 6535,
      "▁wydoby": 6536,
      "▁start": 6537,
      "sza\n": 6538,
      "▁dostarcza": 6539,
      "▁Słowa": 6540,
      "▁problemów": 6541,
      "ciory": 6542,
      "▁rzeczywistości": 6543,
      "▁poniedziałek": 6544,
      "▁polska": 6545,
      "▁Prezes": 6546,
      "▁proto": 6547,
      "line": 6548,
      "▁(nie": 6549,
      "▁też:": 6550,
      "▁kraju,": 6551,
      "xy": 6552,
      "▁miliar": 6553,
      "),\n": 6554,
      "▁automatycz": 6555,
      "ściami": 6556,
      "sie\n": 6557,
      "▁smartfon": 6558,
      "▁głównej": 6559,
      "▁mojego": 6560,
      "▁Polscy": 6561,
      "kcję": 6562,
      "tto": 6563,
      "-la": 6564,
      "▁Rodzi": 6565,
      "▁nasi": 6566,
      "▁mogło": 6567,
      "SK": 6568,
      "▁przywód": 6569,
      "▁kibi": 6570,
      "▁zapla": 6571,
      "rator": 6572,
      "rodek": 6573,
      "▁pienięż": 6574,
      "▁gre": 6575,
      "dząc": 6576,
      "▁Jacek": 6577,
      "owa,": 6578,
      "▁Jeden": 6579,
      "▁Pew": 6580,
      "▁Komisja": 6581,
      "▁Zjednoczonych": 6582,
      "▁wyboru": 6583,
      "▁Międzynarod": 6584,
      "byśmy": 6585,
      "▁Ministrów": 6586,
      "▁trój": 6587,
      "nnego": 6588,
      "84": 6589,
      "nięty": 6590,
      "▁urodzeni": 6591,
      "▁delika": 6592,
      "łożył": 6593,
      "cymi": 6594,
      "▁Gó": 6595,
      "▁System": 6596,
      "owo,": 6597,
      "▁daleko": 6598,
      "▁użytkowników": 6599,
      "▁historia": 6600,
      "▁Radio": 6601,
      "▁Jarosław": 6602,
      "▁zaproponowa": 6603,
      "▁instytucji": 6604,
      "▁logi": 6605,
      "nika\n": 6606,
      "▁małe": 6607,
      "ot": 6608,
      "▁Zy": 6609,
      "ces": 6610,
      "▁spor": 6611,
      "▁transakcji": 6612,
      "mb": 6613,
      "▁dodatkowe": 6614,
      "▁Źród": 6615,
      "▁Fer": 6616,
      "▁pozostałych": 6617,
      "▁towar": 6618,
      "niesieniu": 6619,
      "onda": 6620,
      "strybu": 6621,
      "▁fał": 6622,
      "▁7,": 6623,
      "▁as": 6624,
      "lami": 6625,
      "▁ostrze": 6626,
      "▁wydaw": 6627,
      "▁Prac": 6628,
      "ficja": 6629,
      "▁bó": 6630,
      "▁dopuszcza": 6631,
      "van": 6632,
      "▁PKB": 6633,
      "▁groź": 6634,
      "▁XIX": 6635,
      "▁wiary": 6636,
      "▁wprost": 6637,
      "pił": 6638,
      "en\n": 6639,
      "dowi": 6640,
      "▁temu,": 6641,
      "▁Film": 6642,
      "▁związek": 6643,
      "wach": 6644,
      "▁sprawozda": 6645,
      "▁tajemni": 6646,
      "▁sezonu": 6647,
      "bierz": 6648,
      "owa\n": 6649,
      "▁55": 6650,
      "vil": 6651,
      "łam,": 6652,
      "▁elementów": 6653,
      "▁1998": 6654,
      "domi": 6655,
      "▁biur": 6656,
      "▁ost": 6657,
      "▁pomóc": 6658,
      "▁domu,": 6659,
      "▁czasach": 6660,
      "▁zmienić": 6661,
      "▁uszko": 6662,
      "▁podoba": 6663,
      "hu": 6664,
      "▁br\n": 6665,
      "cina": 6666,
      ".201": 6667,
      "letnie": 6668,
      "▁opiera": 6669,
      "▁powiedzia": 6670,
      "▁odbę": 6671,
      "▁łącznie": 6672,
      "sku,": 6673,
      "▁abo": 6674,
      "▁radi": 6675,
      "▁Grupa": 6676,
      "▁J\n": 6677,
      "▁naukow": 6678,
      "▁zaprze": 6679,
      "▁reklam": 6680,
      "▁net": 6681,
      "▁przeja": 6682,
      "nionej": 6683,
      "▁profi": 6684,
      "▁podaje": 6685,
      "▁posła": 6686,
      "▁Two": 6687,
      "▁standar": 6688,
      "▁dać": 6689,
      "▁zasadni": 6690,
      "cili": 6691,
      "▁czegoś": 6692,
      "mow": 6693,
      "▁nami": 6694,
      "▁Kodek": 6695,
      "▁intensyw": 6696,
      "zy,": 6697,
      "▁zrealizowa": 6698,
      "woru": 6699,
      "▁oceny": 6700,
      "▁wydarzenia": 6701,
      "▁skło": 6702,
      "▁wychodzi": 6703,
      "▁zwierząt": 6704,
      "▁zarządu": 6705,
      "▁har": 6706,
      "tycy": 6707,
      "żnie": 6708,
      "▁działanie": 6709,
      "▁panie": 6710,
      "▁osła": 6711,
      "▁psychi": 6712,
      "▁dostrze": 6713,
      "▁spadek": 6714,
      "nna": 6715,
      "▁Począ": 6716,
      "▁odzyska": 6717,
      "czny\n": 6718,
      "▁czasów": 6719,
      "▁nieste": 6720,
      "▁Komite": 6721,
      "nych.\n": 6722,
      "83": 6723,
      "wie,": 6724,
      "rąz": 6725,
      "▁Kazi": 6726,
      "▁\"Rze": 6727,
      "▁wypeł": 6728,
      "▁ułat": 6729,
      "▁zachwy": 6730,
      "96": 6731,
      "don": 6732,
      "▁ryzyko": 6733,
      "nem\n": 6734,
      "▁Bor": 6735,
      "▁min.\n": 6736,
      "▁światowej": 6737,
      "▁zapisa": 6738,
      "▁języka": 6739,
      "▁kontek": 6740,
      "▁chcieli": 6741,
      "▁źró": 6742,
      "▁życia,": 6743,
      "▁opieku": 6744,
      "▁rozpoczyna": 6745,
      "-200": 6746,
      "▁nieod": 6747,
      "▁dobro": 6748,
      "▁następuje": 6749,
      "▁zostali": 6750,
      "▁dziesią": 6751,
      "▁Rafa": 6752,
      "pów": 6753,
      "sznie": 6754,
      "▁zawia": 6755,
      "▁prag": 6756,
      "fu": 6757,
      "▁Uczest": 6758,
      "▁wyjątk": 6759,
      "▁wczoraj": 6760,
      "▁fabry": 6761,
      "bił": 6762,
      "▁Gdań": 6763,
      "trwa": 6764,
      "▁zwyczaj": 6765,
      "▁minima": 6766,
      "▁150": 6767,
      "▁środę": 6768,
      "▁Lewand": 6769,
      "▁duch": 6770,
      "▁zazwyczaj": 6771,
      "▁Gar": 6772,
      "▁ura": 6773,
      "▁Tro": 6774,
      "▁odebra": 6775,
      "▁podsu": 6776,
      "▁oprócz": 6777,
      "97": 6778,
      "▁Min": 6779,
      "▁Sł": 6780,
      "cze\n": 6781,
      ".com": 6782,
      "towano": 6783,
      "▁ana": 6784,
      "▁zdą": 6785,
      "▁produkt": 6786,
      "▁śmierć": 6787,
      "▁prowin": 6788,
      "▁zba": 6789,
      "▁błą": 6790,
      "▁niewiele": 6791,
      "▁Polski,": 6792,
      "▁obowiązku": 6793,
      "ward": 6794,
      "▁Proble": 6795,
      "▁zbliża": 6796,
      "▁uwzględnia": 6797,
      "e,": 6798,
      "▁opieki": 6799,
      "▁(T": 6800,
      "▁wykształ": 6801,
      "▁Microso": 6802,
      "▁efektyw": 6803,
      "▁moral": 6804,
      "▁przypadkach": 6805,
      "▁Wiele": 6806,
      "ło:": 6807,
      "▁Zmarli": 6808,
      "▁Towarzy": 6809,
      "tech": 6810,
      "ił": 6811,
      "cyjnych,": 6812,
      "▁czytamy": 6813,
      "nastu": 6814,
      "▁dziew": 6815,
      "▁Ali": 6816,
      "-W": 6817,
      "▁You": 6818,
      "▁spółka": 6819,
      "▁szkół": 6820,
      "▁ekspe": 6821,
      "▁zł.\n": 6822,
      "▁terytoria": 6823,
      "▁kontakt": 6824,
      "▁rzym": 6825,
      "▁dopu": 6826,
      "▁klienta": 6827,
      "▁COVID-19": 6828,
      "▁tymi": 6829,
      "▁przestrzeni": 6830,
      "▁czwartek": 6831,
      "▁wzajem": 6832,
      "▁Cor": 6833,
      "▁słów": 6834,
      "tywy": 6835,
      "▁(3": 6836,
      "▁wtorek": 6837,
      "▁igrzy": 6838,
      "twy": 6839,
      "▁Mistrz": 6840,
      "ndy": 6841,
      "▁czoł": 6842,
      "▁Trzy": 6843,
      "dium": 6844,
      "▁chemi": 6845,
      "▁75": 6846,
      "▁\"w": 6847,
      "łu,": 6848,
      "▁przychodów": 6849,
      "▁wod": 6850,
      "▁funda": 6851,
      "mowi": 6852,
      "cel": 6853,
      "▁produkty": 6854,
      "▁trzecie": 6855,
      "▁perso": 6856,
      "▁ludności": 6857,
      "NI": 6858,
      "▁oszu": 6859,
      "▁przebywa": 6860,
      "tero": 6861,
      "▁1990": 6862,
      "▁spotkanie": 6863,
      "ingu": 6864,
      "czenie,": 6865,
      "▁Joan": 6866,
      "▁znaczy": 6867,
      "▁wyraża": 6868,
      "▁adwoka": 6869,
      "▁hote": 6870,
      "▁wizer": 6871,
      "▁NB": 6872,
      "▁Play": 6873,
      "łos": 6874,
      "▁danego": 6875,
      "▁Okręg": 6876,
      "▁formy": 6877,
      "▁rzecznik": 6878,
      "▁super": 6879,
      "▁Sk": 6880,
      "▁oczywi": 6881,
      "▁rą": 6882,
      "żan": 6883,
      "▁prezesa": 6884,
      "▁zarejestrowa": 6885,
      "▁umiejętności": 6886,
      "▁się.\n": 6887,
      "nień": 6888,
      "▁Niestety,": 6889,
      "▁punkty": 6890,
      "▁Bur": 6891,
      "rzy\n": 6892,
      "▁odpowiedź": 6893,
      "▁wykonania": 6894,
      "▁gdzieś": 6895,
      "wicza": 6896,
      "▁pracował": 6897,
      "logie": 6898,
      "dowania": 6899,
      "tłu": 6900,
      "▁44": 6901,
      "▁niedzielę": 6902,
      "▁\"Za": 6903,
      "wic": 6904,
      "▁\"za": 6905,
      "▁młodych": 6906,
      "94": 6907,
      "▁miałem": 6908,
      "▁kontr": 6909,
      ":4": 6910,
      "▁tygodnia": 6911,
      "luje": 6912,
      "▁przekształ": 6913,
      "P\n": 6914,
      "▁obszarze": 6915,
      "tes": 6916,
      "▁stylu": 6917,
      "mai": 6918,
      "skry": 6919,
      "-5": 6920,
      "▁Wcześniej": 6921,
      "ryte": 6922,
      "▁mistrzostw": 6923,
      "▁dostępne": 6924,
      "ta.\n": 6925,
      "▁spada": 6926,
      "▁zakończeniu": 6927,
      "▁Funduszu": 6928,
      "▁dzieci,": 6929,
      "cy.\n": 6930,
      "▁zrozumia": 6931,
      "▁rozporządzenie": 6932,
      "▁ilość": 6933,
      "sem,": 6934,
      "ników\n": 6935,
      "▁mistrzostwa": 6936,
      "▁Mal": 6937,
      "▁pas": 6938,
      "▁agre": 6939,
      "▁kompozy": 6940,
      "▁Obie": 6941,
      "▁powietrza": 6942,
      "▁ciało": 6943,
      "▁marki": 6944,
      "▁65": 6945,
      "▁sprzy": 6946,
      "▁One": 6947,
      "lwen": 6948,
      "▁Stanisław": 6949,
      "▁napo": 6950,
      "▁IN": 6951,
      "▁poszukiwa": 6952,
      "▁Zacho": 6953,
      "▁odparł": 6954,
      "▁sytuację": 6955,
      "▁\"Rzecz": 6956,
      "siła": 6957,
      "▁chciała": 6958,
      "tkowa": 6959,
      "▁Kom": 6960,
      "ZY": 6961,
      "media": 6962,
      "▁ustawa": 6963,
      "▁praca": 6964,
      "chać": 6965,
      "▁liczy": 6966,
      "▁czasu,": 6967,
      "▁Ukrainy": 6968,
      "ksu": 6969,
      "▁(...)": 6970,
      "▁chcemy": 6971,
      "▁obliga": 6972,
      "▁wiadomości": 6973,
      "▁uzależ": 6974,
      "cona": 6975,
      "wencji": 6976,
      "▁poru": 6977,
      "▁uroczy": 6978,
      "72": 6979,
      "rzony": 6980,
      "93": 6981,
      "▁statysty": 6982,
      "▁dużym": 6983,
      "▁obsłu": 6984,
      "▁8\n": 6985,
      "łami": 6986,
      "dzki": 6987,
      "▁ocho": 6988,
      "▁sh": 6989,
      "świe": 6990,
      "▁inwestor": 6991,
      "▁Interne": 6992,
      "▁Rada": 6993,
      "▁Ponieważ": 6994,
      "kowie": 6995,
      "wzię": 6996,
      "jską": 6997,
      "▁kupić": 6998,
      "▁negocja": 6999,
      "king": 7000,
      "▁43": 7001,
      "88": 7002,
      "▁with": 7003,
      "▁przewa": 7004,
      "▁konso": 7005,
      "▁piłkar": 7006,
      "▁dodatkowo": 7007,
      "gip": 7008,
      "▁Sena": 7009,
      "cle": 7010,
      "▁gości": 7011,
      "▁przyspie": 7012,
      "▁modelu": 7013,
      "▁rejestra": 7014,
      "▁celów": 7015,
      "▁wytwarza": 7016,
      "▁umów": 7017,
      "▁wojnie": 7018,
      "▁okazało": 7019,
      "staura": 7020,
      "▁karty": 7021,
      "▁Sprawiedliwości": 7022,
      "▁mistrz": 7023,
      "▁wyrzu": 7024,
      "▁Tom": 7025,
      "▁wpisa": 7026,
      "▁miejscowości": 7027,
      "▁krótko": 7028,
      "▁seksual": 7029,
      "szyb": 7030,
      "▁kompe": 7031,
      "▁Zbi": 7032,
      "▁własnego": 7033,
      "▁PIT": 7034,
      "all": 7035,
      "tarz": 7036,
      "▁obawia": 7037,
      "▁obserw": 7038,
      "▁dba": 7039,
      "▁zagranicznych": 7040,
      "▁oddziały": 7041,
      "▁mro": 7042,
      "dowych": 7043,
      "szona": 7044,
      "▁strona": 7045,
      "znacza": 7046,
      "▁popy": 7047,
      "▁*\n": 7048,
      "▁pł": 7049,
      "gami": 7050,
      "ida": 7051,
      "▁trafia": 7052,
      "kami,": 7053,
      "jnych": 7054,
      "AC": 7055,
      "▁terro": 7056,
      "ński\n": 7057,
      "▁zę": 7058,
      "ang": 7059,
      "▁wielką": 7060,
      "64": 7061,
      "▁akty": 7062,
      "niejszym": 7063,
      "czania": 7064,
      "▁obrony": 7065,
      "▁Zw": 7066,
      "▁któremu": 7067,
      "▁400": 7068,
      "▁wycie": 7069,
      "▁roślin": 7070,
      "▁średnio": 7071,
      "▁Andrze": 7072,
      "▁(K": 7073,
      "czonym": 7074,
      "▁(do": 7075,
      "▁prowadzić": 7076,
      "▁wewnątrz": 7077,
      "▁utrzymy": 7078,
      "▁Zu": 7079,
      "tność": 7080,
      "AL": 7081,
      "PS": 7082,
      "▁czuje": 7083,
      "▁przeczyta": 7084,
      "▁Jerzy": 7085,
      "czna,": 7086,
      "▁Przecież": 7087,
      "regu": 7088,
      "▁ropy": 7089,
      "▁zuży": 7090,
      "▁Tade": 7091,
      "kru": 7092,
      "▁samych": 7093,
      "▁świata\n": 7094,
      "▁Administra": 7095,
      "▁czerw": 7096,
      "▁pochodzenia": 7097,
      "ong": 7098,
      "nek\n": 7099,
      "▁Kali": 7100,
      "▁Kilka": 7101,
      "▁Większość": 7102,
      "▁próby": 7103,
      "▁książę": 7104,
      "▁sena": 7105,
      "▁nauki": 7106,
      "rent": 7107,
      "▁Ur": 7108,
      "nikami": 7109,
      "▁przyszłość": 7110,
      "ction": 7111,
      ":5": 7112,
      "▁wyprze": 7113,
      "▁wydania": 7114,
      "▁General": 7115,
      "▁wysp": 7116,
      "a,": 7117,
      "derem": 7118,
      "tak": 7119,
      "grup": 7120,
      "żni": 7121,
      "▁zarabia": 7122,
      "▁Oprócz": 7123,
      "fery": 7124,
      "▁Brytyj": 7125,
      "mir": 7126,
      "▁skończy": 7127,
      "▁ojca": 7128,
      "lle": 7129,
      "▁moją": 7130,
      "▁kont": 7131,
      "łącznik": 7132,
      "▁Ochro": 7133,
      "▁kończy": 7134,
      "▁poglą": 7135,
      "wska": 7136,
      "▁(wy": 7137,
      "▁monitor": 7138,
      "▁Jednocześnie": 7139,
      "▁Agnie": 7140,
      "dną": 7141,
      "szeni": 7142,
      "▁pry": 7143,
      "sion": 7144,
      "▁okręgu": 7145,
      "▁Było": 7146,
      "rza\n": 7147,
      "▁rejestru": 7148,
      "▁grun": 7149,
      "▁zatrudnie": 7150,
      ".3": 7151,
      "14": 7152,
      "▁ciąży": 7153,
      "▁absolu": 7154,
      "▁metody": 7155,
      "ższe": 7156,
      "▁miejscowość": 7157,
      "▁myślą": 7158,
      "▁Ekonomi": 7159,
      "13": 7160,
      "zdu": 7161,
      "▁czynienia": 7162,
      "▁zachowania": 7163,
      "D,": 7164,
      "tri": 7165,
      "▁Rząd": 7166,
      "tle": 7167,
      "▁szacun": 7168,
      "▁epo": 7169,
      "▁Prokura": 7170,
      "▁niedawno": 7171,
      "▁szansę": 7172,
      "owal": 7173,
      "sę": 7174,
      "▁naci": 7175,
      "▁ubezpieczenia": 7176,
      "▁dół": 7177,
      "▁zajął": 7178,
      "▁pytania": 7179,
      "▁Związku": 7180,
      "strak": 7181,
      "▁tryb": 7182,
      "▁wybuch": 7183,
      "▁Wojciech": 7184,
      "▁Zbignie": 7185,
      "▁pobra": 7186,
      "▁znany": 7187,
      "sty,": 7188,
      "▁popro": 7189,
      "niejsza": 7190,
      "▁piersi": 7191,
      "▁suger": 7192,
      "▁wsparcie": 7193,
      "▁orygina": 7194,
      "16": 7195,
      "▁Nikt": 7196,
      "wano": 7197,
      "▁rękę": 7198,
      "rować": 7199,
      "▁Uważa": 7200,
      "▁Powsta": 7201,
      "dzę,": 7202,
      "-B": 7203,
      "lnych\n": 7204,
      "liła": 7205,
      "▁wyższe": 7206,
      "▁odpad": 7207,
      "▁Łukasz": 7208,
      "▁dał": 7209,
      "▁festi": 7210,
      "ia,": 7211,
      "ńskiego,": 7212,
      "▁Czu": 7213,
      "▁wpła": 7214,
      "▁Obywa": 7215,
      "▁Ir": 7216,
      "▁Opinie": 7217,
      "▁małych": 7218,
      "▁swe": 7219,
      "ham": 7220,
      "▁Wygląda": 7221,
      "skim\n": 7222,
      "▁(za": 7223,
      "▁Kościół": 7224,
      "77": 7225,
      "▁obszar": 7226,
      "▁głównym": 7227,
      "▁powstania": 7228,
      "▁niko": 7229,
      "ming": 7230,
      "▁chłopa": 7231,
      "▁wprowadzenie": 7232,
      "▁kaza": 7233,
      "ńca": 7234,
      "▁grozi": 7235,
      "▁człon": 7236,
      "▁Pani": 7237,
      "▁własną": 7238,
      "▁pola": 7239,
      "▁Trudno": 7240,
      "bine": 7241,
      "▁us": 7242,
      "▁łóż": 7243,
      "▁będziesz": 7244,
      "92": 7245,
      "▁Dopiero": 7246,
      "ktual": 7247,
      "▁postać": 7248,
      "▁pil": 7249,
      "**": 7250,
      "ES": 7251,
      "nogra": 7252,
      "s\"": 7253,
      "▁ograniczenia": 7254,
      "spoko": 7255,
      "▁Ange": 7256,
      "ela": 7257,
      "▁Hol": 7258,
      "▁deka": 7259,
      "kaz": 7260,
      "▁głęboko": 7261,
      "▁Wyso": 7262,
      "▁procesu": 7263,
      "cz,": 7264,
      "▁wielkim": 7265,
      "▁udziałem": 7266,
      "▁pojawiły": 7267,
      "▁Sport.pl,": 7268,
      "▁wsparcia": 7269,
      "tę,": 7270,
      "▁równowa": 7271,
      "sku\n": 7272,
      "▁Chry": 7273,
      "brze": 7274,
      "▁wyjaśnie": 7275,
      "▁miesiąca": 7276,
      "▁traci": 7277,
      "▁wspólnie": 7278,
      "▁częścią": 7279,
      "landii": 7280,
      "▁wyjątkiem": 7281,
      "▁gotów": 7282,
      "▁Jedy": 7283,
      "mując": 7284,
      "▁pośrednictwem": 7285,
      "rzeniem": 7286,
      "nymi,": 7287,
      "ak": 7288,
      "▁rozegra": 7289,
      "▁świecie\n": 7290,
      "▁wspólnego": 7291,
      "zeku": 7292,
      "▁wzdłuż": 7293,
      "lory": 7294,
      "IST": 7295,
      "red": 7296,
      "▁Odznaczeni": 7297,
      "lnego,": 7298,
      "▁zasadzie": 7299,
      "▁ły": 7300,
      "▁wykonaw": 7301,
      "▁koncent": 7302,
      "▁brakuje": 7303,
      "▁Kazimie": 7304,
      "nitar": 7305,
      "dowego": 7306,
      "▁mani": 7307,
      "▁Stanach": 7308,
      "▁Najwięk": 7309,
      "▁Więc": 7310,
      "▁120": 7311,
      "▁Willia": 7312,
      "▁SP": 7313,
      "pto": 7314,
      "▁nauk": 7315,
      "wale": 7316,
      "głasza": 7317,
      "rek,": 7318,
      "▁świ": 7319,
      "▁siebie\n": 7320,
      "▁polu": 7321,
      "szczu": 7322,
      "▁serca": 7323,
      "▁opłaty": 7324,
      "tz": 7325,
      "▁Małgorza": 7326,
      "▁korzystać": 7327,
      "▁zauważa": 7328,
      "lla": 7329,
      "czno-": 7330,
      "▁dostępu": 7331,
      "▁ulega": 7332,
      "▁doskonale": 7333,
      "▁zb": 7334,
      "▁wysyła": 7335,
      "▁leża": 7336,
      "▁oprogra": 7337,
      "▁emisji": 7338,
      "b]\n": 7339,
      "▁producent": 7340,
      "▁skąd": 7341,
      "typ": 7342,
      "▁miesiąc": 7343,
      "▁przysta": 7344,
      "▁Ligi": 7345,
      "▁relacji": 7346,
      "▁śledz": 7347,
      "▁Parla": 7348,
      "▁wieku\n": 7349,
      "▁odpowiedział": 7350,
      "▁krea": 7351,
      "▁miesza": 7352,
      "zywał": 7353,
      "▁domu\n": 7354,
      "▁wzmoc": 7355,
      "▁szla": 7356,
      "▁zatrudnio": 7357,
      "▁powoli": 7358,
      "▁dek": 7359,
      "▁smo": 7360,
      "▁króla": 7361,
      "▁zewnątrz": 7362,
      "▁\"z": 7363,
      "in,": 7364,
      ":00": 7365,
      "szły": 7366,
      "▁ataku": 7367,
      "▁lę": 7368,
      "tional": 7369,
      "▁Windows": 7370,
      "cuje": 7371,
      "▁Być": 7372,
      "▁momen": 7373,
      "▁domaga": 7374,
      "eksy": 7375,
      "▁deba": 7376,
      "▁materiałów": 7377,
      "▁niezwyk": 7378,
      "szki": 7379,
      "dru": 7380,
      "AD": 7381,
      "▁wielkości": 7382,
      "kać": 7383,
      "berg": 7384,
      "▁Franci": 7385,
      "▁podwój": 7386,
      "cją\n": 7387,
      "łożyć": 7388,
      "▁M\n": 7389,
      "▁42": 7390,
      "▁)": 7391,
      "▁dzwo": 7392,
      "P,": 7393,
      "▁Świat": 7394,
      "▁wspólno": 7395,
      "▁38": 7396,
      "▁nadzor": 7397,
      "▁Katowi": 7398,
      "▁tera": 7399,
      "hy": 7400,
      "▁Dłu": 7401,
      "▁właściwego": 7402,
      "▁\"po": 7403,
      "▁waka": 7404,
      "▁Prezydent": 7405,
      "▁ap": 7406,
      "▁wrażenie,": 7407,
      "▁restaura": 7408,
      "▁Sądu": 7409,
      "▁sięg": 7410,
      "fonu": 7411,
      "▁muszę": 7412,
      "derni": 7413,
      "▁wscho": 7414,
      "lne\n": 7415,
      "▁pewien": 7416,
      "leni": 7417,
      "▁pary": 7418,
      "▁pen": 7419,
      "▁ZS": 7420,
      "▁dystrybu": 7421,
      "▁\"E": 7422,
      "kazuje": 7423,
      "▁najwięcej": 7424,
      "dziela": 7425,
      "▁mały": 7426,
      "▁1991": 7427,
      "▁sprawą": 7428,
      "▁zdarza": 7429,
      "▁Dan": 7430,
      "▁sektora": 7431,
      "▁poło": 7432,
      "▁umy": 7433,
      "▁magi": 7434,
      "eken": 7435,
      "▁trafił": 7436,
      "▁utru": 7437,
      "▁Szef": 7438,
      "▁wzbu": 7439,
      "lenda": 7440,
      "słem": 7441,
      "niono": 7442,
      "▁Maciej": 7443,
      "▁Polska,": 7444,
      "▁jakiegoś": 7445,
      "▁warszaw": 7446,
      "▁dzieci\n": 7447,
      "▁trener": 7448,
      "▁wysokie": 7449,
      "westi": 7450,
      "▁ubiegłym": 7451,
      "▁\"To": 7452,
      "▁Pierwsze": 7453,
      "▁kwotę": 7454,
      "▁Premier": 7455,
      "▁gwiaz": 7456,
      "▁sobotę": 7457,
      "▁Chyba": 7458,
      "dzać": 7459,
      "und": 7460,
      "▁niepoko": 7461,
      "mas": 7462,
      "▁oferty": 7463,
      "▁plu": 7464,
      "▁wybór": 7465,
      "▁\"Je": 7466,
      "▁własnym": 7467,
      "▁Bóg": 7468,
      "▁nazwisko": 7469,
      "▁banku": 7470,
      "trzeć": 7471,
      "róg": 7472,
      "czonej": 7473,
      "66": 7474,
      "▁druga": 7475,
      "tecznie": 7476,
      "▁upa": 7477,
      "ża,": 7478,
      "▁marcu": 7479,
      "miana": 7480,
      "▁Zo": 7481,
      "▁odde": 7482,
      "▁słowo": 7483,
      "▁Miał": 7484,
      "▁tekstu": 7485,
      "▁korzyst": 7486,
      "▁brzmienie": 7487,
      "▁tam,": 7488,
      "trzu": 7489,
      "▁wziąć": 7490,
      "ściem": 7491,
      "dawca": 7492,
      "▁gmin": 7493,
      "▁Super": 7494,
      "lety": 7495,
      "▁gnie": 7496,
      "▁stóp": 7497,
      "▁sied": 7498,
      "▁Nowo": 7499,
      "cznym,": 7500,
      "kach\n": 7501,
      "▁Pau": 7502,
      "▁innowa": 7503,
      "▁Brytanii": 7504,
      "▁Włady": 7505,
      "▁każda": 7506,
      "▁Ve": 7507,
      "▁standard": 7508,
      "bić": 7509,
      "▁ilu": 7510,
      "▁eduka": 7511,
      "▁legi": 7512,
      "▁potrzeba": 7513,
      "▁Służ": 7514,
      "▁wypa": 7515,
      "rium": 7516,
      "▁umowę": 7517,
      "▁Wspól": 7518,
      "▁hipote": 7519,
      "▁Współ": 7520,
      "F\n": 7521,
      "▁zaplanowa": 7522,
      "▁rok\n": 7523,
      "dnego": 7524,
      "91": 7525,
      "dowe": 7526,
      "▁Odpowie": 7527,
      "▁elementy": 7528,
      "▁Kli": 7529,
      "▁układu": 7530,
      "▁przeszko": 7531,
      "niesienie": 7532,
      "▁tabli": 7533,
      "▁szybciej": 7534,
      "▁wszystkiego": 7535,
      "▁samochodów": 7536,
      "▁prowadzenie": 7537,
      "▁Miejsc": 7538,
      "▁mun": 7539,
      "ńcy": 7540,
      "ciar": 7541,
      "▁odszkodowa": 7542,
      "mera": 7543,
      "▁stopnia": 7544,
      "▁Rozporządzenie": 7545,
      "pina": 7546,
      "▁legen": 7547,
      "▁większej": 7548,
      "▁drogą": 7549,
      "▁proc.\n": 7550,
      "dzonego": 7551,
      "▁inżynie": 7552,
      "▁trybie": 7553,
      "▁zdzi": 7554,
      "▁Galaxy": 7555,
      "▁rządzą": 7556,
      "▁filmy": 7557,
      "▁płatności": 7558,
      "▁Życiory": 7559,
      "▁samą": 7560,
      "stwa,": 7561,
      "▁Zwy": 7562,
      "▁nieba": 7563,
      "osob": 7564,
      "▁nieszczę": 7565,
      "▁handlu": 7566,
      "▁rzadko": 7567,
      "stia": 7568,
      "wart": 7569,
      "▁Szu": 7570,
      "ństwem": 7571,
      "▁wyżej": 7572,
      "▁ucho": 7573,
      "▁żona": 7574,
      "▁najlepszych": 7575,
      "▁członkiem": 7576,
      "▁Zi": 7577,
      "nież": 7578,
      "mana": 7579,
      "▁skompli": 7580,
      "nięciu": 7581,
      "▁danej": 7582,
      "▁umowa": 7583,
      "▁Cel": 7584,
      "▁Katarzyna": 7585,
      "rei": 7586,
      "▁pojęcia": 7587,
      "▁zawoła": 7588,
      "▁zwol": 7589,
      "▁ludzi\n": 7590,
      "▁długości": 7591,
      "▁szep": 7592,
      "▁Spół": 7593,
      "łu\n": 7594,
      "dnik": 7595,
      "▁rynk": 7596,
      "▁strefy": 7597,
      "owało": 7598,
      "▁men": 7599,
      "zją": 7600,
      "▁nomina": 7601,
      ".20": 7602,
      "▁Wielka": 7603,
      "use": 7604,
      "▁wam": 7605,
      "lować": 7606,
      "▁egzeku": 7607,
      "ata": 7608,
      "▁maju": 7609,
      "▁charakterze": 7610,
      "pływ": 7611,
      "▁źródła": 7612,
      "cieka": 7613,
      "▁kupu": 7614,
      "▁uzyskać": 7615,
      "zach": 7616,
      "▁budowę": 7617,
      "▁nienawi": 7618,
      "▁ścież": 7619,
      "▁węgla": 7620,
      "▁dobrze,": 7621,
      "noś": 7622,
      "▁party": 7623,
      "prawdopodob": 7624,
      "▁dwudzie": 7625,
      "czył,": 7626,
      "▁podobne": 7627,
      "owaniem": 7628,
      "▁przewidzia": 7629,
      "OT": 7630,
      "▁przewidy": 7631,
      "▁czymś": 7632,
      "▁wydatków": 7633,
      "▁mm": 7634,
      "▁Morawie": 7635,
      "▁sposobu": 7636,
      "/201": 7637,
      "▁pewnego": 7638,
      "▁przestrzega": 7639,
      "▁Życiorys\n": 7640,
      "▁1989": 7641,
      "pliwie": 7642,
      "dzają": 7643,
      ".\"\n": 7644,
      "▁zagrożenia": 7645,
      "▁zarząd": 7646,
      "walu": 7647,
      "▁powietrze": 7648,
      "▁Peter": 7649,
      "rio": 7650,
      "▁wydanie": 7651,
      "▁Bri": 7652,
      "▁fanta": 7653,
      "▁zadania": 7654,
      "▁Barce": 7655,
      "▁Przykład": 7656,
      "▁Sejmu": 7657,
      "▁krok": 7658,
      "▁zrobił": 7659,
      "-01\n": 7660,
      "▁woli": 7661,
      "lf": 7662,
      "76": 7663,
      "▁zatwier": 7664,
      "ned": 7665,
      "▁krew": 7666,
      "▁AM": 7667,
      "▁wybrać": 7668,
      "▁ci,": 7669,
      "▁hrab": 7670,
      "siębior": 7671,
      "ń.\n": 7672,
      "▁przysługuje": 7673,
      "▁Mikoła": 7674,
      "▁Ża": 7675,
      "▁mężczyzn": 7676,
      "dłem": 7677,
      "łe,": 7678,
      "dzenie,": 7679,
      "▁głównych": 7680,
      "▁następujące": 7681,
      "▁spy": 7682,
      "leniu": 7683,
      "▁Warszawy": 7684,
      "▁oddział": 7685,
      "▁Igrzy": 7686,
      "▁olbrzy": 7687,
      "chów": 7688,
      "rodę": 7689,
      "▁odzna": 7690,
      "brew": 7691,
      "sbur": 7692,
      "▁droga": 7693,
      "▁powstał": 7694,
      "▁Akademii": 7695,
      "▁elektro": 7696,
      "▁Paw": 7697,
      "▁chmu": 7698,
      "▁Sła": 7699,
      "__": 7700,
      "int": 7701,
      "▁odez": 7702,
      "nionego": 7703,
      "▁1994": 7704,
      "OL": 7705,
      "▁najbliższych": 7706,
      "▁zmianę": 7707,
      "▁Brazy": 7708,
      "▁strategi": 7709,
      "▁bezpieczeństwo": 7710,
      "18": 7711,
      "▁\"Ma": 7712,
      "▁słabo": 7713,
      "23": 7714,
      "▁rakie": 7715,
      "▁opóź": 7716,
      "▁Boga": 7717,
      "▁kwartale": 7718,
      "gon": 7719,
      "▁inspe": 7720,
      "ńców": 7721,
      "▁oszczędności": 7722,
      "▁kryzys": 7723,
      "AK": 7724,
      "▁Naz": 7725,
      "▁dziedzinie": 7726,
      "▁Die": 7727,
      "▁64": 7728,
      "▁wyborów": 7729,
      "▁Były": 7730,
      "▁producenta": 7731,
      "▁alterna": 7732,
      "▁skorzystać": 7733,
      "▁momentu": 7734,
      "▁vi": 7735,
      "▁różni": 7736,
      "▁byłby": 7737,
      "▁chor": 7738,
      "owcy": 7739,
      "▁Posta": 7740,
      "▁leżą": 7741,
      "▁czerwcu": 7742,
      "sper": 7743,
      "▁kraje": 7744,
      "▁koło": 7745,
      "▁moment": 7746,
      "matu": 7747,
      "▁informowa": 7748,
      "▁mediach": 7749,
      "pora": 7750,
      "▁nasta": 7751,
      "▁lista": 7752,
      "rym": 7753,
      "-u": 7754,
      "▁uj": 7755,
      "▁dostosowa": 7756,
      "▁spółek": 7757,
      "▁Eu": 7758,
      "▁oczu": 7759,
      "▁Projekt": 7760,
      "▁ulicy": 7761,
      "▁filmie": 7762,
      "73": 7763,
      "▁początek": 7764,
      "▁swą": 7765,
      "woju": 7766,
      "▁ranki": 7767,
      "▁przeję": 7768,
      "czych,": 7769,
      "▁szereg": 7770,
      "▁ścią": 7771,
      "mami": 7772,
      "▁zadebiu": 7773,
      "▁odsło": 7774,
      "▁wykorzystać": 7775,
      "▁Proszę": 7776,
      "▁połowy": 7777,
      "▁akt": 7778,
      "▁PG": 7779,
      "▁(zm\n": 7780,
      "chu,": 7781,
      "▁mle": 7782,
      "▁\"U": 7783,
      "ownicy": 7784,
      "▁To,": 7785,
      "▁sprawia,": 7786,
      "cyjne,": 7787,
      "ATO": 7788,
      "▁niezależnie": 7789,
      "▁Dodatkowo": 7790,
      "▁hiszpa": 7791,
      "▁1996": 7792,
      "kien": 7793,
      "▁Com": 7794,
      "▁człowieka,": 7795,
      "▁8,": 7796,
      "czną,": 7797,
      "tive": 7798,
      "▁język": 7799,
      "ńskiego\n": 7800,
      "dego": 7801,
      "▁Nagro": 7802,
      "▁planu": 7803,
      "imna": 7804,
      "▁tożsa": 7805,
      "▁set": 7806,
      "▁przechowy": 7807,
      "orąc": 7808,
      "▁uważa,": 7809,
      ".00": 7810,
      "▁zmę": 7811,
      "▁miesiące": 7812,
      "▁zaata": 7813,
      "▁are": 7814,
      "▁profesor": 7815,
      "st\n": 7816,
      "ż,": 7817,
      "bach": 7818,
      "ek,": 7819,
      "zmem": 7820,
      "▁odwa": 7821,
      "cą\n": 7822,
      "▁zielo": 7823,
      "▁produktu": 7824,
      "▁źródeł": 7825,
      "▁Oznacza": 7826,
      "▁przedsięwzię": 7827,
      "▁odległości": 7828,
      "gal": 7829,
      "▁transportu": 7830,
      "▁rejo": 7831,
      "▁Stre": 7832,
      "▁Czło": 7833,
      "▁nasza": 7834,
      "▁zwrócić": 7835,
      "▁Część": 7836,
      "▁świata,": 7837,
      "▁Mężczy": 7838,
      "▁zwolen": 7839,
      "▁1939": 7840,
      "▁koście": 7841,
      "▁dokumentu": 7842,
      "▁zysku": 7843,
      "▁wielkich": 7844,
      "nald": 7845,
      "▁koszt": 7846,
      "▁pociąg": 7847,
      "cę,": 7848,
      "ps": 7849,
      "o\n": 7850,
      "▁łatwiej": 7851,
      "▁poby": 7852,
      "▁Ska": 7853,
      "▁kwalifika": 7854,
      "▁znakomi": 7855,
      "▁Samsung": 7856,
      "▁dawna": 7857,
      "nego.\n": 7858,
      "loka": 7859,
      "▁mediów": 7860,
      "▁młod": 7861,
      "▁ekspery": 7862,
      "ls": 7863,
      "▁nie,": 7864,
      "▁Is": 7865,
      "▁Obywatel": 7866,
      "▁finansowych": 7867,
      "▁Dwa": 7868,
      "myśli": 7869,
      "ownictwa": 7870,
      "▁Bal": 7871,
      "dziesię": 7872,
      "▁programie": 7873,
      "▁Rea": 7874,
      "dem,": 7875,
      "74": 7876,
      "tek\n": 7877,
      "▁przypomnia": 7878,
      "stów,": 7879,
      "▁zabrak": 7880,
      "▁wydał": 7881,
      "▁ZSRR": 7882,
      "▁tamtej": 7883,
      "mości": 7884,
      "▁wysił": 7885,
      "▁chcesz": 7886,
      "conych": 7887,
      "▁nich,": 7888,
      "▁twierdzi": 7889,
      "▁zamyka": 7890,
      "eli": 7891,
      "czyć,": 7892,
      "▁Er": 7893,
      "▁pała": 7894,
      "▁świado": 7895,
      "owskim": 7896,
      "▁stąd": 7897,
      "▁Właśnie": 7898,
      "▁pozycję": 7899,
      "▁strzela": 7900,
      "▁odmówi": 7901,
      "▁zachowanie": 7902,
      "▁zachodni": 7903,
      "▁transpor": 7904,
      "▁ub": 7905,
      "▁Wystar": 7906,
      "▁wybi": 7907,
      "▁sześciu": 7908,
      "nowania": 7909,
      "GB": 7910,
      "▁Oli": 7911,
      "▁\"o": 7912,
      "▁fu": 7913,
      "▁średniej": 7914,
      "póki": 7915,
      "▁netto": 7916,
      "-A": 7917,
      "▁pamiętać,": 7918,
      "komunika": 7919,
      "▁miarę": 7920,
      "▁ratu": 7921,
      "▁Auto": 7922,
      "▁sztuki": 7923,
      "▁Plo": 7924,
      "mac": 7925,
      "▁aktuali": 7926,
      "▁10\n": 7927,
      "▁Najlep": 7928,
      "▁widzia": 7929,
      "▁von": 7930,
      "▁aka": 7931,
      "▁Gwia": 7932,
      "▁ubo": 7933,
      "▁Powi": 7934,
      "▁odpowiednie": 7935,
      "▁stopy": 7936,
      "▁obywateli": 7937,
      "▁formu": 7938,
      "rzyło": 7939,
      "owskich": 7940,
      "towarzy": 7941,
      "▁zapewnić": 7942,
      "63": 7943,
      "▁grudniu": 7944,
      "dowym": 7945,
      "ZENIE": 7946,
      "jące,": 7947,
      "▁los": 7948,
      "kur": 7949,
      "▁modli": 7950,
      "▁zastosowanie": 7951,
      "▁dobrym": 7952,
      "▁wor": 7953,
      "metry": 7954,
      "szczone": 7955,
      "▁ofiar": 7956,
      "EL": 7957,
      "▁jednoli": 7958,
      "▁go,": 7959,
      "▁konserwa": 7960,
      "▁doświadczenia": 7961,
      "▁1,5": 7962,
      "▁Cla": 7963,
      "dę,": 7964,
      "▁żar": 7965,
      "usa": 7966,
      "jusz": 7967,
      "▁\"na": 7968,
      "▁przeci": 7969,
      "▁zm": 7970,
      "dać,": 7971,
      "▁pacjentów": 7972,
      "▁studi": 7973,
      "▁Wiadomości\n": 7974,
      "▁sąsie": 7975,
      "▁dyrektora": 7976,
      "żon": 7977,
      "▁syna": 7978,
      "▁lider": 7979,
      "▁styczniu": 7980,
      "▁zdu": 7981,
      "▁spośród": 7982,
      "▁kła": 7983,
      "sso": 7984,
      "▁Stanów": 7985,
      "▁koszu": 7986,
      "▁popu": 7987,
      "stości": 7988,
      "by\n": 7989,
      "▁przechodzi": 7990,
      "▁Firma": 7991,
      "▁Zdrowia": 7992,
      "▁boj": 7993,
      "▁waha": 7994,
      "▁dziesięć": 7995,
      "▁Urzędu": 7996,
      "▁trzydzie": 7997,
      "dy.\n": 7998,
      "▁powinniśmy": 7999,
      "▁praktyce": 8000,
      "▁Obro": 8001,
      "piec": 8002,
      "jor": 8003,
      "▁źle": 8004,
      "torze": 8005,
      "tli": 8006,
      "82": 8007,
      "▁wst": 8008,
      "ra.\n": 8009,
      "▁Emi": 8010,
      "cha,": 8011,
      "▁Klu": 8012,
      "CI": 8013,
      "▁chwy": 8014,
      "ografi": 8015,
      "▁mając": 8016,
      "▁nerw": 8017,
      "▁służy": 8018,
      "▁Białorusi": 8019,
      "▁koryta": 8020,
      "▁pełne": 8021,
      "▁rodziców": 8022,
      "▁główny": 8023,
      "prawdzie": 8024,
      "▁zatrudnia": 8025,
      "▁ciężko": 8026,
      "NA": 8027,
      "▁referen": 8028,
      "▁zabój": 8029,
      "C,": 8030,
      "▁pytanie,": 8031,
      "▁radio": 8032,
      "ować,": 8033,
      "▁języku": 8034,
      "▁kompeten": 8035,
      "▁Ustawa": 8036,
      "tyma": 8037,
      "▁obowiązków": 8038,
      "▁cenę": 8039,
      "▁(R": 8040,
      "▁przychodzi": 8041,
      "chwy": 8042,
      "▁syste": 8043,
      "▁badaw": 8044,
      "pion": 8045,
      "▁6)": 8046,
      "▁największe": 8047,
      "▁Arty": 8048,
      "▁armii": 8049,
      "▁niemiecki": 8050,
      "▁staw": 8051,
      "▁wokali": 8052,
      "▁pilo": 8053,
      "ram": 8054,
      "ĄD": 8055,
      "▁ludź": 8056,
      "vel": 8057,
      "▁(I": 8058,
      "no.\n": 8059,
      "▁właściciel": 8060,
      "jne": 8061,
      "▁Festi": 8062,
      "kreś": 8063,
      "▁Michael": 8064,
      "żki": 8065,
      "▁Czerwo": 8066,
      "▁postępowanie": 8067,
      "▁weeken": 8068,
      "▁c)": 8069,
      "towana": 8070,
      "▁Zmiany": 8071,
      "▁Europejskiego": 8072,
      "▁zwrócił": 8073,
      "▁Brukse": 8074,
      "▁ojczy": 8075,
      "▁ówczes": 8076,
      "▁założo": 8077,
      "▁face": 8078,
      "że,": 8079,
      "fan": 8080,
      "▁ben": 8081,
      "▁wpływa": 8082,
      "▁statku": 8083,
      "źnie": 8084,
      "▁przeby": 8085,
      "▁wziął": 8086,
      "▁miesiącu": 8087,
      "%\n": 8088,
      "▁Łą": 8089,
      "re\n": 8090,
      "▁odnoś": 8091,
      "pii": 8092,
      "▁wielkiego": 8093,
      "▁ręka": 8094,
      "tniej": 8095,
      "▁Nowym": 8096,
      "▁profesjona": 8097,
      "cena": 8098,
      "17": 8099,
      "▁resor": 8100,
      "▁rent": 8101,
      "▁NATO": 8102,
      "▁Magda": 8103,
      "▁Kościoła": 8104,
      "▁serialu": 8105,
      "▁odnale": 8106,
      "▁historię": 8107,
      "▁Vo": 8108,
      "st,": 8109,
      "▁japo": 8110,
      "▁tj\n": 8111,
      "▁bry": 8112,
      "▁powięk": 8113,
      "sche": 8114,
      "b,": 8115,
      "▁środku": 8116,
      "ÓW": 8117,
      "wyczaj": 8118,
      "wie\n": 8119,
      "UR": 8120,
      "stępuje": 8121,
      "▁wyników": 8122,
      "mian": 8123,
      "jscy": 8124,
      "▁grę": 8125,
      "▁ambasa": 8126,
      "▁pojazdów": 8127,
      "ni.\n": 8128,
      "fal": 8129,
      "▁zakres": 8130,
      "▁niemożli": 8131,
      "tę\n": 8132,
      "▁Fin": 8133,
      "▁(B": 8134,
      "▁sekund": 8135,
      "▁spyta": 8136,
      "ntro": 8137,
      "▁okrą": 8138,
      "▁wszech": 8139,
      "▁Powo": 8140,
      "▁miejsce\n": 8141,
      "tów.\n": 8142,
      "▁posłu": 8143,
      "dę\n": 8144,
      "▁ziemię": 8145,
      "▁rat": 8146,
      "kowanych": 8147,
      "▁Rober": 8148,
      "czna\n": 8149,
      "▁HD": 8150,
      "▁Rozdział": 8151,
      "▁gospoda": 8152,
      "ierę": 8153,
      "▁der": 8154,
      "▁Radzie": 8155,
      "▁wyjątkowo": 8156,
      "▁przerwa": 8157,
      "dnym": 8158,
      "▁roman": 8159,
      "▁szczegó": 8160,
      "▁rozdziel": 8161,
      "▁członek": 8162,
      "▁Zawsze": 8163,
      "▁niepodleg": 8164,
      "▁wiatr": 8165,
      "▁debiu": 8166,
      "▁zezna": 8167,
      "▁integra": 8168,
      "▁mary": 8169,
      "▁Poja": 8170,
      "▁odniesieniu": 8171,
      "niania": 8172,
      "▁półno": 8173,
      "▁końc": 8174,
      "las": 8175,
      "▁1945": 8176,
      "▁programów": 8177,
      "czący": 8178,
      "▁materiał": 8179,
      "▁con": 8180,
      "▁spodziewa": 8181,
      "▁Europe": 8182,
      "▁skutek": 8183,
      "nior": 8184,
      "niają": 8185,
      "▁finansowe": 8186,
      "▁danym": 8187,
      "▁zgody": 8188,
      "▁MIN": 8189,
      "▁Myślę,": 8190,
      "czoną": 8191,
      "▁najlepszy": 8192,
      "▁okazuje": 8193,
      "▁przewiduje": 8194,
      "▁Komu": 8195,
      "dnej": 8196,
      "▁ró": 8197,
      "▁sukces": 8198,
      "▁rej": 8199,
      "owskiej": 8200,
      "▁rozważa": 8201,
      "▁potęż": 8202,
      "▁idą": 8203,
      "▁majątku": 8204,
      "▁finan": 8205,
      "▁Życie": 8206,
      "▁funkcjonariu": 8207,
      "▁eki": 8208,
      "▁9\n": 8209,
      "44": 8210,
      "▁Tho": 8211,
      "-R": 8212,
      "▁funduszu": 8213,
      "tyk": 8214,
      ");\n": 8215,
      "▁zbo": 8216,
      "▁Ani": 8217,
      "ste,": 8218,
      "rzona": 8219,
      "▁kilkanaście": 8220,
      "▁klę": 8221,
      "▁wczes": 8222,
      "▁serwis": 8223,
      "▁stosować": 8224,
      "▁mnó": 8225,
      "str": 8226,
      "▁Macie": 8227,
      "▁rzeczy,": 8228,
      "blo": 8229,
      "pisów": 8230,
      "▁Kaczyński": 8231,
      "▁kogoś": 8232,
      "łyby": 8233,
      "▁liczne": 8234,
      "wski,": 8235,
      "▁tka": 8236,
      "▁wiem": 8237,
      "▁oferuje": 8238,
      "termin": 8239,
      "▁uko": 8240,
      "▁opłaca": 8241,
      "lena": 8242,
      ".5": 8243,
      "▁tury": 8244,
      "▁praktycznie": 8245,
      "▁Jen": 8246,
      "dge": 8247,
      "▁Człowie": 8248,
      "▁Order": 8249,
      "▁gła": 8250,
      "▁rozumieniu": 8251,
      "▁korzyści": 8252,
      "▁wpływu": 8253,
      "boga": 8254,
      "▁pomieszcze": 8255,
      "E\n": 8256,
      "▁wrześniu": 8257,
      "▁planuje": 8258,
      "łowi": 8259,
      "33": 8260,
      "▁Później": 8261,
      "ies": 8262,
      "▁leży": 8263,
      "▁ogni": 8264,
      "▁przedsiębiorców": 8265,
      "▁Rozwoju": 8266,
      "▁Andrzeja": 8267,
      "▁Olimpij": 8268,
      "▁zdolności": 8269,
      "▁praktycz": 8270,
      "▁<link>": 8271,
      "słowie": 8272,
      "nionym": 8273,
      "▁akcep": 8274,
      "dka": 8275,
      "nnym": 8276,
      "▁ulu": 8277,
      "▁Pyta": 8278,
      "▁mieszkania": 8279,
      "▁Świata": 8280,
      "▁postanowił": 8281,
      "▁filmów": 8282,
      "kło": 8283,
      "▁decyzje": 8284,
      "▁Danie": 8285,
      "lnej,": 8286,
      "▁miesiącach": 8287,
      "▁coś,": 8288,
      "▁jakość": 8289,
      "▁problemu": 8290,
      "[/b]\n": 8291,
      "▁Blu": 8292,
      "▁odbędzie": 8293,
      "▁cieszy": 8294,
      "▁lipcu": 8295,
      "▁1000": 8296,
      "▁niepew": 8297,
      "▁Chociaż": 8298,
      "▁Norwe": 8299,
      "▁mru": 8300,
      "▁Jednym": 8301,
      "▁odbiera": 8302,
      "tyczna": 8303,
      "rost": 8304,
      "By": 8305,
      "dzwo": 8306,
      "▁przetar": 8307,
      "▁mówi,": 8308,
      "▁George": 8309,
      "terii": 8310,
      "▁nadzoru": 8311,
      "▁bliżej": 8312,
      "▁bym": 8313,
      "▁Józef": 8314,
      "▁wrócił": 8315,
      "OM": 8316,
      "67": 8317,
      "▁wiedział,": 8318,
      "▁ostatniego": 8319,
      "tkę": 8320,
      "▁Pen": 8321,
      "▁lepsze": 8322,
      "▁konieczność": 8323,
      "▁Air": 8324,
      "▁niestety": 8325,
      "▁imi": 8326,
      "▁Grzegorz": 8327,
      "▁najszyb": 8328,
      "▁podatek": 8329,
      "cza\n": 8330,
      "▁wszedł": 8331,
      "▁wymienia": 8332,
      "▁ow": 8333,
      "▁faktycznie": 8334,
      "▁1995": 8335,
      "▁wojska": 8336,
      "stecz": 8337,
      "danie": 8338,
      "ując": 8339,
      "▁izo": 8340,
      "▁inspi": 8341,
      "▁W\n": 8342,
      "▁(N": 8343,
      "▁et": 8344,
      "▁europejskich": 8345,
      "▁Af": 8346,
      "DZ": 8347,
      "kurat": 8348,
      "▁proszę": 8349,
      "mara": 8350,
      "przewo": 8351,
      "ica": 8352,
      "▁jakąś": 8353,
      "▁dobrej": 8354,
      "▁zaczęły": 8355,
      "68": 8356,
      "▁Inspe": 8357,
      "▁Rich": 8358,
      "▁sprzyja": 8359,
      "czą,": 8360,
      "zempla": 8361,
      "▁zalicza": 8362,
      "▁euro\n": 8363,
      "▁zachęca": 8364,
      "▁znalazła": 8365,
      "▁skrę": 8366,
      "ist": 8367,
      "dziemy": 8368,
      "bin": 8369,
      "fikacja": 8370,
      "▁nazwy": 8371,
      "▁kodek": 8372,
      "▁operacji": 8373,
      "zny": 8374,
      "▁podejmowa": 8375,
      "zor": 8376,
      "▁wład": 8377,
      "lii,": 8378,
      "▁słysza": 8379,
      "▁Decy": 8380,
      "▁sprzed": 8381,
      "▁przeszedł": 8382,
      "▁uczestników": 8383,
      "▁najważniejszych": 8384,
      "▁Muzeum": 8385,
      "▁Ver": 8386,
      "▁pojawiła": 8387,
      "dago": 8388,
      "▁kalenda": 8389,
      "▁zwrotu": 8390,
      "▁kol": 8391,
      "han": 8392,
      "ruje": 8393,
      "stwa\n": 8394,
      "▁rzeź": 8395,
      "▁czas,": 8396,
      "OP": 8397,
      "▁morder": 8398,
      "▁królew": 8399,
      "▁spytał": 8400,
      "▁wybory": 8401,
      "▁kupi": 8402,
      "niejszą": 8403,
      "▁ambi": 8404,
      "▁jakoś": 8405,
      "▁mieszkani": 8406,
      "▁swoimi": 8407,
      "▁powstrzyma": 8408,
      "▁wymo": 8409,
      "▁48": 8410,
      "▁związany": 8411,
      "sk,": 8412,
      "19": 8413,
      "▁rozmia": 8414,
      "▁pracownicy": 8415,
      "▁1992": 8416,
      "▁Lan": 8417,
      "▁Berli": 8418,
      "▁drewnia": 8419,
      "▁rośnie": 8420,
      "1)": 8421,
      "▁walce": 8422,
      "▁dobrą": 8423,
      "▁wydatki": 8424,
      "▁samochodu": 8425,
      "▁oczach": 8426,
      "ds": 8427,
      "▁świade": 8428,
      "▁zarządzania": 8429,
      "▁tale": 8430,
      "▁Chcę": 8431,
      "▁jezio": 8432,
      "▁etapie": 8433,
      "▁przyci": 8434,
      "gii,": 8435,
      "▁uję": 8436,
      "▁największym": 8437,
      "▁miejsce,": 8438,
      "▁Instytutu": 8439,
      "▁słone": 8440,
      "▁listę": 8441,
      "▁(L": 8442,
      "▁demon": 8443,
      "lnymi": 8444,
      "▁koali": 8445,
      "▁Ant": 8446,
      "▁rozsta": 8447,
      "▁porów": 8448,
      "bela": 8449,
      "▁tymczas": 8450,
      "▁bezpośredni": 8451,
      "▁potrzebuje": 8452,
      "▁regionie": 8453,
      "▁było,": 8454,
      ".4": 8455,
      "▁propa": 8456,
      ".P": 8457,
      "▁miliona": 8458,
      "▁kredyt": 8459,
      "kres": 8460,
      "▁Lea": 8461,
      "chy,": 8462,
      "▁pojawiają": 8463,
      "▁kontrower": 8464,
      "▁narze": 8465,
      "▁Bezpie": 8466,
      "▁zakupu": 8467,
      "▁Jack": 8468,
      "owego.\n": 8469,
      "▁każdą": 8470,
      "WA": 8471,
      "▁Wscho": 8472,
      "▁egzempla": 8473,
      "▁wypłaca": 8474,
      "▁wiedzia": 8475,
      "▁Mateusz": 8476,
      "tłuma": 8477,
      "▁wyszu": 8478,
      "▁turnieju": 8479,
      "▁spojrzał": 8480,
      "▁prawem": 8481,
      "▁zatrudnienia": 8482,
      "▁producen": 8483,
      "▁postępowa": 8484,
      "▁Pawła": 8485,
      "▁rozgrywa": 8486,
      "zowie": 8487,
      "▁żyje": 8488,
      "tycznym": 8489,
      "▁jaz": 8490,
      "czenie\n": 8491,
      "▁rodzina": 8492,
      "▁odpor": 8493,
      "▁postu": 8494,
      "tia": 8495,
      "▁mówiąc": 8496,
      "▁jazdy": 8497,
      "tyfikowa": 8498,
      "▁PL": 8499,
      "▁180": 8500,
      "▁Wydaw": 8501,
      "▁Sztu": 8502,
      "▁powrotem": 8503,
      "ło.\n": 8504,
      "▁Gor": 8505,
      "▁patrzą": 8506,
      "▁przemo": 8507,
      "▁album": 8508,
      "▁Bli": 8509,
      "SA": 8510,
      "▁Stowarzy": 8511,
      "lny,": 8512,
      "▁podstawy": 8513,
      "▁mi,": 8514,
      "▁dodatkowych": 8515,
      "wiać": 8516,
      "▁rozstrzyg": 8517,
      "x,": 8518,
      "▁drzwia": 8519,
      "▁zasadach": 8520,
      "▁VI": 8521,
      "▁Sha": 8522,
      "▁złożo": 8523,
      "▁obejmu": 8524,
      "▁uleg": 8525,
      "▁dyspozy": 8526,
      "▁Wojewódz": 8527,
      "psu": 8528,
      "▁Ile": 8529,
      "▁Mieszka": 8530,
      "▁Świą": 8531,
      "x\n": 8532,
      "▁rano": 8533,
      "▁bibliote": 8534,
      "▁widział": 8535,
      "▁powrót": 8536,
      "▁iPhone": 8537,
      "▁pomimo": 8538,
      "▁natury": 8539,
      "dował": 8540,
      "▁pracować": 8541,
      "▁Skarb": 8542,
      "▁przyszłym": 8543,
      "▁świąty": 8544,
      "▁wytrzyma": 8545,
      "▁kosmi": 8546,
      "lli": 8547,
      "▁Chrystu": 8548,
      "▁korzystania": 8549,
      "▁radzie": 8550,
      "▁Banku": 8551,
      "tforma": 8552,
      "sort": 8553,
      "▁World": 8554,
      "▁inną": 8555,
      "▁chętnie": 8556,
      "tent": 8557,
      "▁|e": 8558,
      "▁Taki": 8559,
      "on\n": 8560,
      "▁strza": 8561,
      "▁składek": 8562,
      "▁mg": 8563,
      "▁urlopu": 8564,
      "▁Przedsiębior": 8565,
      "▁Portu": 8566,
      "dri": 8567,
      "▁kontekście": 8568,
      "▁zasila": 8569,
      "▁wielkiej": 8570,
      "cyjnych\n": 8571,
      "▁dodatku": 8572,
      "▁wiedzieć": 8573,
      "▁zarob": 8574,
      "liście": 8575,
      "▁życi": 8576,
      "lti": 8577,
      "▁Kro": 8578,
      "▁cmenta": 8579,
      "ckiego,": 8580,
      "▁swym": 8581,
      "▁39": 8582,
      "dgo": 8583,
      "▁systemów": 8584,
      "▁najlepsze": 8585,
      "▁granic": 8586,
      "wiona": 8587,
      "nkowo": 8588,
      "wiają": 8589,
      "my.\n": 8590,
      "▁przetwarza": 8591,
      "▁impor": 8592,
      "▁ref": 8593,
      "▁(i": 8594,
      "▁brzu": 8595,
      "▁listopa": 8596,
      "▁obowiąza": 8597,
      "▁producentów": 8598,
      "gue": 8599,
      "cono": 8600,
      "▁Hy": 8601,
      "▁mate": 8602,
      "▁jeź": 8603,
      "▁wyga": 8604,
      "▁Dra": 8605,
      "ie,": 8606,
      "▁imieniu": 8607,
      "▁1975": 8608,
      "▁wdro": 8609,
      "zy\n": 8610,
      "▁funduszy": 8611,
      "▁wód": 8612,
      "czno": 8613,
      "▁wzrosła": 8614,
      "ture": 8615,
      "sarz": 8616,
      "▁wyjaśni": 8617,
      "▁utrzy": 8618,
      "▁pandemii": 8619,
      "▁poczucie": 8620,
      "▁Mona": 8621,
      "▁Zam": 8622,
      "▁paliw": 8623,
      "▁przedstawiciele": 8624,
      "▁krak": 8625,
      "▁ostrzega": 8626,
      "▁skró": 8627,
      "kie,": 8628,
      "▁budżet": 8629,
      "kiedy": 8630,
      "S\n": 8631,
      "dii": 8632,
      "▁powstała": 8633,
      "▁wyroku": 8634,
      "▁jakimś": 8635,
      "▁Tusk": 8636,
      "▁9,": 8637,
      "dan": 8638,
      "▁wypowiedzi": 8639,
      "obój": 8640,
      "▁przyczyn": 8641,
      "▁aku": 8642,
      "▁Kami": 8643,
      "▁podał": 8644,
      "▁Paryżu": 8645,
      "lał": 8646,
      "▁mówiła": 8647,
      "▁Ama": 8648,
      "owskie": 8649,
      "▁wpływem": 8650,
      "xi": 8651,
      "▁podmiot": 8652,
      "▁problemem": 8653,
      "▁autobu": 8654,
      "▁Donald": 8655,
      "fel": 8656,
      "▁Dziennik": 8657,
      "▁\"u": 8658,
      "▁organów": 8659,
      "▁brzmienie:": 8660,
      "78": 8661,
      "▁najpo": 8662,
      "▁(4": 8663,
      "owanego": 8664,
      "▁adres": 8665,
      "▁Sejm": 8666,
      "ZĄD": 8667,
      "▁tylko,": 8668,
      "▁czele": 8669,
      "▁złama": 8670,
      "▁Niemie": 8671,
      "▁kompa": 8672,
      "▁zama": 8673,
      "ben": 8674,
      "▁tegoro": 8675,
      "▁\"Ch": 8676,
      "▁występują": 8677,
      "▁Licz": 8678,
      "▁wyjścia": 8679,
      "▁świetnie": 8680,
      "▁\"Ga": 8681,
      "▁produkcja": 8682,
      "▁wpa": 8683,
      "tnik": 8684,
      "▁szo": 8685,
      "▁tygodnie": 8686,
      "▁precy": 8687,
      "▁bierze": 8688,
      "▁Krakowie": 8689,
      "koma": 8690,
      "▁społecznej": 8691,
      "▁soli": 8692,
      "▁rozry": 8693,
      "promi": 8694,
      "kami\n": 8695,
      "▁wytwór": 8696,
      "fona": 8697,
      "▁Warszawie\n": 8698,
      "cjonu": 8699,
      "▁sędzia": 8700,
      "▁przywi": 8701,
      "zują,": 8702,
      "▁wstrzyma": 8703,
      "▁Niestety": 8704,
      "▁osiągnięcia": 8705,
      "niosły": 8706,
      "chu\n": 8707,
      "▁Szwajcar": 8708,
      "\")": 8709,
      "▁Drugi": 8710,
      "▁sprawę,": 8711,
      "▁przedstawicieli": 8712,
      "▁Plus": 8713,
      "cznym\n": 8714,
      "U\n": 8715,
      "świę": 8716,
      "nili": 8717,
      "▁niewi": 8718,
      "62": 8719,
      "▁\"wy": 8720,
      "▁żydow": 8721,
      "▁dwoma": 8722,
      "▁Przedsta": 8723,
      "▁Rosyj": 8724,
      "żegna": 8725,
      "▁Straży": 8726,
      "▁Kier": 8727,
      "▁czasami": 8728,
      "wei": 8729,
      "▁uchodź": 8730,
      "▁odpowiedzialność": 8731,
      "▁koresponden": 8732,
      "ownie": 8733,
      "▁Reprezen": 8734,
      "▁szanse": 8735,
      "▁p.": 8736,
      "▁należności": 8737,
      "▁Lecz": 8738,
      "▁doros": 8739,
      "▁wprowadzenia": 8740,
      "pta": 8741,
      "▁pragnie": 8742,
      "▁przew": 8743,
      "▁mody": 8744,
      "siad": 8745,
      "▁1993": 8746,
      "32": 8747,
      "trio": 8748,
      "▁podatkowy": 8749,
      "▁macierzy": 8750,
      "▁wzor": 8751,
      "▁seg": 8752,
      "▁ryzyka": 8753,
      "źnia": 8754,
      "▁Techno": 8755,
      "▁Ministerstwa": 8756,
      "▁zwycięstwo": 8757,
      "▁łańcu": 8758,
      "▁proś": 8759,
      "yo": 8760,
      "ną.\n": 8761,
      "lono": 8762,
      "nąłem": 8763,
      "nis": 8764,
      "▁twierdzi,": 8765,
      "pospolita": 8766,
      "samowi": 8767,
      "▁Uwa": 8768,
      "▁Miasta": 8769,
      "▁nosi": 8770,
      "▁Regi": 8771,
      "▁inwesto": 8772,
      "▁salo": 8773,
      "▁54": 8774,
      "bla": 8775,
      "▁Agnieszka": 8776,
      "owe.\n": 8777,
      "▁przypadków": 8778,
      "IK": 8779,
      "▁znajomy": 8780,
      "▁biegu": 8781,
      "owanej": 8782,
      "▁wątpliwości,": 8783,
      "▁Lw": 8784,
      "▁redu": 8785,
      "▁przepisami": 8786,
      "▁Instagra": 8787,
      "▁prawnych": 8788,
      "zować": 8789,
      "▁cicho": 8790,
      "▁dawno": 8791,
      "▁również,": 8792,
      "▁komunikacji": 8793,
      "jak": 8794,
      "▁majątk": 8795,
      "styczne": 8796,
      "skimi": 8797,
      "tus": 8798,
      "▁Właści": 8799,
      "dność": 8800,
      "▁patro": 8801,
      "lnia": 8802,
      "▁br": 8803,
      "▁miejscach": 8804,
      "▁brąz": 8805,
      "▁szukać": 8806,
      "GO": 8807,
      "▁przemie": 8808,
      "▁Wska": 8809,
      "▁uprawia": 8810,
      "owski\n": 8811,
      "▁zachow": 8812,
      "▁wrażenie": 8813,
      "▁Historia\n": 8814,
      "▁stwierdza": 8815,
      "ney": 8816,
      "▁Obo": 8817,
      "▁astro": 8818,
      "▁podatk": 8819,
      "▁trudności": 8820,
      "▁światło": 8821,
      "▁znajdziesz": 8822,
      "▁odnośniku": 8823,
      "▁powieści": 8824,
      "▁załącz": 8825,
      "py,": 8826,
      "▁opłat": 8827,
      "▁straci": 8828,
      "▁des": 8829,
      "▁archite": 8830,
      "▁spotkaniu": 8831,
      "kuję": 8832,
      "▁Cię": 8833,
      "▁(F": 8834,
      "▁Univer": 8835,
      "chia": 8836,
      "▁publicznego": 8837,
      "wło": 8838,
      "▁William": 8839,
      "▁tydzień": 8840,
      "▁zgłasza": 8841,
      "▁rejonie": 8842,
      "deracji": 8843,
      "▁utwor": 8844,
      "▁nadzwyczaj": 8845,
      "▁użytkownika": 8846,
      "▁słab": 8847,
      "▁włosy": 8848,
      "▁rozwiązań": 8849,
      "▁(E": 8850,
      "▁świecie,": 8851,
      "tny\n": 8852,
      "▁Augu": 8853,
      "▁stolicy": 8854,
      "▁projektów": 8855,
      "▁serce": 8856,
      "liny": 8857,
      "▁saty": 8858,
      "▁zdjęcie": 8859,
      "▁Albu": 8860,
      "▁październiku": 8861,
      "▁ogromne": 8862,
      "▁jedynym": 8863,
      "▁symboli": 8864,
      "teru": 8865,
      "▁obecność": 8866,
      "▁10,": 8867,
      "▁kurs": 8868,
      "lnego\n": 8869,
      "▁osobę": 8870,
      "▁\"Fa": 8871,
      "łgar": 8872,
      "tic": 8873,
      "▁łat": 8874,
      "▁zarazem": 8875,
      "▁Zawo": 8876,
      "▁wysu": 8877,
      "▁kilometrów": 8878,
      "rócić": 8879,
      "tre": 8880,
      "dek,": 8881,
      "▁Jakub": 8882,
      "zą": 8883,
      "▁firmę": 8884,
      "tyka\n": 8885,
      "ono": 8886,
      "▁zaska": 8887,
      "szonych": 8888,
      "▁organizacja": 8889,
      "▁Met": 8890,
      "▁Muzy": 8891,
      "▁analizy": 8892,
      "▁ubiega": 8893,
      "▁zgadza": 8894,
      "▁przesy": 8895,
      "▁wojna": 8896,
      "▁zapomnia": 8897,
      "▁Egip": 8898,
      "▁klasyfikacji": 8899,
      "▁mono": 8900,
      "▁ogólno": 8901,
      "▁dopa": 8902,
      "▁Króle": 8903,
      "▁przedsiębiorstw": 8904,
      "E,": 8905,
      "▁początkowo": 8906,
      "▁labo": 8907,
      "▁fal": 8908,
      "stość": 8909,
      "-F": 8910,
      "▁złotych\n": 8911,
      "▁audy": 8912,
      "▁transport": 8913,
      "▁zachować": 8914,
      "▁Pomo": 8915,
      "▁transfer": 8916,
      "▁największy": 8917,
      "▁kolejnym": 8918,
      "▁Red": 8919,
      "▁Che": 8920,
      "-19\n": 8921,
      "celarii": 8922,
      "▁zajęcia": 8923,
      "79": 8924,
      "▁mnóstwo": 8925,
      "▁ból": 8926,
      "▁85": 8927,
      "▁edukacji": 8928,
      "▁Koro": 8929,
      "żbie": 8930,
      "▁Platfor": 8931,
      "snął": 8932,
      "▁przedsiębiorcy": 8933,
      "▁stwierdził,": 8934,
      "▁znane": 8935,
      "▁wiedzą": 8936,
      "▁Fu": 8937,
      "▁projekty": 8938,
      "m.": 8939,
      "▁szer": 8940,
      "▁sprzęt": 8941,
      "wąt": 8942,
      "▁Dow": 8943,
      "▁zano": 8944,
      "fię": 8945,
      "his": 8946,
      "▁portalu": 8947,
      "knęła": 8948,
      "▁Lubli": 8949,
      "▁800": 8950,
      "▁wios": 8951,
      "▁tysiące": 8952,
      "nieniu": 8953,
      "▁kolum": 8954,
      "▁Taka": 8955,
      "▁Pierwsza": 8956,
      "▁przepisach": 8957,
      "▁Spor": 8958,
      "▁Jaki": 8959,
      "▁telefonu": 8960,
      "▁Pru": 8961,
      "▁wery": 8962,
      "▁fałszy": 8963,
      "▁podejrze": 8964,
      "▁przyjęcia": 8965,
      "▁ks\n": 8966,
      "żenia,": 8967,
      "▁spek": 8968,
      "▁kwietniu": 8969,
      "▁niechę": 8970,
      "▁zapobiega": 8971,
      "biegu": 8972,
      "▁ogół": 8973,
      "▁oficjalnie": 8974,
      "▁porządku": 8975,
      "▁Przepisy": 8976,
      "val": 8977,
      "▁przetr": 8978,
      "▁Niemczech": 8979,
      "▁przewodni": 8980,
      "▁niepra": 8981,
      "▁odbi": 8982,
      "▁łączy": 8983,
      "▁muzyki": 8984,
      "▁Janusz": 8985,
      "raźniej": 8986,
      "▁tworzenia": 8987,
      "pem": 8988,
      "▁Zarzą": 8989,
      "▁(G": 8990,
      "▁53": 8991,
      "▁uśmiech": 8992,
      "▁połączenia": 8993,
      "zmu,": 8994,
      "▁pada": 8995,
      "▁rodzice": 8996,
      "kin": 8997,
      "▁skutki": 8998,
      "▁rozwią": 8999,
      "▁wrócić": 9000,
      "zar": 9001,
      "żnej": 9002,
      "▁rezy": 9003,
      "▁podstawowych": 9004,
      "▁uzyskał": 9005,
      "▁wych": 9006,
      "dawcy": 9007,
      "▁Rumu": 9008,
      "▁Jesteśmy": 9009,
      "▁przygotowy": 9010,
      "▁straż": 9011,
      "▁złożenia": 9012,
      "▁księży": 9013,
      "▁wpisu": 9014,
      "▁większy": 9015,
      "▁czą": 9016,
      "▁figu": 9017,
      "▁zasob": 9018,
      "▁cudzo": 9019,
      "dą,": 9020,
      "▁kontrak": 9021,
      "▁wdzię": 9022,
      "niż": 9023,
      "▁Ochrony": 9024,
      "▁konieczne": 9025,
      "▁zaczęli": 9026,
      "stre": 9027,
      "genty": 9028,
      "▁Chło": 9029,
      "▁małżon": 9030,
      "▁powstanie": 9031,
      "cyjne\n": 9032,
      "▁Czas": 9033,
      "▁terminu": 9034,
      "▁najgor": 9035,
      "▁odpo": 9036,
      "▁cech": 9037,
      "▁iść": 9038,
      "▁Ukrainie": 9039,
      "niał": 9040,
      "▁środka": 9041,
      "▁Dyre": 9042,
      "▁PD": 9043,
      "tnie,": 9044,
      "▁niezbędne": 9045,
      "długo": 9046,
      "▁plany": 9047,
      "▁powietrz": 9048,
      "▁Rado": 9049,
      "▁Cóż": 9050,
      "▁Ger": 9051,
      "▁akurat": 9052,
      "▁biu": 9053,
      "▁zato": 9054,
      "▁Najpierw": 9055,
      "kiem.\n": 9056,
      "▁bezpła": 9057,
      "▁osiągnąć": 9058,
      "▁Tekst": 9059,
      "▁pozyska": 9060,
      "▁Hua": 9061,
      "▁departa": 9062,
      "mował": 9063,
      "▁życie\n": 9064,
      "▁Bogu": 9065,
      "rali": 9066,
      "▁dyrekty": 9067,
      "▁odnosi": 9068,
      "▁koronawirusa": 9069,
      "bina": 9070,
      "nując": 9071,
      "▁narzędzia": 9072,
      "▁dokumen": 9073,
      "▁zmierza": 9074,
      "▁cm": 9075,
      "▁Jose": 9076,
      "pomnij": 9077,
      "▁cio": 9078,
      "tą,": 9079,
      "ski.\n": 9080,
      "▁Pana": 9081,
      "szar": 9082,
      "▁straty": 9083,
      "▁licen": 9084,
      "cał": 9085,
      "▁koszy": 9086,
      "▁cyklu": 9087,
      "n.": 9088,
      "▁gabine": 9089,
      "▁zapłacić": 9090,
      "▁No,": 9091,
      "▁Sal": 9092,
      "▁męża": 9093,
      "▁zacznie": 9094,
      "▁sonda": 9095,
      "pał": 9096,
      "▁geo": 9097,
      "ptowa": 9098,
      "▁porozumienia": 9099,
      "▁komputera": 9100,
      "▁Prawa": 9101,
      "▁2,5": 9102,
      "▁show": 9103,
      "▁????": 9104,
      "▁maszyn": 9105,
      "▁Ewa": 9106,
      "▁libe": 9107,
      "▁uzbro": 9108,
      "kał": 9109,
      "▁41": 9110,
      "▁poto": 9111,
      "BC": 9112,
      "cial": 9113,
      "69": 9114,
      "▁parlamentar": 9115,
      "▁pasaże": 9116,
      "▁polityka": 9117,
      "▁jednozna": 9118,
      "▁zmniejsza": 9119,
      "▁wyku": 9120,
      "d.\n": 9121,
      "▁kryzysu": 9122,
      "▁ustawą": 9123,
      "▁śmia": 9124,
      "▁Pia": 9125,
      "▁nieja": 9126,
      "▁obrotu": 9127,
      "prowadza": 9128,
      "▁wiedzieć,": 9129,
      "wiera": 9130,
      "▁własności": 9131,
      "▁komentu": 9132,
      "28": 9133,
      "▁Azji": 9134,
      "▁MINIST": 9135,
      "szeniem": 9136,
      "\":": 9137,
      "▁Izby": 9138,
      "▁recep": 9139,
      "▁propo": 9140,
      "▁podzi": 9141,
      "▁SN": 9142,
      "▁ubiegłego": 9143,
      "czących": 9144,
      "▁lutym": 9145,
      "dzi\n": 9146,
      "▁Trump": 9147,
      "▁cechy": 9148,
      "▁sympa": 9149,
      "▁widok": 9150,
      "▁publicy": 9151,
      "▁usi": 9152,
      "▁próbował": 9153,
      "▁Prowa": 9154,
      "▁stworzyć": 9155,
      "ana": 9156,
      "▁prowadził": 9157,
      "prz": 9158,
      "krop": 9159,
      "unt": 9160,
      "▁światła": 9161,
      "▁społecznych": 9162,
      "▁popa": 9163,
      "▁efekcie": 9164,
      "▁szó": 9165,
      "ba,": 9166,
      "▁Inne": 9167,
      "▁(5": 9168,
      "▁członkowie": 9169,
      "siadł": 9170,
      "▁mąż": 9171,
      "niły": 9172,
      "▁duża": 9173,
      "▁policji": 9174,
      "▁głównego": 9175,
      "▁urodzi": 9176,
      "▁Znaj": 9177,
      "▁kontrakt": 9178,
      "▁uwzględnie": 9179,
      "!\"": 9180,
      "▁wolność": 9181,
      "▁zdjęć": 9182,
      "▁wieku,": 9183,
      "▁ładu": 9184,
      "-10\n": 9185,
      "com\n": 9186,
      "▁dozna": 9187,
      "▁firmie": 9188,
      "▁srebr": 9189,
      "nicy,": 9190,
      "ko\n": 9191,
      "▁wieczorem": 9192,
      "▁kredytów": 9193,
      "▁lekarza": 9194,
      "łty": 9195,
      "▁byłaby": 9196,
      "▁układa": 9197,
      "▁własny": 9198,
      "ys": 9199,
      "▁otacza": 9200,
      "lom": 9201,
      "▁właściwości": 9202,
      "Tu": 9203,
      "▁Meksy": 9204,
      "▁słusz": 9205,
      "lio": 9206,
      "▁dział": 9207,
      "niać": 9208,
      "▁uniemożli": 9209,
      "▁państwa,": 9210,
      "▁Niektóre": 9211,
      "▁złożyć": 9212,
      "▁Polskę": 9213,
      "gene": 9214,
      "▁wydłu": 9215,
      "wiga": 9216,
      "▁India": 9217,
      "▁zwło": 9218,
      "▁sieć": 9219,
      "▁lekarz": 9220,
      "▁Sil": 9221,
      "łem.\n": 9222,
      "▁awan": 9223,
      "▁nawią": 9224,
      "▁Wielu": 9225,
      "▁nielega": 9226,
      "rowie": 9227,
      "▁specyfi": 9228,
      "▁pisem": 9229,
      "jechać": 9230,
      "zia": 9231,
      "▁bazy": 9232,
      "▁przebiega": 9233,
      "▁95": 9234,
      "▁ślu": 9235,
      "▁defini": 9236,
      "▁szczęścia": 9237,
      "▁wojen": 9238,
      "YCH": 9239,
      "sowanie": 9240,
      "▁obserwu": 9241,
      "▁Program": 9242,
      "71": 9243,
      "▁S\n": 9244,
      "▁Polsat": 9245,
      "▁informację": 9246,
      "▁ofice": 9247,
      "ORZĄD": 9248,
      "welo": 9249,
      "▁ROZP": 9250,
      "sz?": 9251,
      "srodtytul]": 9252,
      "kowana": 9253,
      "▁OF": 9254,
      "▁nagrody": 9255,
      "▁stronach": 9256,
      "▁oświa": 9257,
      "▁zaawansowa": 9258,
      "mość": 9259,
      "char": 9260,
      "kul": 9261,
      "▁propor": 9262,
      "▁Uczestnicy": 9263,
      "łymi": 9264,
      "nina": 9265,
      "▁dziel": 9266,
      "▁wypełnia": 9267,
      ".).\n": 9268,
      "bienia": 9269,
      "▁jo": 9270,
      "▁ton": 9271,
      "fen": 9272,
      "rowania": 9273,
      "▁lega": 9274,
      "▁prywat": 9275,
      "-14\n": 9276,
      "▁wszelkich": 9277,
      "▁nastro": 9278,
      "▁Małgorzata": 9279,
      "▁rysu": 9280,
      "▁zbrodni": 9281,
      "chał": 9282,
      "▁mieliśmy": 9283,
      "fera": 9284,
      "▁zwrot": 9285,
      "bert": 9286,
      "dem\n": 9287,
      "▁zadłu": 9288,
      "wając": 9289,
      "▁istotne": 9290,
      "▁przedmiotem": 9291,
      "▁znaczenia": 9292,
      "▁upoważ": 9293,
      "▁różno": 9294,
      "▁nara": 9295,
      "OŚ": 9296,
      "dowanie": 9297,
      "▁Domi": 9298,
      "-12\n": 9299,
      "▁RM": 9300,
      "łod": 9301,
      "-15\n": 9302,
      "-16\n": 9303,
      "lonej": 9304,
      "▁wszę": 9305,
      "▁Przewo": 9306,
      "▁Policja": 9307,
      "▁Elżbie": 9308,
      "-21\n": 9309,
      "▁akcy": 9310,
      "-L": 9311,
      "▁ruszy": 9312,
      "▁diagno": 9313,
      "▁rzę": 9314,
      "-20\n": 9315,
      "▁większych": 9316,
      "am": 9317,
      "▁informacji,": 9318,
[...]
