<unk>	0
<s>	0
</s>	0
<0x00>	0
<0x01>	0
<0x02>	0
<0x03>	0
<0x04>	0
<0x05>	0
<0x06>	0
<0x07>	0
<0x08>	0
<0x09>	0
<0x0A>	0
<0x0B>	0
<0x0C>	0
<0x0D>	0
<0x0E>	0
<0x0F>	0
<0x10>	0
<0x11>	0
<0x12>	0
<0x13>	0
<0x14>	0
<0x15>	0
<0x16>	0
<0x17>	0
<0x18>	0
<0x19>	0
<0x1A>	0
<0x1B>	0
<0x1C>	0
<0x1D>	0
<0x1E>	0
<0x1F>	0
<0x20>	0
<0x21>	0
<0x22>	0
<0x23>	0
<0x24>	0
<0x25>	0
<0x26>	0
<0x27>	0
<0x28>	0
<0x29>	0
<0x2A>	0
<0x2B>	0
<0x2C>	0
<0x2D>	0
<0x2E>	0
<0x2F>	0
<0x30>	0
<0x31>	0
<0x32>	0
<0x33>	0
<0x34>	0
<0x35>	0
<0x36>	0
<0x37>	0
<0x38>	0
<0x39>	0
<0x3A>	0
<0x3B>	0
<0x3C>	0
<0x3D>	0
<0x3E>	0
<0x3F>	0
<0x40>	0
<0x41>	0
<0x42>	0
<0x43>	0
<0x44>	0
<0x45>	0
<0x46>	0
<0x47>	0
<0x48>	0
<0x49>	0
<0x4A>	0
<0x4B>	0
<0x4C>	0
<0x4D>	0
<0x4E>	0
<0x4F>	0
<0x50>	0
<0x51>	0
<0x52>	0
<0x53>	0
<0x54>	0
<0x55>	0
<0x56>	0
<0x57>	0
<0x58>	0
<0x59>	0
<0x5A>	0
<0x5B>	0
<0x5C>	0
<0x5D>	0
<0x5E>	0
<0x5F>	0
<0x60>	0
<0x61>	0
<0x62>	0
<0x63>	0
<0x64>	0
<0x65>	0
<0x66>	0
<0x67>	0
<0x68>	0
<0x69>	0
<0x6A>	0
<0x6B>	0
<0x6C>	0
<0x6D>	0
<0x6E>	0
<0x6F>	0
<0x70>	0
<0x71>	0
<0x72>	0
<0x73>	0
<0x74>	0
<0x75>	0
<0x76>	0
<0x77>	0
<0x78>	0
<0x79>	0
<0x7A>	0
<0x7B>	0
<0x7C>	0
<0x7D>	0
<0x7E>	0
<0x7F>	0
<0x80>	0
<0x81>	0
<0x82>	0
<0x83>	0
<0x84>	0
<0x85>	0
<0x86>	0
<0x87>	0
<0x88>	0
<0x89>	0
<0x8A>	0
<0x8B>	0
<0x8C>	0
<0x8D>	0
<0x8E>	0
<0x8F>	0
<0x90>	0
<0x91>	0
<0x92>	0
<0x93>	0
<0x94>	0
<0x95>	0
<0x96>	0
<0x97>	0
<0x98>	0
<0x99>	0
<0x9A>	0
<0x9B>	0
<0x9C>	0
<0x9D>	0
<0x9E>	0
<0x9F>	0
<0xA0>	0
<0xA1>	0
<0xA2>	0
<0xA3>	0
<0xA4>	0
<0xA5>	0
<0xA6>	0
<0xA7>	0
<0xA8>	0
<0xA9>	0
<0xAA>	0
<0xAB>	0
<0xAC>	0
<0xAD>	0
<0xAE>	0
<0xAF>	0
<0xB0>	0
<0xB1>	0
<0xB2>	0
<0xB3>	0
<0xB4>	0
<0xB5>	0
<0xB6>	0
<0xB7>	0
<0xB8>	0
<0xB9>	0
<0xBA>	0
<0xBB>	0
<0xBC>	0
<0xBD>	0
<0xBE>	0
<0xBF>	0
<0xC0>	0
<0xC1>	0
<0xC2>	0
<0xC3>	0
<0xC4>	0
<0xC5>	0
<0xC6>	0
<0xC7>	0
<0xC8>	0
<0xC9>	0
<0xCA>	0
<0xCB>	0
<0xCC>	0
<0xCD>	0
<0xCE>	0
<0xCF>	0
<0xD0>	0
<0xD1>	0
<0xD2>	0
<0xD3>	0
<0xD4>	0
<0xD5>	0
<0xD6>	0
<0xD7>	0
<0xD8>	0
<0xD9>	0
<0xDA>	0
<0xDB>	0
<0xDC>	0
<0xDD>	0
<0xDE>	0
<0xDF>	0
<0xE0>	0
<0xE1>	0
<0xE2>	0
<0xE3>	0
<0xE4>	0
<0xE5>	0
<0xE6>	0
<0xE7>	0
<0xE8>	0
<0xE9>	0
<0xEA>	0
<0xEB>	0
<0xEC>	0
<0xED>	0
<0xEE>	0
<0xEF>	0
<0xF0>	0
<0xF1>	0
<0xF2>	0
<0xF3>	0
<0xF4>	0
<0xF5>	0
<0xF6>	0
<0xF7>	0
<0xF8>	0
<0xF9>	0
<0xFA>	0
<0xFB>	0
<0xFC>	0
<0xFD>	0
<0xFE>	0
<0xFF>	0
.	-3.02298
▁	-3.04327
,	-3.36944
▁w	-3.45415
▁i	-4.31308
a	-4.32197
▁z	-4.438
▁na	-4.50116
▁W	-4.7192
▁do	-4.7548
y	-4.84595
▁się	-4.89766
e	-5.12527
▁(	-5.17157
▁roku	-5.19356
u	-5.31795
m	-5.36614
ch	-5.48138
▁–	-5.53228
▁"	-5.57327
i	-5.68249
-	-5.68569
o	-5.71751
em	-5.7307
)	-5.77019
▁po	-5.84002
▁od	-5.85745
▁przez	-5.90004
▁a	-5.91511
ów	-6.01042
▁jest	-6.01684
▁o	-6.03758
"	-6.0389
▁został	-6.04617
ą	-6.0643
▁nie	-6.08369
▁oraz	-6.08599
▁za	-6.14496
:	-6.15299
j	-6.21369
s	-6.24787
▁był	-6.28161
).	-6.35183
ego	-6.36116
▁Po	-6.37587
mi	-6.42521
ej	-6.42891
▁pod	-6.43444
▁jako	-6.49277
na	-6.5219
go	-6.53454
▁to	-6.53642
ę	-6.54441
ie	-6.54985
▁jego	-6.56644
▁latach	-6.57111
in	-6.59559
ami	-6.60394
ur	-6.60971
ach	-6.62545
▁r	-6.65764
▁że	-6.66601
▁tym	-6.68918
ka	-6.70062
▁Na	-6.70364
▁przy	-6.74329
w	-6.76532
z	-6.79486
ki	-6.82351
),	-6.85972
▁dla	-6.86813
▁także	-6.87934
▁Od	-6.88662
▁m	-6.89761
n	-6.91569
▁1	-6.92511
▁I	-6.93298
▁ze	-6.94653
nie	-6.94933
ne	-6.9738
▁Z	-6.97638
ych	-6.98319
▁który	-6.99508
li	-7.02486
ł	-7.08836
▁są	-7.10461
t	-7.11824
ny	-7.13191
".	-7.13389
▁również	-7.15161
▁u	-7.1628
▁lat	-7.17588
▁jej	-7.18038
▁została	-7.18871
▁gdzie	-7.19529
I	-7.20093
▁jak	-7.20698
▁jednak	-7.21307
▁S	-7.23161
ć	-7.24431
▁miejsce	-7.24835
▁tego	-7.25557
no	-7.2585
▁była	-7.25894
",	-7.26604
▁wieku	-7.27042
owi	-7.27801
owe	-7.31708
k	-7.31969
▁II	-7.33776
▁Do	-7.33856
▁2	-7.34353
ym	-7.35292
▁A	-7.36695
▁lub	-7.38617
▁3	-7.4114
nia	-7.41538
owej	-7.42075
ce	-7.42506
▁które	-7.43011
▁15	-7.43126
owych	-7.43273
owa	-7.43299
▁prze	-7.44403
ni	-7.45029
▁go	-7.45313
ek	-7.45491
▁nad	-7.46042
▁podczas	-7.46606
▁co	-7.46657
▁16	-7.47286
▁4	-7.49621
▁później	-7.51405
▁Za	-7.52706
ła	-7.53006
p	-7.5365
owy	-7.54716
d	-7.54988
om	-7.55092
▁ma	-7.55995
▁stycznia	-7.56437
er	-7.57359
▁też	-7.57439
▁września	-7.58401
▁U	-7.58454
ia	-7.58967
▁we	-7.59982
▁5	-7.61041
▁O	-7.61181
▁czasie	-7.61376
▁ale	-7.62315
▁tej	-7.62367
ją	-7.63194
▁przed	-7.63255
c	-7.64379
▁10	-7.67682
▁wojny	-7.67853
▁czerwca	-7.68043
▁sierpnia	-7.68685
▁maja	-7.68688
owego	-7.69628
▁lipca	-7.70051
ną	-7.70552
▁ich	-7.70827
▁było	-7.70846
▁która	-7.71085
▁października	-7.71193
▁14	-7.71543
▁marca	-7.71632
▁Był	-7.72308
en	-7.72391
yciorys	-7.72791
▁grudnia	-7.72908
▁12	-7.73608
▁były	-7.7406
▁M	-7.74132
▁6	-7.74316
▁17	-7.76039
r	-7.76836
▁którym	-7.76843
▁kwietnia	-7.76992
ową	-7.77691
▁następnie	-7.78294
▁listopada	-7.793
ło	-7.80019
▁Polsce	-7.80719
ta	-7.81065
▁K	-7.81099
▁ten	-7.81184
")	-7.81191
▁Polski	-7.81649
▁13	-7.81695
▁zm	-7.81778
l	-7.82226
▁de	-7.82349
nych	-7.82694
za	-7.83297
▁7	-7.83689
▁udział	-7.83811
▁świata	-7.84117
▁s	-7.84445
▁8	-7.85065
▁pierwszy	-7.85899
▁mu	-7.85959
owym	-7.86008
▁Historia	-7.86027
▁znajduje	-7.86237
▁E	-7.86444
▁osób	-7.86794
▁już	-7.86936
od	-7.87666
▁wraz	-7.87852
▁części	-7.88457
▁lutego	-7.88674
▁P	-7.88819
▁sezonie	-7.90152
▁miasta	-7.90448
▁której	-7.91417
▁powiecie	-7.91577
ca	-7.92658
▁dwa	-7.92724
le	-7.93232
▁B	-7.9378
▁zdobył	-7.93821
▁("	-7.93968
▁9	-7.94612
S	-7.94656
cie	-7.9546
▁św	-7.95756
▁miejscu	-7.95767
▁między	-7.96579
b	-7.97254
▁tylko	-7.97334
▁miał	-7.97424
▁których	-7.97694
ska	-7.97958
▁11	-7.98157
▁Jego	-7.98374
zy	-7.98622
▁20	-7.98696
▁raz	-7.98991
▁nim	-7.9982
ko	-8.00286
▁roz	-8.00405
A	-8.00447
ką	-8.00512
▁Kariera	-8.00654
▁T	-8.00812
▁wieś	-8.01366
cy	-8.02233
▁skład	-8.02268
an	-8.02765
ku	-8.02959
▁Nie	-8.04304
▁Jest	-8.05416
▁samym	-8.05607
▁G	-8.05967
▁którego	-8.05993
▁wsi	-8.06078
nej	-8.06387
g	-8.07125
▁światowej	-8.07513
▁Warszawie	-8.07761
ze	-8.08326
▁otrzymał	-8.08729
▁dwóch	-8.09303
▁D	-8.1008
iem	-8.10403
P	-8.11618
sz	-8.11634
ły	-8.12265
▁Według	-8.12842
do	-8.12874
▁około	-8.13162
▁zostały	-8.14829
ski	-8.14836
nego	-8.15283
▁Ma	-8.15765
▁być	-8.15934
ty	-8.16052
on	-8.16403
C	-8.16466
2	-8.17568
▁2011	-8.17995
▁kraju	-8.18002
▁część	-8.18289
▁natomiast	-8.18491
▁on	-8.18705
▁Pod	-8.18728
W	-8.19476
la	-8.1948
▁nich	-8.19838
▁czy	-8.20014
▁30	-8.20075
▁p	-8.20147
▁trzy	-8.20245
▁początku	-8.20364
▁okresie	-8.20891
D	-8.20998
▁2010	-8.21377
▁bez	-8.21492
al	-8.21611
de	-8.23044
to	-8.23496
▁miejscowość	-8.23893
B	-8.23954
▁km	-8.23975
ś	-8.24643
▁18	-8.25256
▁rozpoczął	-8.25366
wa	-8.2605
▁lata	-8.26388
▁rok	-8.26497
O	-8.26538
▁2007	-8.26571
owo	-8.27086
sa	-8.27576
▁tam	-8.278
wy	-8.27954
ował	-8.28008
▁meczu	-8.28287
uje	-8.28294
kę	-8.28459
▁2008	-8.28605
▁2009	-8.28621
da	-8.28975
po	-8.29115
▁mieszkańców	-8.29253
▁śmierci	-8.29383
owie	-8.29405
▁gdy	-8.29462
by	-8.2949
ków	-8.29681
es	-8.30305
▁-	-8.30309
▁innych	-8.30855
skiego	-8.31119
ci	-8.31258
▁2012	-8.31886
is	-8.31998
gi	-8.3234
▁ponownie	-8.32386
h	-8.32796
▁Francji	-8.32807
▁tytuł	-8.3301
▁zespołu	-8.33243
dzie	-8.33419
▁25	-8.33597
▁tych	-8.33969
▁2013	-8.34252
▁ok	-8.34256
▁terenie	-8.34413
▁2006	-8.34511
▁C	-8.34563
▁tu	-8.34582
▁22	-8.34788
▁może	-8.35514
▁Podczas	-8.35733
re	-8.36234
▁jeden	-8.36485
▁zaś	-8.36616
▁2014	-8.36617
▁im	-8.36802
f	-8.36915
▁wówczas	-8.37081
▁te	-8.37171
▁polski	-8.37654
▁pozycji	-8.37886
▁mistrzostw	-8.3809
▁21	-8.38382
dy	-8.38393
▁Europy	-8.38544
cz	-8.39079
III	-8.39164
st	-8.39167
K	-8.39303
ja	-8.39521
▁województwie	-8.39964
▁19	-8.40145
el	-8.40528
E	-8.40709
▁of	-8.40777
▁1945	-8.40893
▁L	-8.40934
▁reprezentacji	-8.41375
▁III	-8.41591
▁24	-8.41651
▁kiedy	-8.41668
te	-8.41856
nym	-8.42049
▁członkiem	-8.42081
▁jednym	-8.42164
▁Jan	-8.42377
ż	-8.42618
▁gminie	-8.42744
ma	-8.43174
▁pracował	-8.43386
▁1939	-8.43672
▁2015	-8.4437
▁pierwszej	-8.44571
▁bardzo	-8.44622
▁życia	-8.44968
▁23	-8.45098
mu	-8.4517
▁2005	-8.45176
▁zajął	-8.45238
▁ją	-8.4524
▁by	-8.45419
ra	-8.45515
▁Polskiego	-8.4558
ang	-8.45786
us	-8.45815
G	-8.46038
▁je	-8.46378
▁pracy	-8.46408
▁wielu	-8.46482
ał	-8.46499
▁funkcję	-8.46555
▁ponad	-8.46634
▁grupy	-8.46724
▁2016	-8.47054
▁względem	-8.47535
▁jeszcze	-8.47615
▁1990	-8.47907
F	-8.48728
▁R	-8.49303
▁2004	-8.49367
▁parafii	-8.49516
▁zostało	-8.4962
▁zadebiutował	-8.49654
skiej	-8.50391
je	-8.50478
▁tak	-8.50582
▁koniec	-8.50739
▁klubu	-8.50879
▁medal	-8.51047
▁28	-8.51106
▁gminy	-8.51289
▁Jana	-8.5137
▁zespół	-8.51588
▁rodziny	-8.51642
▁Został	-8.51797
▁kilka	-8.51964
▁27	-8.52129
ry	-8.52625
▁mistrzostwach	-8.53073
▁ta	-8.53414
ona	-8.53546
II	-8.53732
▁drugiej	-8.53734
et	-8.54375
▁pierwszym	-8.5439
▁26	-8.54594
▁Następnie	-8.54596
▁dwie	-8.54836
im	-8.54926
▁2017	-8.54951
▁którzy	-8.54994
▁wojnie	-8.55145
▁można	-8.55299
▁miała	-8.55467
▁historii	-8.55469
▁ramach	-8.55897
os	-8.56034
▁swojej	-8.56147
jąc	-8.56211
▁niej	-8.56345
▁studia	-8.56455
▁F	-8.56551
▁La	-8.57018
▁2018	-8.57402
wi	-8.57594
▁miejscowości	-8.57602
▁swoją	-8.57644
▁2000	-8.57844
▁dnia	-8.58154
T	-8.5831
ię	-8.5847
ii	-8.58522
nik	-8.58742
▁głównie	-8.58753
▁wiele	-8.58916
ro	-8.5892
▁uzyskał	-8.59402
–	-8.59544
▁położona	-8.59637
▁wyniku	-8.59867
1	-8.60261
▁klub	-8.6034
▁29	-8.60348
▁którą	-8.60769
▁aby	-8.61002
zna	-8.61819
3	-8.61918
man	-8.62072
▁niego	-8.62169
Z	-8.62384
▁2019	-8.6239
▁metrów	-8.6244
▁nr	-8.62518
ować	-8.62708
▁2002	-8.6271
sza	-8.62711
▁dzieci	-8.62719
▁kościoła	-8.62929
▁2001	-8.63071
▁trzech	-8.63124
kiem	-8.63509
wiata	-8.63704
M	-8.6388
▁stanowisko	-8.64143
▁powodu	-8.64204
N	-8.64318
▁swoje	-8.64376
ar	-8.64539
▁ukończył	-8.64844
ul	-8.64902
zie	-8.65031
ń	-8.65101
sko	-8.65123
▁2003	-8.65213
ga	-8.6526
▁pełnił	-8.65439
▁celu	-8.65646
▁byli	-8.65695
owanie	-8.65847
▁innymi	-8.65969
▁strony	-8.66097
▁czym	-8.66116
▁razem	-8.66181
wie	-8.662
▁Al	-8.66458
▁gmina	-8.66534
▁powierzchni	-8.66744
▁31	-8.66914
at	-8.66983
▁Le	-8.67014
iego	-8.67033
▁województwa	-8.67125
ter	-8.67204
▁Przy	-8.67421
▁Uniwersytecie	-8.67536
▁Re	-8.67802
owania	-8.6794
▁wystąpił	-8.68601
my	-8.68649
▁nazwę	-8.6876
▁lecz	-8.69397
U	-8.69442
▁Mo	-8.69562
▁H	-8.69605
ści	-8.70725
▁niż	-8.70804
sta	-8.71401
▁przeciwko	-8.71468
▁wszystkich	-8.71697
si	-8.71899
▁1944	-8.72269
▁pomiędzy	-8.72478
ba	-8.72534
owany	-8.72563
▁domu	-8.72725
▁Rady	-8.73094
▁Uniwersytetu	-8.73243
▁Armii	-8.73696
▁podstawie	-8.73792
▁karierę	-8.73891
▁ul	-8.74026
bo	-8.74138
▁kilku	-8.7442
or	-8.74474
▁przeszedł	-8.74565
▁należała	-8.74609
▁związku	-8.74732
▁kościół	-8.74865
owane	-8.75089
ali	-8.75168
▁re	-8.75599
niem	-8.75825
skim	-8.75866
▁ob	-8.7597
▁Przez	-8.76003
▁miasto	-8.76007
co	-8.76194
ton	-8.76199
▁połowie	-8.76218
▁jedynie	-8.76312
kami	-8.76458
▁Akademii	-8.76606
▁N	-8.76626
ing	-8.7683
▁dzięki	-8.77136
▁sezonu	-8.77319
▁1999	-8.77659
▁końca	-8.77749
▁według	-8.77971
▁Krakowie	-8.78085
▁znajdują	-8.78197
▁linii	-8.78321
ir	-8.792
ską	-8.7931
▁działalność	-8.79454
▁szkoły	-8.79472
▁czas	-8.79654
czy	-8.79696
szy	-8.79734
▁Co	-8.79918
ad	-8.80118
").	-8.80267
iej	-8.80283
il	-8.8047
▁pułku	-8.80498
▁swoim	-8.80791
▁wcześniej	-8.80802
▁względu	-8.80938
▁wśród	-8.81232
lo	-8.81561
▁swojego	-8.81832
▁Związku	-8.8192
niu	-8.81945
▁1991	-8.82002
▁pracę	-8.82014
rze	-8.82226
▁grał	-8.82356
▁biegu	-8.82389
▁Prze	-8.82555
▁1998	-8.82579
▁występował	-8.82637
▁ZSRR	-8.82864
ymi	-8.8298
▁Jako	-8.82993
▁często	-8.83031
▁Zjednoczonych	-8.83067
▁piłkarz	-8.83235
▁sposób	-8.83252
as	-8.83282
▁spraw	-8.83298
▁To	-8.83348
▁jedną	-8.8341
enia	-8.83615
▁turnieju	-8.8387
▁2020	-8.83885
▁Polskiej	-8.84294
sk	-8.84428
▁swoich	-8.84651
ana	-8.84986
▁pierwsze	-8.85713
▁danych	-8.85732
▁De	-8.85821
▁trakcie	-8.8612
▁powrócił	-8.86194
▁stał	-8.86509
ina	-8.86596
ują	-8.86619
▁stanie	-8.86777
▁tzw	-8.86931
▁J	-8.87729
tu	-8.87811
ge	-8.87874
▁We	-8.879
▁drużyny	-8.87955
▁1992	-8.88099
▁gry	-8.88102
ha	-8.88225
▁1994	-8.88745
▁mieście	-8.88857
▁króla	-8.88911
▁1997	-8.89244
▁wysokości	-8.89499
▁czasu	-8.89504
▁obecnie	-8.89541
bor	-8.89716
▁ludności	-8.89906
▁1996	-8.89908
▁album	-8.89985
L	-8.9003
▁Bo	-8.90642
▁typu	-8.90663
▁cztery	-8.90789
one	-8.90904
R	-8.90974
▁swój	-8.91164
pa	-8.91804
▁kon	-8.91879
▁Jej	-8.92063
owali	-8.92123
▁potem	-8.92206
▁prawa	-8.92286
▁Ka	-8.92554
▁różnych	-8.92711
The	-8.9275
v	-8.92867
▁czyli	-8.92932
▁Ze	-8.93876
▁żołnierzy	-8.93876
▁wszystkie	-8.94005
▁mają	-8.9412
▁piechoty	-8.94391
▁sobie	-8.94405
▁ulicy	-8.9445
▁The	-8.94836
▁organizacji	-8.94861
▁igrzyskach	-8.95005
ber	-8.9536
▁aż	-8.95409
cza	-8.95486
▁drugi	-8.95911
odzi	-8.95988
H	-8.96152
▁1921	-8.96163
dzi	-8.962
▁1995	-8.96276
era	-8.96426
ak	-8.96764
ość	-8.9687
▁Mar	-8.969
▁Kościoła	-8.96943
▁stronie	-8.96952
▁2021	-8.97019
▁pierwszego	-8.97218
ck	-8.97606
▁1993	-8.97621
▁zakończeniu	-8.97679
owana	-8.97706
▁rozegrał	-8.97718
acji	-8.98239
▁Obecnie	-8.98416
▁100	-8.98499
sie	-8.98614
▁Ko	-8.98643
▁Li	-8.98725
▁dni	-8.98761
mo	-8.98771
▁FC	-8.989
▁miejsca	-8.98918
it	-8.98996
▁1920	-8.99035
ią	-8.99268
▁samego	-8.99314
▁nawet	-8.99774
ości	-8.99812
▁1989	-8.99829
▁1941	-8.99989
ić	-9.00067
▁ona	-9.00128
wo	-9.00327
▁jednego	-9.0041
▁Te	-9.00416
▁syn	-9.00601
▁kierunku	-9.00818
▁osoby	-9.01133
ania	-9.01141
▁siedzibą	-9.01169
acja	-9.0118
▁postaci	-9.01266
▁powstał	-9.01386
▁zmarł	-9.01639
▁USA	-9.01705
▁Pucharu	-9.01752
▁Mi	-9.0182
▁1919	-9.01847
▁lidze	-9.01945
▁Urodził	-9.01962
▁pochodzi	-9.01984
bi	-9.02031
▁rejonie	-9.02101
▁Wielkiej	-9.02206
th	-9.02223
um	-9.02348
ow	-9.02395
▁zakończył	-9.02715
▁ligi	-9.0275
ster	-9.02784
▁objął	-9.03
▁mm	-9.03107
▁polskich	-9.03241
▁rolę	-9.03268
▁nazwa	-9.03292
▁Przed	-9.03331
▁sam	-9.0347
▁stanu	-9.03958
▁nowo	-9.0413
▁członków	-9.04219
cja	-9.04225
▁powstania	-9.04257
▁Ha	-9.04332
▁gmin	-9.04395
▁klasyfikacji	-9.04432
▁gen	-9.04571
▁rzecz	-9.04698
4	-9.05028
▁bardziej	-9.05164
▁służby	-9.05258
▁Ja	-9.05283
▁Pa	-9.05323
▁armii	-9.05496
▁olimpijskich	-9.05499
▁wynosiła	-9.05621
▁Ta	-9.0613
▁dniu	-9.06197
▁regionie	-9.06266
ując	-9.06275
▁wrześniu	-9.06376
▁(18	-9.06406
ed	-9.06442
▁liczby	-9.06732
▁1943	-9.06756
▁wojska	-9.06853
▁1940	-9.06959
anie	-9.0721
me	-9.07263
▁1918	-9.07266
▁ludzi	-9.07277
ono	-9.07396
kach	-9.07406
▁walki	-9.07609
▁wybrany	-9.07947
ży	-9.08128
der	-9.08132
ri	-9.08631
▁zarówno	-9.08753
ke	-9.08807
owano	-9.08863
▁Niemiec	-9.09021
lu	-9.09219
▁Towarzystwa	-9.09296
▁Puchar	-9.09412
skich	-9.09509
▁inne	-9.09531
▁Bar	-9.09758
▁1954	-9.09868
den	-9.09945
▁prowadził	-9.10065
▁Am	-9.1009
▁iż	-9.10173
▁kontrakt	-9.10183
ję	-9.10217
▁tys	-9.10289
▁państwa	-9.10504
▁Ni	-9.1051
▁San	-9.10622
▁kadencji	-9.10667
▁ziemi	-9.1067
▁nauk	-9.10749
ność	-9.10777
▁ha	-9.10816
▁klubie	-9.10963
▁St	-9.11077
▁Ch	-9.11261
▁Be	-9.11267
▁tę	-9.1132
enie	-9.11582
▁zamieszkiwało	-9.11611
▁poza	-9.11617
▁Rosji	-9.11682
▁Ho	-9.11793
ok	-9.12113
▁pt	-9.12143
pi	-9.12251
▁np	-9.12356
▁k	-9.12448
▁najbardziej	-9.12611
▁1942	-9.12618
ać	-9.1263
▁budynku	-9.1265
▁Ba	-9.12661
▁prac	-9.12743
▁dopiero	-9.12866
▁the	-9.12956
▁polskiej	-9.13063
ti	-9.13084
▁długości	-9.13207
owski	-9.13444
▁jedno	-9.1354
▁Sz	-9.13577
▁styczniu	-9.13615
sy	-9.13656
▁2022	-9.1382
▁kobiet	-9.13968
sze	-9.14019
▁Or	-9.14402
owskiego	-9.14408
cze	-9.1481
▁odbył	-9.14898
▁należy	-9.15062
▁pobliżu	-9.15226
▁takich	-9.15277
▁składzie	-9.15325
▁kolejnych	-9.1538
▁1988	-9.15483
▁posiada	-9.15758
nicy	-9.15797
▁von	-9.15938
▁pro	-9.15999
▁1946	-9.16333
▁pierwszych	-9.1638
▁Muzeum	-9.16494
ony	-9.16522
su	-9.16545
Rzeczypospolitej	-9.16617
▁powstała	-9.16631
rod	-9.16703
▁serii	-9.16987
▁Wydziale	-9.17226
▁ostatecznie	-9.17489
▁więc	-9.17701
▁Zmarł	-9.17874
▁podpisał	-9.18024
▁stylu	-9.18151
▁Ar	-9.18244
▁Go	-9.18414
▁wtedy	-9.18435
per	-9.18568
▁stan	-9.18569
▁klasy	-9.18611
▁poprzez	-9.1866
ot	-9.1867
▁obu	-9.18975
▁film	-9.18991
ol	-9.19217
▁bo	-9.19221
▁miały	-9.1928
ut	-9.19381
▁siebie	-9.19432
▁1980	-9.19495
ros	-9.19528
▁gdyż	-9.1955
▁zawodach	-9.19949
tor	-9.20122
▁Ponadto	-9.20193
▁mogą	-9.20198
▁zajmując	-9.20331
▁gminę	-9.20395
nica	-9.2071
▁Se	-9.20818
▁kategorii	-9.21029
fa	-9.21277
son	-9.21389
▁początkowo	-9.21466
▁rząd	-9.21614
▁1972	-9.21644
▁mężczyzn	-9.21946
▁Partii	-9.21961
▁Sa	-9.22071
▁prawo	-9.22084
▁rzymskokatolick	-9.22151
amp	-9.22241
▁Me	-9.22357
▁czerwcu	-9.22365
▁czterech	-9.22443
▁maju	-9.22462
ich	-9.2257
▁1975–1998	-9.22666
▁okres	-9.22836
▁władz	-9.2291
▁gromady	-9.22949
▁Jednak	-9.22979
"),	-9.2303
▁Komisji	-9.23032
▁jednostki	-9.23047
ard	-9.23075
▁Brytanii	-9.2317
▁temat	-9.23189
▁jednej	-9.23285
land	-9.23423
id	-9.23517
▁działalności	-9.23761
▁brał	-9.2379
▁kariery	-9.23821
▁mianowany	-9.23842
▁Początkowo	-9.23853
▁Ne	-9.24068
▁marcu	-9.24094
ver	-9.24102
sen	-9.24146
ner	-9.24153
▁wojsk	-9.2419
▁Pierwszy	-9.24208
▁życie	-9.24241
▁praw	-9.24262
▁kolei	-9.24287
ho	-9.24337
▁Ru	-9.24364
▁1973	-9.24418
▁zawodnikiem	-9.24446
▁przeniósł	-9.24528
▁prace	-9.246
usz	-9.24612
▁karierze	-9.24628
▁filmu	-9.24768
▁nazwą	-9.24787
▁centrum	-9.25073
emu	-9.25142
jących	-9.2535
▁lipcu	-9.2536
▁budynek	-9.25366
▁przeciw	-9.25455
▁sztuki	-9.25626
ację	-9.25631
▁zaczął	-9.25636
▁mistrzostwo	-9.25703
▁Roz	-9.25719
▁Ra	-9.25742
▁pierwszą	-9.25765
▁grudniu	-9.25802
cka	-9.25884
▁1986	-9.26035
▁one	-9.26058
▁prawdopodobnie	-9.26082
kowa	-9.26135
▁1981	-9.26237
be	-9.26255
▁Gu	-9.26311
administracyjnie	-9.26424
▁Józefa	-9.26465
kon	-9.26469
▁Anglii	-9.26517
ers	-9.26741
▁polityk	-9.26929
eniu	-9.26942
▁1987	-9.27069
Po	-9.27155
▁Była	-9.27215
▁1984	-9.27231
▁wstąpił	-9.27344
owiec	-9.2739
▁In	-9.27533
▁występuje	-9.27614
▁Poznaniu	-9.2768
▁gatunek	-9.27794
▁Stanisława	-9.27803
▁d	-9.27882
ve	-9.27899
▁służył	-9.28114
▁Komitetu	-9.2837
▁Ro	-9.28396
▁wobec	-9.28434
▁świecie	-9.28434
▁wrócił	-9.2873
eń	-9.28791
▁Wojska	-9.28807
▁1982	-9.28835
mar	-9.28865
▁urząd	-9.29087
▁El	-9.29336
▁1948	-9.29545
▁mocy	-9.29563
▁granicy	-9.29586
ob	-9.29677
▁1938	-9.29687
ycie	-9.2973
▁stopień	-9.29824
J	-9.29896
ik	-9.29918
nika	-9.29939
▁Białorusi	-9.29948
▁pas	-9.30025
▁1985	-9.30025
wał	-9.30346
lin	-9.30346
▁Józef	-9.30352
▁miało	-9.30488
▁wyborach	-9.30566
▁władzy	-9.30609
▁wygrał	-9.30832
▁dniem	-9.30872
we	-9.30947
▁Da	-9.30984
▁nowego	-9.31064
skie	-9.31086
▁zostali	-9.31141
▁n	-9.31418
▁syna	-9.3144
▁1983	-9.31479
▁amerykański	-9.31496
▁czego	-9.31557
▁listopadzie	-9.31571
▁So	-9.31581
▁Stanisław	-9.31588
▁Pi	-9.31588
▁ruchu	-9.31749
▁ciągu	-9.31753
ment	-9.31781
▁sierpniu	-9.31889
▁Film	-9.3191
se	-9.31911
▁50	-9.31923
▁1928	-9.31931
▁brązowy	-9.3199
8	-9.32015
▁uczestniczył	-9.32117
▁październiku	-9.32125
▁dowódcy	-9.32144
▁Gdy	-9.32148
▁Pierwsze	-9.32152
any	-9.32182
▁wszystkim	-9.32219
▁świątyni	-9.3237
▁Ku	-9.32451
▁będzie	-9.32452
▁zajęła	-9.32536
▁stopnia	-9.32553
▁ks	-9.32655
▁nowe	-9.32746
▁nowy	-9.32913
▁Pro	-9.32962
▁rozgrywek	-9.33063
▁działacz	-9.33081
▁klubowa	-9.33131
rz	-9.33163
▁doszło	-9.33234
▁znany	-9.33395
tra	-9.33554
▁cmentarzu	-9.33554
km	-9.33852
cu	-9.33965
▁polskiego	-9.34087
fi	-9.34174
▁zagrał	-9.34176
▁barwach	-9.34186
▁1975	-9.34324
▁jedna	-9.34584
gu	-9.34626
▁działania	-9.34869
▁1976	-9.34948
▁grający	-9.34972
▁ponieważ	-9.34992
▁nazwy	-9.35054
▁okresu	-9.35101
pe	-9.35168
▁kwietniu	-9.35238
pro	-9.35321
▁nią	-9.35342
▁projekt	-9.35345
▁dniach	-9.35495
▁stopniu	-9.357
iz	-9.35767
▁ojca	-9.35884
▁Kościół	-9.35923
ść	-9.3593
▁biskup	-9.35956
▁Su	-9.35967
▁1947	-9.36001
▁Bor	-9.36171
▁większość	-9.36194
▁jednocześnie	-9.3631
▁udało	-9.36312
▁ku	-9.36325
▁1931	-9.36471
▁Niemczech	-9.36615
▁punktów	-9.36718
▁trafił	-9.36862
▁Nowym	-9.3691
▁Wieś	-9.3691
▁razy	-9.36919
▁departamencie	-9.37196
▁He	-9.37215
ian	-9.37222
▁lutym	-9.37277
ler	-9.37304
▁kolejne	-9.37355
▁przypadku	-9.37369
▁000	-9.37438
ano	-9.37445
▁1970	-9.37466
▁diecezji	-9.37678
▁1978	-9.37712
▁partii	-9.37819
▁Opis	-9.37819
ckiego	-9.37857
▁obraz	-9.37861
di	-9.37886
▁zdobyła	-9.37937
▁zachód	-9.38083
▁powiatu	-9.38091
▁Nauk	-9.38092
ności	-9.38102
10	-9.38116
sh	-9.38208
▁obszar	-9.38347
▁Tam	-9.38366
▁Pri	-9.38515
▁dwu	-9.38649
▁budowy	-9.38759
▁rozgrywkach	-9.38759
str	-9.38915
cji	-9.38993
les	-9.3912
▁ciała	-9.39149
men	-9.39231
▁produkcji	-9.3925
▁Kon	-9.39434
▁wywalczył	-9.3953
ron	-9.39628
▁Nazwa	-9.39797
▁znalazł	-9.39817
szcz	-9.39817
▁Straży	-9.39896
▁czasów	-9.39941
rat	-9.40006
▁drugim	-9.40035
▁księcia	-9.40173
▁Paryżu	-9.40248
un	-9.40282
▁projektu	-9.40286
▁1934	-9.40323
▁1979	-9.40335
▁wschód	-9.40367
▁Europie	-9.40484
res	-9.40546
▁1922	-9.40566
▁1926	-9.40606
5	-9.40668
▁podjął	-9.4068
▁stanowi	-9.40704
br	-9.40714
gr	-9.40775
▁Tu	-9.40853
▁reprezentacyjna	-9.40935
du	-9.40955
▁rzeki	-9.4099
zu	-9.41017
▁No	-9.41054
▁1968	-9.41062
nę	-9.41273
▁liczyła	-9.41292
fik	-9.41316
–18	-9.4143
▁rundzie	-9.4144
cą	-9.41501
▁Rok	-9.41513
▁takie	-9.41556
▁sił	-9.41557
▁władze	-9.41571
▁kultury	-9.41579
▁stacji	-9.41611
▁Warszawy	-9.41708
fer	-9.41721
▁Później	-9.4176
▁1974	-9.41893
▁Kar	-9.42018
▁pochowany	-9.42052
▁wersji	-9.4209
▁rodzinie	-9.42168
▁pół	-9.42276
▁grupa	-9.42403
▁Lu	-9.42444
gen	-9.42536
▁południowo	-9.42541
▁f	-9.42613
▁zajmował	-9.42653
że	-9.42653
▁roślin	-9.427
▁1956	-9.42712
▁1937	-9.42731
▁Wydziału	-9.42739
30	-9.4276
▁rodzaju	-9.42982
tów	-9.4304
▁zaludnienia	-9.43084
▁1950	-9.43185
▁cm	-9.43235
▁okręgu	-9.43385
▁ojciec	-9.43395
▁Londynie	-9.434
▁przeniesiony	-9.43497
ź	-9.43541
▁Gra	-9.43721
owicz	-9.43925
▁prawie	-9.43939
win	-9.4407
▁par	-9.44254
▁serialu	-9.44344
▁mecz	-9.4435
ham	-9.44402
art	-9.44514
▁Ri	-9.44552
▁1977	-9.4459
zo	-9.44603
▁Si	-9.44643
owaniu	-9.44754
ant	-9.44777
▁Narodowego	-9.4478
▁Ob	-9.44792
▁1936	-9.4484
▁członek	-9.44849
▁król	-9.44888
▁powołany	-9.45167
▁ds	-9.45194
cki	-9.45305
▁rozpoczęła	-9.45592
▁sezon	-9.45649
▁1969	-9.45667
▁wziął	-9.45679
ent	-9.45738
▁końcu	-9.45751
▁oficerów	-9.45784
zi	-9.45834
▁igrzysk	-9.45971
owymi	-9.4603
▁Piotr	-9.46072
▁obszarze	-9.46074
▁Ju	-9.46129
sto	-9.46188
eli	-9.46223
▁gra	-9.46237
▁strzelił	-9.46338
▁40	-9.46378
▁czasach	-9.46391
gar	-9.46403
▁1960	-9.46456
▁Lo	-9.46521
▁czasem	-9.46586
▁juniorów	-9.46627
▁RP	-9.46764
▁narodowej	-9.46902
▁finale	-9.46925
▁Sch	-9.46979
▁Maria	-9.4699
▁punkty	-9.47073
▁północnej	-9.47295
tar	-9.47586
▁północno	-9.47613
▁Piechoty	-9.47652
▁stała	-9.47658
▁Marii	-9.47694
▁szkole	-9.47719
▁1924	-9.47749
▁synem	-9.47751
▁Matki	-9.47929
▁listy	-9.48143
▁biskupa	-9.4826
-19	-9.48282
▁Du	-9.48338
▁powieści	-9.48401
cia	-9.4849
▁Szkoły	-9.48547
▁wydany	-9.48554
▁wyjechał	-9.48615
▁budowę	-9.48768
▁zakresie	-9.4878
ił	-9.48815
▁Dywizji	-9.48845
▁Narodowej	-9.48846
▁drużyna	-9.48953
▁gęstość	-9.4915
▁język	-9.49165
war	-9.49287
▁czele	-9.49442
▁Di	-9.49467
▁podium	-9.49608
▁ani	-9.49609
owała	-9.49663
▁sukces	-9.49688
▁stanowiska	-9.49695
▁pochodzenia	-9.49696
▁polsko	-9.49729
▁przebywał	-9.49729
▁wynosi	-9.4979
wśród	-9.49796
mie	-9.49806
▁języka	-9.49914
▁Ca	-9.4997
▁An	-9.49999
▁1952	-9.50028
Za	-9.50057
sty	-9.50061
kowski	-9.50195
▁samej	-9.50208
▁języku	-9.5024
50	-9.50323
ji	-9.50327
▁wydał	-9.50384
▁liczne	-9.50557
pol	-9.50603
▁1971	-9.50611
▁prowincji	-9.50654
▁spotkaniu	-9.50835
▁niemieckiej	-9.50836
▁roli	-9.50888
▁meczach	-9.50907
ic	-9.50939
▁1949	-9.50976
dziel	-9.50982
▁Lwowie	-9.51012
▁gatunków	-9.51049
▁Stanów	-9.51355
ńskim	-9.51483
▁Mu	-9.51493
▁and	-9.51712
▁częścią	-9.51842
▁system	-9.51905
▁1930	-9.52069
▁głównym	-9.52133
▁Polskich	-9.52205
va	-9.52355
▁tysięcy	-9.52451
▁profesor	-9.52512
ys	-9.5252
ale	-9.52561
ist	-9.52583
stwo	-9.52642
▁niektórych	-9.5268
▁Kor	-9.5274
▁polska	-9.52854
ary	-9.52899
▁otrzymała	-9.52949
▁finału	-9.53003
▁doktora	-9.53014
▁Mor	-9.53016
▁Pe	-9.5312
▁kar	-9.53169
▁srebrny	-9.53282
▁1967	-9.53429
▁pi	-9.53477
▁występujący	-9.53618
▁większości	-9.5367
▁Mimo	-9.53736
▁mecze	-9.53797
ks	-9.53803
▁nadal	-9.53859
Na	-9.54022
▁jednostka	-9.54237
▁dziś	-9.54395
▁1964	-9.54455
wali	-9.54502
▁drużynie	-9.54612
bra	-9.54653
▁1933	-9.54672
▁niemiecki	-9.54729
▁Włoch	-9.54745
▁1966	-9.54877
▁odbyła	-9.54981
▁1927	-9.55062
▁muzyki	-9.55078
▁wody	-9.55144
▁dzielnicy	-9.5535
▁pięć	-9.55383
yk	-9.55445
gan	-9.55533
lot	-9.55556
▁prezydenta	-9.55586
por	-9.55675
▁1958	-9.55737
▁spotkania	-9.55753
▁oznacza	-9.55868
▁zawodnik	-9.5587
▁południowej	-9.55906
▁urodził	-9.55948
▁dwukrotnie	-9.55962
▁plasuj	-9.55991
▁Cha	-9.56055
▁okręt	-9.56121
▁szczyt	-9.56168
▁dr	-9.56203
▁Hiszpanii	-9.56237
▁przede	-9.56237
▁1961	-9.56301
▁Gór	-9.56306
▁bitwie	-9.56453
ńskiej	-9.56472
ng	-9.56514
▁herbu	-9.5654
ili	-9.56602
▁mistrza	-9.56636
kład	-9.56714
▁pomocą	-9.5682
▁1957	-9.56858
▁pomocy	-9.56895
▁koło	-9.56917
▁rozwoju	-9.5699
▁przyjął	-9.57065
▁choć	-9.57084
▁siły	-9.57097
▁1929	-9.5711
▁całej	-9.57119
▁awansował	-9.57137
▁broni	-9.57311
▁spędził	-9.57337
ab	-9.57397
owskiej	-9.57448
▁nauczyciel	-9.57523
▁cały	-9.57606
▁kształt	-9.57665
▁więcej	-9.57708
▁1914	-9.57726
▁Klub	-9.5773
tem	-9.57763
▁1917	-9.57777
mer	-9.57782
▁Dzięki	-9.57801
ten	-9.57868
▁1965	-9.58058
▁1959	-9.58135
▁gór	-9.58165
▁studiował	-9.58275
▁filmie	-9.58291
▁1951	-9.58334
▁Ry	-9.58337
ud	-9.5834
▁zespole	-9.58352
▁1962	-9.5837
▁utworów	-9.58491
▁służbę	-9.58519
▁ostatni	-9.58535
▁Pucharze	-9.58561
▁wygranym	-9.58565
▁walk	-9.58649
pie	-9.5872
ru	-9.58753
▁Wrocławiu	-9.58823
▁imię	-9.58836
▁200	-9.58849
▁Tra	-9.58883
▁1932	-9.58886
▁obok	-9.59031
▁1935	-9.59144
▁ps	-9.59164
▁uczelni	-9.59274
▁utworzono	-9.59286
▁Car	-9.59291
▁rady	-9.59344
▁mógł	-9.59467
bit	-9.59619
▁Ukończył	-9.59632
▁liście	-9.59647
La	-9.59702
▁Szkole	-9.5977
▁(19	-9.59815
ane	-9.59844
▁meczów	-9.59891
▁drużyn	-9.59899
▁teren	-9.59967
▁Bu	-9.59974
▁drogi	-9.60007
▁Ga	-9.60159
ców	-9.60273
kom	-9.60286
▁zawodów	-9.6029
▁składa	-9.6033
00	-9.60343
▁Ale	-9.60361
▁sobą	-9.60393
▁1923	-9.60407
czyn	-9.60413
25	-9.60556
rzy	-9.60557
▁nowej	-9.60597
aż	-9.60608
np	-9.60628
mon	-9.60655
wer	-9.60731
▁konkurencji	-9.60749
▁wpływ	-9.60884
ran	-9.61064
▁programu	-9.61095
▁nigdy	-9.61145
▁Sta	-9.61184
▁autor	-9.61236
▁zachodniej	-9.6129
▁liczba	-9.61341
▁plan	-9.61352
▁Instytutu	-9.61364
▁drodze	-9.61376
▁Ben	-9.61508
▁prywatne	-9.61539
▁1925	-9.61698
cję	-9.61703
▁wybuchu	-9.61791
▁Stanach	-9.61988
▁studiów	-9.61996
min	-9.62026
zm	-9.6214
bie	-9.62246
▁stanowisku	-9.62336
▁złoty	-9.62344
▁nagrodę	-9.62355
▁New	-9.62386
io	-9.6262
▁Je	-9.62653
▁krzyż	-9.6279
▁g	-9.62838
▁program	-9.62844
▁trzeci	-9.62872
▁należał	-9.62887
sku	-9.62928
▁charakter	-9.63046
▁prowadzi	-9.63103
acje	-9.63114
hi	-9.63147
ńska	-9.63194
ec	-9.63246
▁kościele	-9.63261
▁trener	-9.63278
ger	-9.63393
▁północ	-9.63442
▁szybko	-9.63463
bur	-9.63471
▁artylerii	-9.63562
▁Krzyżem	-9.63683
▁nauki	-9.63718
▁rekord	-9.63799
▁Pawła	-9.63805
▁anty	-9.63806
▁grupie	-9.63891
ine	-9.63963
▁1963	-9.63981
7	-9.64005
24	-9.64113
▁zmiany	-9.6413
▁Republiki	-9.64195
▁Sąd	-9.64275
▁odszedł	-9.64318
▁Spraw	-9.64343
▁Fa	-9.64371
▁grup	-9.644
wal	-9.64438
▁nowych	-9.64445
▁dowódca	-9.64486
▁wokół	-9.64491
▁przedstawia	-9.64556
▁Miejscowość	-9.64605
▁działań	-9.64607
lub	-9.64709
alne	-9.6475
▁Centrum	-9.64824
bu	-9.64911
18	-9.65012
tek	-9.65039
kro	-9.65082
▁miejsc	-9.65115
▁proces	-9.65145
▁kolejny	-9.65285
▁znacznie	-9.65293
▁spotkań	-9.65302
▁al	-9.65387
▁południe	-9.65508
▁mandat	-9.6554
▁szkołę	-9.6556
▁utwór	-9.65593
▁mistrzem	-9.65593
▁założył	-9.65644
▁akcji	-9.65648
▁ukończeniu	-9.65821
▁stacja	-9.6583
15	-9.65889
rzęd	-9.65894
so	-9.65919
▁zostaje	-9.65959
bel	-9.65996
▁Dla	-9.66017
▁gromad	-9.6602
▁związany	-9.66067
40	-9.6614
20	-9.66155
▁formula	-9.66373
ue	-9.66451
▁naj	-9.6647
Ma	-9.66587
czek	-9.66691
ier	-9.66781
▁ofiar	-9.66781
ydów	-9.66811
owców	-9.66877
▁miesięcy	-9.66901
▁punkt	-9.66904
▁rządu	-9.66992
▁Grand	-9.67005
54	-9.6712
stan	-9.67206
ll	-9.67211
▁walczył	-9.67346
eni	-9.67387
▁połowy	-9.67431
▁1955	-9.67542
▁obwodzie	-9.67549
12	-9.67553
▁profesora	-9.67594
▁grze	-9.67659
6	-9.67702
▁Ligi	-9.67787
▁1953	-9.67805
▁oddział	-9.67914
jące	-9.67986
nd	-9.68002
▁kierował	-9.68008
nymi	-9.6805
▁formie	-9.68085
ista	-9.6811
▁zawodników	-9.68231
▁aresztowany	-9.68296
▁woj	-9.68352
▁swego	-9.6846
zor	-9.68479
tel	-9.68554
tą	-9.68613
ników	-9.6862
▁pierwsza	-9.68776
acją	-9.68861
▁Fi	-9.68866
▁Południowej	-9.68883
tę	-9.68905
▁powrocie	-9.68949
▁poziom	-9.68958
▁Jo	-9.68959
pod	-9.69085
16	-9.69087
▁Ziemi	-9.6911
▁medalista	-9.69154
▁pozostał	-9.69157
▁Sam	-9.69159
ście	-9.69294
yd	-9.69339
▁oddziały	-9.69402
▁wyłącznie	-9.69423
jący	-9.69496
▁Japonii	-9.69508
ice	-9.69605
▁ministra	-9.69682
▁Jorku	-9.69728
▁walce	-9.69732
Ch	-9.69744
▁World	-9.69745
▁obrony	-9.69872
▁zawiera	-9.69992
▁współpracy	-9.70037
▁zwłaszcza	-9.70038
▁dowódcą	-9.70116
est	-9.70222
▁Mistrzostw	-9.70261
sch	-9.70263
▁Ludowej	-9.70336
▁Pan	-9.70361
rę	-9.70371
▁Berlinie	-9.70399
▁mimo	-9.70403
▁przykład	-9.70427
▁wszedł	-9.70438
tan	-9.70457
pl	-9.70549
▁badania	-9.7055
▁Bi	-9.7056
▁brat	-9.7061
▁dzieła	-9.70659
▁wspólnie	-9.7069
wid	-9.70753
▁samo	-9.70817
▁człowieka	-9.70838
▁Andrzej	-9.7084
▁Bożej	-9.70944
▁di	-9.70944
▁pełni	-9.70946
▁80.	-9.71059
▁Ti	-9.71104
▁osiągnął	-9.71131
▁dawna	-9.71207
niki	-9.71248
tal	-9.71327
▁Moskwie	-9.71387
stęp	-9.71457
więtego	-9.71569
▁kol	-9.71598
lan	-9.71663
star	-9.71707
▁Karol	-9.71858
▁papież	-9.71896
▁Nad	-9.71976
arz	-9.72028
▁niemieckich	-9.72098
▁obozu	-9.72113
▁albumu	-9.72153
▁postać	-9.72176
now	-9.72226
▁nazwie	-9.72251
lit	-9.72263
▁Ol	-9.72347
▁działa	-9.72428
▁Karola	-9.72498
form	-9.72501
▁Wraz	-9.72555
wol	-9.72572
▁nową	-9.72582
pis	-9.72695
▁piłkarską	-9.72835
▁pozycję	-9.72855
▁gimnazjum	-9.72872
▁położony	-9.73058
▁zostać	-9.73102
▁mieli	-9.73145
ówka	-9.7319
ft	-9.73283
bar	-9.73399
▁reprezentant	-9.73447
tom	-9.73474
▁Rzymie	-9.73528
▁herb	-9.73545
ste	-9.73571
▁drugie	-9.73616
▁należą	-9.73638
▁charakterystycz	-9.73784
▁Park	-9.73812
▁brak	-9.73825
▁systemu	-9.73921
▁podobnie	-9.73939
▁Ostatecznie	-9.7394
▁pięciu	-9.73944
▁kadry	-9.74098
0	-9.74286
▁Ge	-9.74357
▁90.	-9.74404
9	-9.74484
iu	-9.74529
▁prof	-9.74536
▁pokonał	-9.74566
▁Ten	-9.74567
ela	-9.7463
▁Orderu	-9.74635
▁firmy	-9.74658
▁rozpoczęto	-9.74751
ion	-9.74762
▁Piotra	-9.74772
owanych	-9.74829
▁różne	-9.74877
▁związane	-9.74917
sław	-9.74955
▁Man	-9.75022
ag	-9.75091
▁batalionu	-9.75119
cznie	-9.75158
▁para	-9.7518
owskim	-9.75204
▁ataku	-9.75214
▁muzeum	-9.75337
▁powstały	-9.75421
▁Par	-9.75443
▁dyrektorem	-9.75562
ino	-9.75575
▁funkcji	-9.75638
▁zamku	-9.75685
▁właśnie	-9.75707
ała	-9.75735
▁musiał	-9.7578
▁przybył	-9.75798
▁wkrótce	-9.75857
▁polskim	-9.75903
▁sąd	-9.76023
▁płyty	-9.76161
▁Narodów	-9.76203
▁całym	-9.76233
Le	-9.76245
2.	-9.76363
▁przełomie	-9.76379
19	-9.76383
▁1915	-9.76398
▁tytułem	-9.76486
▁ruch	-9.76544
▁Imperium	-9.76566
ator	-9.76607
▁najczęściej	-9.76611
hu	-9.76826
▁książę	-9.76836
▁pułk	-9.76897
ńskiego	-9.77001
▁cyklu	-9.77089
▁Kultury	-9.77191
▁Pierwsza	-9.77212
▁opuścił	-9.7725
▁Nowy	-9.77289
▁autorem	-9.77326
▁Ci	-9.7733
▁Oprócz	-9.77416
▁Wyższej	-9.7745
▁pan	-9.77514
▁żoną	-9.77537
▁regionu	-9.77569
ckiej	-9.77581
▁szczególnie	-9.77613
czu	-9.77668
▁Bra	-9.77676
▁sieci	-9.77726
▁sp	-9.77841
▁numer	-9.77843
▁Aleksandra	-9.7785
70	-9.77873
ss	-9.77874
▁dobrze	-9.77887
▁premiera	-9.77956
▁minister	-9.77991
▁mistrz	-9.78131
▁znalazła	-9.78142
▁piłkarski	-9.78176
god	-9.78305
▁Mal	-9.7833
▁70.	-9.78339
▁Wielkiego	-9.78406
▁Pu	-9.78446
▁celem	-9.78514
yl	-9.78514
praw	-9.7854
▁napisał	-9.78554
kor	-9.78605
obecnie	-9.7864
80	-9.78646
nów	-9.7871
▁Wkrótce	-9.7874
▁państw	-9.78752
chod	-9.78755
owska	-9.78778
▁temu	-9.78818
▁John	-9.78839
▁Sejm	-9.78856
▁Har	-9.78887
▁sprawie	-9.78917
▁zespołem	-9.78917
▁współ	-9.79032
▁Północnej	-9.79033
▁klasztor	-9.79075
▁klubem	-9.79116
▁śmierć	-9.79179
▁Syn	-9.79198
▁odznaczony	-9.79243
fe	-9.79244
▁Per	-9.79256
▁Instytucie	-9.79271
▁awans	-9.79341
▁utworu	-9.79378
kar	-9.79414
▁dzień	-9.79418
▁medale	-9.79423
▁wschodniej	-9.79428
▁Azji	-9.79483
▁wyścigu	-9.79495
▁pomnik	-9.79573
dz	-9.79781
▁Niemcy	-9.79801
▁sześć	-9.79856
▁cel	-9.79941
owaną	-9.79943
▁duże	-9.79953
mat	-9.79994
▁Australii	-9.80005
ren	-9.80007
▁Adam	-9.80039
▁położone	-9.80104
ologii	-9.80165
Bo	-9.80198
▁Polska	-9.80231
▁Jerzego	-9.80271
▁rodzaj	-9.80329
▁układ	-9.80406
hr	-9.80406
▁całkowicie	-9.80579
nt	-9.80743
▁występują	-9.80762
oli	-9.8083
czą	-9.80838
com	-9.80838
▁la	-9.80855
▁Kra	-9.80866
stra	-9.80892
▁60	-9.80957
ps	-9.81018
▁zbudowany	-9.81086
▁opis	-9.81098
▁Znajduje	-9.81106
▁ukazał	-9.81129
▁aktor	-9.81208
▁znajdował	-9.81213
▁autorstwa	-9.81272
▁kampanii	-9.81331
ew	-9.81338
iec	-9.81352
▁zabytków	-9.81403
▁dołączył	-9.81478
vo	-9.81495
▁oddziału	-9.81517
▁Her	-9.81688
ół	-9.81689
▁Bur	-9.81901
▁nowym	-9.8198
29	-9.82033
▁Jak	-9.82051
▁dział	-9.82156
Wśród	-9.82201
▁Tur	-9.82226
ó	-9.82264
ep	-9.82308
▁atak	-9.82315
szą	-9.82322
▁parafia	-9.8235
▁Mat	-9.82352
▁uwagę	-9.82409
▁albo	-9.82444
▁500	-9.82483
▁styl	-9.82589
alny	-9.82694
ley	-9.82732
▁brata	-9.82745
▁pre	-9.82777
▁wzdłuż	-9.82821
▁Austrii	-9.8285
ena	-9.82875
▁Nowej	-9.82908
▁Latem	-9.82919
▁drugiego	-9.82933
▁Władysław	-9.83048
▁zgodnie	-9.83055
▁sytuacji	-9.83101
usa	-9.83137
prze	-9.8314
▁Fo	-9.8326
▁reformy	-9.83355
woł	-9.83375
▁Gi	-9.83391
▁granicach	-9.83394
11	-9.83403
▁badań	-9.83512
▁Czech	-9.83516
▁polską	-9.83523
▁Cor	-9.83575
nu	-9.83592
▁budynków	-9.83663
fr	-9.83682
▁Wilnie	-9.83754
▁Zespół	-9.83769
ou	-9.83856
▁dyrektora	-9.83885
alna	-9.83903
▁głównego	-9.83971
▁zdobywając	-9.83978
▁rodzina	-9.84027
▁północy	-9.84064
▁Ich	-9.84088
oł	-9.84141
try	-9.84175
▁założony	-9.84188
▁Pol	-9.84231
▁wartości	-9.843
uz	-9.84348
▁Kiedy	-9.84373
▁szefa	-9.84385
Ko	-9.84395
end	-9.84396
▁Afryki	-9.84431
▁Er	-9.8464
kowie	-9.84663
▁fakt	-9.84718
▁inżynier	-9.84742
▁Jerzy	-9.8475
▁nimi	-9.84772
▁edycji	-9.84798
▁Stefan	-9.85016
ser	-9.85022
▁generała	-9.85043
▁tymże	-9.85102
▁Os	-9.85129
łu	-9.85202
kowskiego	-9.85257
ura	-9.85285
▁Kazimierza	-9.85331
-1	-9.85452
▁szereg	-9.85519
oną	-9.85554
ńskich	-9.85563
▁przegrał	-9.85582
▁Szwecji	-9.85687
ium	-9.85755
▁stolicy	-9.85772
▁nieco	-9.85797
▁niemal	-9.85834
pad	-9.85874
05	-9.85987
▁Mikołaja	-9.86095
▁Chi	-9.86129
▁łącznie	-9.86149
▁nocy	-9.86156
pp	-9.86232
▁nagrody	-9.86257
▁potrzeb	-9.8627
▁ochrony	-9.86279
▁Mon	-9.86449
ita	-9.86472
tz	-9.86517
▁pojawił	-9.86533
▁Antoni	-9.86598
▁ogłosił	-9.86603
▁Franciszka	-9.86632
60	-9.86659
ple	-9.86744
▁kontynuował	-9.86761
gor	-9.86853
alnej	-9.86907
▁polskie	-9.86992
▁okazji	-9.87017
▁terytorium	-9.87052
lon	-9.87097
22	-9.87131
90	-9.87162
▁generalnej	-9.87192
osa	-9.87209
cer	-9.87239
ica	-9.87283
▁drzew	-9.87305
ckim	-9.87349
▁pałac	-9.87376
▁pa	-9.87414
▁niemieckiego	-9.87441
▁gola	-9.87609
26	-9.87621
con	-9.87664
▁Królestwa	-9.87671
▁pomoc	-9.87723
Re	-9.87925
▁Tour	-9.87935
ov	-9.87965
14	-9.87983
▁400	-9.88101
▁Championship	-9.88102
▁dokonał	-9.8814
▁model	-9.88194
▁Ameryki	-9.88291
▁City	-9.88483
▁dotarł	-9.885
▁Brał	-9.88525
▁klasztoru	-9.8859
▁tutaj	-9.88629
ówki	-9.88651
▁Dwa	-9.8868
▁status	-9.8868
▁Saint	-9.88731
▁Niemców	-9.88818
ckich	-9.88843
przy	-9.88942
▁Los	-9.89023
▁świat	-9.89028
sem	-9.89059
stwa	-9.89075
istów	-9.89222
▁stronę	-9.89227
▁As	-9.8933
wia	-9.89369
▁generał	-9.89432
▁niewoli	-9.89455
▁guberni	-9.89524
▁cesarza	-9.89529
▁tworząc	-9.89556
▁piosenki	-9.89603
▁Kazimierz	-9.89609
▁Okręgu	-9.89653
Mi	-9.89755
dat	-9.89781
▁głównych	-9.89791
dar	-9.89808
▁przegranym	-9.89866
raz	-9.8989
▁dostał	-9.8991
▁Ki	-9.89962
▁Jednocześnie	-9.89989
for	-9.90155
tri	-9.90174
scy	-9.90207
▁op	-9.90259
▁1916	-9.90263
▁działał	-9.90264
35	-9.90368
▁ponadto	-9.9039
27	-9.90417
▁operacji	-9.90426
▁War	-9.90452
▁Grupa	-9.90547
▁częściowo	-9.90555
Li	-9.90584
▁Ukrainy	-9.90587
▁Miasta	-9.90648
czna	-9.90652
▁zmienił	-9.90666
▁Sto	-9.90676
▁Warszawskiego	-9.90688
▁1912	-9.90708
▁University	-9.9074
ien	-9.90769
mierz	-9.90792
nes	-9.90828
▁przewodniczącym	-9.90853
▁Władysława	-9.90916
op	-9.90977
▁udał	-9.90983
95	-9.91044
iny	-9.91107
21	-9.91108
▁więzienia	-9.91115
Ra	-9.91145
▁Już	-9.91156
▁najmniej	-9.91162
▁prezydent	-9.91254
▁zaczęła	-9.9127
▁najpierw	-9.91295
▁Rosyjskiego	-9.91327
31	-9.91431
▁Została	-9.91454
jon	-9.91508
▁kart	-9.91517
▁Kur	-9.91541
▁konkursie	-9.91584
wiąz	-9.91599
▁momentu	-9.91636
▁leży	-9.9165
▁zbyt	-9.91674
top	-9.91706
▁utwory	-9.91763
28	-9.91776
▁książki	-9.91832
hl	-9.91877
▁mieścił	-9.91879
czka	-9.91934
▁Sił	-9.92026
-18	-9.92268
▁Hu	-9.92314
ven	-9.9244
▁bitwy	-9.92497
▁Polaków	-9.92511
iczną	-9.92604
yn	-9.92631
▁60.	-9.92689
▁następnym	-9.92703
▁postanowił	-9.92714
▁sprawował	-9.92745
▁Henryka	-9.92786
cką	-9.92845
▁Michał	-9.92856
45	-9.92866
▁stron	-9.92867
ac	-9.92955
▁Prus	-9.92957
▁córki	-9.92958
he	-9.9301
tka	-9.93057
▁bezpośrednio	-9.93058
▁Polskę	-9.93072
▁League	-9.93141
▁Miasto	-9.93188
alnych	-9.93215
mann	-9.93272
▁jednostek	-9.93419
▁obiekt	-9.93426
▁Bydgoszczy	-9.93426
▁coraz	-9.93431
▁Pracował	-9.93448
▁Stra	-9.93483
oz	-9.93546
mont	-9.93642
▁następujące	-9.93692
gro	-9.93711
nic	-9.93786
▁dalej	-9.93875
Mo	-9.93896
▁Mistrzostwa	-9.93927
▁rozwój	-9.93959
▁odcinku	-9.93973
▁stanął	-9.93982
uk	-9.93982
mana	-9.94009
bin	-9.94024
rów	-9.94072
▁oficjalnie	-9.94106
▁odbyły	-9.94172
illa	-9.94201
▁oni	-9.94232
eb	-9.94251
▁Las	-9.94275
▁możliwość	-9.94278
▁Miał	-9.94353
ród	-9.9441
ung	-9.94426
▁batalion	-9.94464
tro	-9.94479
▁francuski	-9.94511
▁zwykle	-9.94523
▁tytułu	-9.94533
ada	-9.94544
▁papieża	-9.94548
▁gatunku	-9.94559
▁Art	-9.94572
▁Wal	-9.94595
▁Korpusu	-9.94604
tki	-9.94616
up	-9.94743
ył	-9.94746
aty	-9.94762
▁form	-9.94853
ański	-9.95043
Ba	-9.95099
▁niepodległości	-9.95107
ara	-9.95108
jazd	-9.95121
▁Prawa	-9.95176
ling	-9.95189
wier	-9.95189
▁Br	-9.95291
dr	-9.95533
▁Hi	-9.95561
ając	-9.95594
44	-9.95602
▁Nowa	-9.95665
atu	-9.95759
▁trzecie	-9.95785
▁ostatnim	-9.95845
▁cerkwi	-9.95875
▁znane	-9.95925
ville	-9.95959
▁żony	-9.95996
37	-9.96051
▁dość	-9.96127
Sz	-9.96216
alną	-9.96223
▁Club	-9.96315
▁głównej	-9.96326
▁ostatnich	-9.96343
▁bowiem	-9.96347
ór	-9.96378
▁Robert	-9.96407
▁obejmuje	-9.96498
99	-9.96512
gna	-9.96569
off	-9.96574
▁naukowych	-9.96619
▁miast	-9.96648
▁zdecydował	-9.9665
▁północny	-9.96651
▁twórczości	-9.96776
▁droga	-9.96832
szcze	-9.96863
eta	-9.96874
▁wyspy	-9.96875
bli	-9.96876
owca	-9.96925
▁wydana	-9.96936
▁córkę	-9.97048
▁Sztuk	-9.97126
ński	-9.97251
▁zwycięstwo	-9.97276
23	-9.97347
▁mln	-9.97351
▁inicjatywy	-9.97413
kiewicz	-9.97431
ńską	-9.97526
▁blisko	-9.97627
szt	-9.97634
aniu	-9.97647
▁złożył	-9.9768
▁walkach	-9.97689
▁szkoła	-9.97736
04	-9.97774
▁Pre	-9.97792
gra	-9.97814
tus	-9.97821
▁linia	-9.97836
▁pomocnika	-9.97887
duk	-9.97901
▁okupacji	-9.97949
96	-9.97963
nem	-9.97995
▁przestrzeni	-9.98106
Ro	-9.98262
wą	-9.98297
▁Tor	-9.983
ero	-9.98312
▁Działalność	-9.98527
berg	-9.98559
row	-9.98627
▁bądź	-9.98647
har	-9.98699
▁międzywojennym	-9.98766
▁start	-9.98771
alnego	-9.98829
▁ramienia	-9.9884
▁Są	-9.98842
▁okrętów	-9.98874
mal	-9.98996
▁uwagi	-9.99027
ork	-9.99053
ańskiego	-9.99073
▁zawsze	-9.99097
jącego	-9.99182
olog	-9.99204
▁Ostatni	-9.99233
▁najlepszych	-9.99235
mier	-9.99241
▁dyplom	-9.99287
▁Dom	-9.99443
port	-9.99444
ens	-9.99479
▁naukę	-9.99486
▁kurs	-9.99488
77	-9.99513
▁Krzyża	-9.99593
▁Ag	-9.99617
▁kobiety	-9.99688
▁krótko	-9.99704
ong	-9.99968
▁informacji	-9.99984
ża	-10.0001
▁wielo	-10.0007
▁domów	-10.0007
88	-10.0008
17	-10.0015
▁matka	-10.0016
▁drugą	-10.0019
tk	-10.002
▁mniej	-10.0021
▁Adama	-10.0022
13	-10.0022
ah	-10.0027
lę	-10.0027
bro	-10.0031
▁dwoma	-10.0032
▁per	-10.0033
wan	-10.0034
zą	-10.0039
▁okolicach	-10.004
▁znaczenie	-10.004
▁Andrzeja	-10.0041
owanego	-10.0041
ora	-10.0042
▁powiat	-10.0047
▁prezesem	-10.0053
▁dyrektor	-10.0055
▁staw	-10.0058
▁tereny	-10.0059
▁płyt	-10.0062
icznych	-10.0063
▁zastępcą	-10.0064
▁Czerwonej	-10.0067
▁zarządu	-10.0068
▁list	-10.0068
▁maszyn	-10.007
▁konstrukcji	-10.0073
▁uczył	-10.0091
▁wielkości	-10.0091
rys	-10.0092
▁Bal	-10.0095
▁Gimnazjum	-10.0098
▁kompanii	-10.01
▁reprezentował	-10.0101
ujących	-10.0101
ata	-10.0104
sad	-10.0108
nek	-10.0118
boj	-10.0128
▁Rad	-10.0134
▁most	-10.0139
▁charakterze	-10.014
▁udziału	-10.0142
78	-10.0147
▁1910	-10.0147
▁wiek	-10.0147
onych	-10.0152
let	-10.0158
▁minut	-10.0162
▁Henryk	-10.0163
▁dzieł	-10.0167
▁szkół	-10.0176
ńskie	-10.0182
▁so	-10.0186
▁pal	-10.0193
▁znajdowała	-10.0202
93	-10.0205
letni	-10.0208
▁licznych	-10.021
▁Studiował	-10.0216
▁dużą	-10.0218
▁rad	-10.0219
▁Sal	-10.0224
▁zespołów	-10.0225
▁dywizji	-10.0225
przewodniczącego	-10.0227
▁Olimpijskich	-10.0235
tyka	-10.024
▁średniej	-10.0245
▁1905	-10.0248
ola	-10.025
▁parku	-10.0252
▁Nowego	-10.0259
pan	-10.0264
▁Bre	-10.0271
▁Holandii	-10.0281
lec	-10.0284
▁Szwajcarii	-10.0286
ały	-10.0293
▁główny	-10.0295
▁liczbę	-10.0296
▁park	-10.0304
▁gwiazd	-10.0305
98	-10.0308
▁Krajowej	-10.0308
sp	-10.0309
▁mal	-10.031
ris	-10.0313
▁słowa	-10.0313
▁obrońcy	-10.0314
▁PRL	-10.0315
▁dlatego	-10.0319
▁jeziora	-10.0323
myśl	-10.0325
ani	-10.0327
▁staro	-10.0335
▁metra	-10.0335
zja	-10.0335
▁wynik	-10.0336
▁Gro	-10.0337
Ka	-10.0337
▁podziału	-10.0338
▁każdy	-10.034
lik	-10.0341
▁pisarz	-10.0345
▁Wol	-10.0345
ury	-10.0346
86	-10.0354
lt	-10.0354
▁fazie	-10.0356
▁Sie	-10.0362
75	-10.0363
▁odległości	-10.0366
▁Warszawa	-10.0375
▁prób	-10.0376
▁wyznania	-10.0381
36	-10.0385
▁Chin	-10.0388
▁En	-10.0398
▁stało	-10.04
▁organ	-10.0403
▁organizację	-10.0404
▁zrezygnował	-10.0407
ań	-10.0408
▁uzyskała	-10.0411
▁trenerem	-10.0411
▁rodu	-10.0414
głos	-10.0419
▁reżyser	-10.0422
▁osiedla	-10.0424
metr	-10.0425
▁córka	-10.0425
▁okolicy	-10.0426
▁reżyserii	-10.043
▁Unii	-10.0434
▁życiu	-10.0438
▁Gdańsku	-10.044
▁Michała	-10.0445
par	-10.0447
▁uznał	-10.045
ińskiego	-10.0451
▁obrębie	-10.0452
▁SS	-10.0452
▁Zarządu	-10.0454
▁musi	-10.0454
rom	-10.0456
rząd	-10.0462
▁32	-10.0464
ala	-10.0465
rzymskokatolicki	-10.0468
▁całą	-10.0469
▁Ty	-10.047
▁jesienią	-10.0477
▁wchodzi	-10.0477
▁Natomiast	-10.0477
ień	-10.0483
▁35	-10.0483
▁cen	-10.0484
▁turniej	-10.0484
rot	-10.0484
▁zwyciężył	-10.049
▁druga	-10.0491
▁głos	-10.0494
97	-10.0501
▁swej	-10.0509
▁sześciu	-10.0514
ig	-10.0515
lar	-10.052
▁koron	-10.0521
dan	-10.0522
▁Większość	-10.0528
▁administracji	-10.053
kup	-10.0531
▁całego	-10.0532
▁magazyn	-10.0538
01	-10.0538
▁kierownikiem	-10.0539
▁zapis	-10.054
▁cerkiew	-10.0556
▁oficer	-10.0559
▁Poza	-10.0565
▁możliwości	-10.0568
ble	-10.0583
bry	-10.0595
▁żona	-10.0599
▁zakresu	-10.0607
▁Pra	-10.0616
don	-10.0617
roz	-10.0618
▁United	-10.0622
▁gr	-10.0623
▁majątku	-10.0624
ienie	-10.0626
▁1913	-10.0633
▁jakie	-10.0634
▁obowiązki	-10.0635
▁Ab	-10.0635
▁tamże	-10.0635
▁dużej	-10.0636
▁Nagrody	-10.0637
ker	-10.0641
og	-10.0645
▁rynku	-10.0646
47	-10.0649
tur	-10.065
niec	-10.0653
▁krajach	-10.0667
▁wynikiem	-10.0675
▁zajmuje	-10.0678
▁0	-10.0682
kowo	-10.0683
rus	-10.0685
▁Sp	-10.0686
pon	-10.0691
84	-10.0697
▁znana	-10.0699
▁Projekt	-10.0702
▁sztafecie	-10.0721
▁Paweł	-10.0721
▁Han	-10.0723
▁Powszechnego	-10.0733
▁Mur	-10.0748
▁pałacu	-10.0751
▁dotyczące	-10.0758
staw	-10.0762
▁góry	-10.0764
▁każdym	-10.0766
81	-10.0766
▁Wiedniu	-10.0768
▁wojskowych	-10.0768
▁Pierwszym	-10.0768
lew	-10.0772
34	-10.0775
87	-10.0783
kowe	-10.0786
06	-10.0791
41	-10.0794
▁zakończyła	-10.0794
▁tekst	-10.0795
▁skazany	-10.0799
▁opublikował	-10.08
kow	-10.0801
▁europejskich	-10.0801
▁wystartował	-10.0809
ford	-10.0812
gli	-10.0814
▁startował	-10.0816
▁rozkaz	-10.082
▁kor	-10.0821
woj	-10.0823
ujący	-10.0827
▁cmentarz	-10.0833
▁doktor	-10.0841
ban	-10.0846
▁Część	-10.0853
▁pozostawał	-10.0855
ez	-10.0855
▁włoski	-10.0856
▁filmów	-10.086
▁Port	-10.0861
▁mieszkał	-10.0866
łem	-10.0867
▁pary	-10.0869
▁książek	-10.0872
▁bar	-10.0876
▁Tomasz	-10.0878
▁los	-10.0879
zer	-10.0879
▁istnieje	-10.0882
nki	-10.0883
owice	-10.0886
ele	-10.0887
yz	-10.0892
▁trzeciej	-10.0892
▁transport	-10.0896
▁Ber	-10.0896
▁Lip	-10.0897
▁skutek	-10.0898
wszy	-10.0906
▁Między	-10.0915
▁ostatnie	-10.0917
▁Karierę	-10.0921
wierz	-10.0923
▁Włoszech	-10.0923
▁olimpijski	-10.0924
rt	-10.0929
79	-10.093
▁krajów	-10.0933
▁Katowicach	-10.0938
32	-10.0939
ecki	-10.0944
▁zastąpił	-10.0944
▁Wszystkie	-10.0963
▁poseł	-10.0965
▁1911	-10.0977
▁Pomimo	-10.0982
▁synów	-10.0984
kowej	-10.0986
▁wojennych	-10.0987
▁wieży	-10.0988
▁mąż	-10.0992
▁Tar	-10.0995
▁kom	-10.0999
kre	-10.1004
▁seminarium	-10.1005
92	-10.1008
KS	-10.1009
▁brytyjski	-10.1018
46	-10.1019
89	-10.1021
▁Stowarzyszenia	-10.1027
▁Tak	-10.1028
▁Cho	-10.1029
▁1954–1972.	-10.1034
ph	-10.1037
▁Tym	-10.104
▁Sza	-10.104
izmu	-10.1044
▁()	-10.105
▁My	-10.105
▁typ	-10.1054
▁Angeles	-10.1054
len	-10.1058
▁umieszczono	-10.1058
▁chwili	-10.1059
De	-10.1064
94	-10.1065
▁brzegu	-10.1065
czną	-10.1067
▁sejm	-10.1068
▁1908	-10.107
▁Ros	-10.1074
▁Chrystusa	-10.1074
73	-10.1077
▁podróż	-10.1078
▁braci	-10.1079
pu	-10.1079
▁niemieckie	-10.1079
dem	-10.1079
mor	-10.108
▁Royal	-10.1083
cho	-10.1084
▁zaliczył	-10.1087
▁bi	-10.1094
Ar	-10.1096
▁decyzję	-10.1096
ini	-10.1101
▁Mag	-10.1102
▁szef	-10.1104
▁wykonał	-10.1105
▁300	-10.1111
alnym	-10.1112
▁Gr	-10.1117
▁właściwy	-10.1122
▁pojawia	-10.1122
▁Lub	-10.1123
▁dowodził	-10.1126
▁wystąpiła	-10.1129
▁kolejnym	-10.1132
▁Ochrony	-10.1136
38	-10.1138
▁kaplicy	-10.1141
85	-10.1142
ula	-10.1142
▁Stefana	-10.1143
dział	-10.1148
dę	-10.1148
ienia	-10.1149
▁Mikołaj	-10.115
▁polu	-10.115
▁walkę	-10.1151
▁rosyjski	-10.1153
83	-10.1158
▁dobra	-10.116
▁Mistrzostwach	-10.1164
▁port	-10.1171
▁fa	-10.1178
▁Stan	-10.1182
▁wielokrotnie	-10.1184
cją	-10.1188
▁Star	-10.1188
▁wynika	-10.1197
słow	-10.12
▁Ad	-10.1203
▁posła	-10.1204
▁Cmentarzu	-10.121
▁posiadał	-10.121
▁wojskowej	-10.1213
▁wyspie	-10.1213
▁jaskini	-10.1214
▁Instytut	-10.1215
unk	-10.1217
▁Wil	-10.1219
▁zazwyczaj	-10.1221
▁oddziałów	-10.1224
▁władzę	-10.1224
Nie	-10.123
▁siedem	-10.1231
fon	-10.1235
▁Krakowa	-10.1239
▁profesorem	-10.124
wschodni	-10.1247
▁da	-10.1252
▁pokaz	-10.1259
nka	-10.1264
▁weszła	-10.1266
▁wersja	-10.1269
▁będąc	-10.1271
▁stały	-10.1273
han	-10.1278
▁Ke	-10.1281
▁przebiega	-10.1286
▁kolor	-10.1293
▁2.	-10.1297
▁zamek	-10.1301
▁przyrody	-10.1301
▁przyjęty	-10.1308
▁tradycji	-10.1308
▁Liceum	-10.131
▁powstało	-10.1315
59	-10.1317
▁Autor	-10.1317
▁arcybiskup	-10.1321
▁publikacji	-10.1332
65	-10.1333
▁zasad	-10.1334
▁George	-10.1335
▁mistrzostwa	-10.1335
ańskiej	-10.1335
▁jedyny	-10.1336
▁Min	-10.134
▁se	-10.1349
▁por	-10.1352
▁kadrze	-10.1353
74	-10.1353
09	-10.1356
▁wyniki	-10.1356
▁moc	-10.1359
▁(17	-10.136
lig	-10.1375
▁wybudowano	-10.1378
▁trenera	-10.138
bój	-10.1382
▁kg	-10.1384
▁spadł	-10.1386
49	-10.1398
▁zdrowia	-10.1398
-2	-10.14
▁Rzeszy	-10.1401
▁klasie	-10.1402
▁jeśli	-10.1405
▁milionów	-10.1407
▁bramek	-10.1412
▁pozostałych	-10.1412
▁spotkał	-10.1415
▁funkcje	-10.1419
39	-10.1421
82	-10.1423
łów	-10.1425
(	-10.143
▁pory	-10.1435
▁wojna	-10.1438
izm	-10.1439
▁każdej	-10.1442
▁remont	-10.1443
vi	-10.1446
▁Brygady	-10.1451
▁odbywa	-10.1453
▁okrętu	-10.1453
dom	-10.1455
▁zniesionej	-10.1456
▁rejon	-10.1463
▁Spisu	-10.1464
mieni	-10.1466
ju	-10.1469
▁Franciszek	-10.147
lat	-10.1472
▁Dy	-10.1473
91	-10.1474
▁80	-10.1476
ama	-10.1479
▁premier	-10.1481
▁Ram	-10.1489
▁Lublinie	-10.1491
kan	-10.1494
▁Cz	-10.1501
▁lekarz	-10.1501
▁West	-10.1502
▁Open	-10.1502
▁Pułku	-10.1509
▁tygodni	-10.151
▁Ministerstwa	-10.1511
▁zwierząt	-10.1513
ety	-10.1513
onego	-10.1514
▁potrzeby	-10.1514
▁kolejno	-10.1521
48	-10.1527
ąż	-10.1539
07	-10.154
▁front	-10.1541
ari	-10.1545
▁zaledwie	-10.1547
▁występ	-10.1549
▁skąd	-10.155
▁grupę	-10.1555
del	-10.1559
▁południowy	-10.1559
▁Obrony	-10.1559
▁Anny	-10.156
nię	-10.1562
▁kolejowa	-10.1563
▁elementy	-10.1563
▁odniósł	-10.1564
▁festiwalu	-10.1568
owskich	-10.1574
yr	-10.1576
▁duch	-10.1577
Mar	-10.1589
▁Mark	-10.1596
▁własną	-10.1599
arzy	-10.16
▁ba	-10.1602
▁Monachium	-10.1605
▁ołtarz	-10.1608
▁stworzył	-10.1614
▁Meksyku	-10.1616
▁mar	-10.162
▁całości	-10.1624
▁kr	-10.1624
▁AK	-10.1625
▁Mil	-10.1625
▁Tro	-10.1625
▁Ren	-10.163
▁sztabu	-10.1632
▁Col	-10.1633
pt	-10.1634
▁Mont	-10.1641
▁Ludwika	-10.1642
▁sekretarzem	-10.1644
▁Ludwik	-10.1645
▁literatury	-10.1645
▁Budynek	-10.1647
▁zamieszkał	-10.1651
ory	-10.1652
nk	-10.1659
▁rozgrywa	-10.1662
tt	-10.1665
▁mieszkańcy	-10.1666
▁lewej	-10.1668
jącym	-10.167
▁skierowany	-10.1674
ans	-10.1676
iona	-10.1678
▁firma	-10.1679
▁serial	-10.1689
łę	-10.169
▁1906	-10.169
▁właścicielem	-10.1692
▁chciał	-10.1694
▁Con	-10.1694
▁dynastii	-10.1696
śni	-10.1697
ład	-10.1699
ill	-10.1699
log	-10.1701
▁Tom	-10.1708
▁źródeł	-10.1713
▁Związek	-10.1714
▁panowania	-10.1724
33	-10.1725
▁włączono	-10.1726
idae	-10.1726
43	-10.1729
▁córką	-10.1731
▁największych	-10.1736
ts	-10.1738
57	-10.174
▁ilości	-10.1747
▁Kop	-10.1749
▁trój	-10.1749
▁oprócz	-10.1753
▁Ur	-10.1753
▁właściciel	-10.1753
▁Również	-10.1757
42	-10.1761
▁współpracował	-10.1763
▁Sezon	-10.1766
dra	-10.1767
▁ryb	-10.1767
strzel	-10.1769
spo	-10.1772
▁istnienia	-10.1773
szyn	-10.1775
▁Ok	-10.1777
▁włączona	-10.1778
ika	-10.1778
▁przystąpił	-10.178
▁główną	-10.178
▁użytku	-10.1782
▁Zgodni	-10.1782
▁Andr	-10.1786
ujące	-10.1786
▁zdołał	-10.1787
▁zagranicznych	-10.179
▁cesarz	-10.1791
nos	-10.1795
▁długość	-10.1795
▁poszczególnych	-10.1801
▁sztuk	-10.1802
▁1907	-10.1806
▁nadał	-10.1806
▁Paul	-10.1807
▁placu	-10.1812
sion	-10.1814
▁zbrodni	-10.1819
▁źródła	-10.1822
▁rundy	-10.1822
wart	-10.1823
▁dziennikarz	-10.1824
▁udziałem	-10.1825
▁Węgier	-10.1826
66	-10.1828
▁pochodzą	-10.1829
▁siedzibę	-10.1833
Al	-10.1833
und	-10.1834
▁przejął	-10.1842
08	-10.1843
her	-10.1843
ly	-10.1844
łuż	-10.1844
▁momencie	-10.185
yt	-10.1852
▁wypożyczony	-10.1854
kry	-10.1854
▁spo	-10.1855
▁obiektu	-10.1859
▁dziedzinie	-10.186
stal	-10.1863
▁pisma	-10.1863
▁1900	-10.1864
▁Okręgowy	-10.1865
łą	-10.1866
sł	-10.1867
▁szefem	-10.1874
▁członkowie	-10.1877
▁niemiecką	-10.188
▁SRR	-10.1881
▁planie	-10.1883
▁Tadeusz	-10.1889
▁pr	-10.189
▁rozgrywanych	-10.1891
▁dowództwem	-10.1893
▁pola	-10.1901
ap	-10.1906
kowy	-10.1906
ct	-10.1906
▁młodzieży	-10.1908
dawał	-10.1908
▁wojskowy	-10.1909
▁Brazylii	-10.1912
▁zmian	-10.1918
▁prezbiterium	-10.1919
▁Can	-10.1926
▁budynki	-10.1927
▁zbudowano	-10.1928
▁School	-10.193
▁Album	-10.1936
▁Fabuła	-10.195
55	-10.1953
▁dom	-10.1959
legł	-10.196
▁Mc	-10.1964
▁najlepszy	-10.1965
łam	-10.197
▁zwolniony	-10.1977
▁spośród	-10.1978
żu	-10.1979
▁politycznych	-10.199
▁Sztuki	-10.1997
▁współpracę	-10.2001
▁Fe	-10.2004
▁Granicznej	-10.2004
▁Kr	-10.2004
zachodni	-10.2006
▁Ser	-10.2008
jan	-10.2008
▁Polskim	-10.2015
▁rosyjskiej	-10.2015
▁samolot	-10.2022
▁pol	-10.2022
▁Maryi	-10.2022
ald	-10.2026
▁pocztowy	-10.2026
▁upadku	-10.2036
kier	-10.2039
ckie	-10.2061
nią	-10.2064
sia	-10.2068
▁barwy	-10.2069
▁dolarów	-10.207
▁kapitana	-10.2071
▁pw	-10.2072
▁Red	-10.2074
▁rangi	-10.2081
▁mieszka	-10.2084
▁Cu	-10.2088
▁bieg	-10.2091
▁Leży	-10.2093
▁Tri	-10.2094
▁August	-10.2098
iony	-10.2104
czki	-10.2106
ktyw	-10.211
▁1909	-10.211
▁męża	-10.2113
▁Super	-10.2115
ation	-10.2119
▁1000	-10.2122
▁sklep	-10.2123
▁des	-10.2127
▁obozie	-10.2128
▁koncert	-10.2135
▁historię	-10.2136
▁Rol	-10.2142
▁związek	-10.2151
▁bratem	-10.2153
sse	-10.2154
▁Politechniki	-10.2158
▁Sport	-10.2162
iczne	-10.2162
▁edycja	-10.2164
▁70	-10.2167
▁Boga	-10.2171
▁obrazu	-10.2172
▁osiem	-10.2173
owatych	-10.2174
▁bezpieczeństwa	-10.2178
czer	-10.2186
▁Jeszcze	-10.2189
▁historyk	-10.22
owce	-10.2202
▁barw	-10.2203
▁czemu	-10.2205
▁zespoły	-10.2213
▁Wojsk	-10.2214
▁starszeństwem	-10.2215
wers	-10.2221
▁duchowny	-10.2223
▁bramkę	-10.2226
dą	-10.2229
▁Anna	-10.2229
▁Records	-10.2238
wę	-10.224
▁rzędu	-10.2242
▁strzelców	-10.2245
▁innego	-10.2247
▁3.	-10.2248
▁związanych	-10.2249
▁biskupem	-10.2252
▁ulic	-10.2256
▁matki	-10.2259
mel	-10.2259
▁Tadeusza	-10.2263
▁wytwórni	-10.2268
▁Krzyż	-10.2273
wiat	-10.2274
▁Norwegii	-10.2276
▁College	-10.2279
▁niektóre	-10.2281
rem	-10.2282
▁50.	-10.2284
▁klas	-10.2284
▁Naj	-10.2286
▁osad	-10.2286
▁katolicki	-10.2289
eg	-10.2291
▁Belgii	-10.2292
ają	-10.2292
zenie	-10.2296
▁Panny	-10.2297
▁System	-10.23
and	-10.2304
▁bomb	-10.2317
dż	-10.2319
▁bohater	-10.232
▁rywalizacji	-10.2325
▁Okręt	-10.2327
▁1904	-10.2332
▁Kal	-10.2333
▁leżała	-10.234
76	-10.2353
ód	-10.2358
wód	-10.2361
▁połączenia	-10.2371
▁fragment	-10.2373
▁Teatr	-10.2373
nios	-10.2375
▁Celnej	-10.2377
▁gali	-10.238
▁Frank	-10.2381
▁niemieckim	-10.2384
▁kolejnej	-10.2386
▁dokument	-10.2387
▁National	-10.2391
▁Dopiero	-10.2394
▁sumie	-10.2394
▁obszary	-10.2396
▁Sk	-10.2402
▁stanowią	-10.2405
▁piłkarzem	-10.2407
set	-10.2407
▁kompozytor	-10.2408
▁kierunkiem	-10.2411
▁Sol	-10.2415
▁międzynarodowej	-10.2423
An	-10.2424
▁hrabstwie	-10.2427
międzynarodowych	-10.2428
▁znajdując	-10.243
bud	-10.2431
▁wycofał	-10.2433
jącej	-10.2438
▁wykonane	-10.2439
▁towarzyskim	-10.2442
▁teorii	-10.2444
▁służb	-10.2448
▁Com	-10.2453
▁Mer	-10.2453
61	-10.246
▁imienia	-10.2461
▁pracowała	-10.2469
▁zasiadał	-10.247
▁filozofii	-10.2474
▁ster	-10.2478
cko	-10.2485
▁standard	-10.2485
eckiego	-10.2487
▁dóbr	-10.2489
▁eks	-10.249
▁rąk	-10.2495
▁Sar	-10.2495
▁zamieszkiwały	-10.25
▁odcinek	-10.2501
▁najlepszym	-10.2502
▁przekazał	-10.2502
▁Było	-10.2503
▁zawody	-10.2506
▁napis	-10.2508
▁środowiska	-10.2509
licz	-10.251
łe	-10.2517
▁gatunki	-10.2525
▁stracił	-10.2525
▁innym	-10.253
▁spotkaniach	-10.2532
ręb	-10.2533
▁prawej	-10.2536
dze	-10.2536
▁stałe	-10.2537
▁36	-10.2546
▁Edward	-10.2547
gł	-10.2548
▁malarz	-10.2548
▁społeczności	-10.2556
56	-10.2557
bez	-10.2562
awa	-10.2567
▁33	-10.2572
▁Ponieważ	-10.2574
szu	-10.2574
▁określa	-10.2575
▁grzbiet	-10.2577
▁Music	-10.2588
▁każdego	-10.2589
▁prawnik	-10.2592
ther	-10.2593
▁róż	-10.2594
tyn	-10.2594
▁znajdowały	-10.2598
▁Dan	-10.2601
▁folwark	-10.2604
uka	-10.2606
che	-10.2608
53	-10.2612
rob	-10.2613
tr	-10.2614
▁naukowy	-10.2618
▁fazy	-10.2618
owicza	-10.2622
▁jedynym	-10.2624
▁Położenie	-10.2632
▁Cze	-10.2635
cę	-10.2642
▁ręce	-10.265
▁ziem	-10.2657
▁załogi	-10.2658
usza	-10.2658
▁Uniwersytet	-10.2662
▁słab	-10.2663
zan	-10.2663
eniem	-10.2665
▁Marian	-10.2666
▁zginął	-10.2671
tes	-10.2675
▁przeprowadził	-10.2676
roż	-10.2678
▁majątek	-10.2679
▁przedstawiciel	-10.2682
des	-10.2682
▁Kom	-10.2683
owanej	-10.2693
▁parafialny	-10.2697
▁polityki	-10.2697
▁singel	-10.2698
of	-10.2699
▁znanych	-10.2708
▁debiut	-10.2714
kra	-10.2716
▁Igrzyskach	-10.2726
▁Johna	-10.2728
▁umieszczony	-10.2728
▁nosi	-10.2729
▁Wierni	-10.2734
oż	-10.2736
▁późniejszych	-10.2737
▁szlak	-10.2741
▁Londynu	-10.2742
▁stosunku	-10.2742
▁pierwotnie	-10.2752
▁Lud	-10.2756
To	-10.2757
▁doliny	-10.2766
▁Około	-10.2768
▁żonaty	-10.277
▁Potem	-10.2771
▁mianował	-10.2772
▁Najświętszej	-10.2774
▁Mac	-10.2775
▁przynależność	-10.2775
▁Jezusa	-10.2779
▁wygrała	-10.2785
▁Ce	-10.2786
▁Oddziału	-10.2788
▁pobytu	-10.2791
danie	-10.2792
▁emeryturę	-10.2796
▁Gor	-10.2796
▁Rud	-10.2803
▁zatrudniony	-10.2805
▁widzów	-10.281
▁Festiwalu	-10.2812
▁szerokości	-10.2817
▁Trzy	-10.2818
▁Rada	-10.2828
▁przyczyn	-10.2832
▁poziomie	-10.2833
▁Rumunii	-10.2833
Jan	-10.2834
iński	-10.2837
▁Pie	-10.2844
▁dawnej	-10.2846
żyt	-10.285
wana	-10.2851
67	-10.2855
▁wpływem	-10.2858
jącą	-10.286
▁artystów	-10.2868
▁rzeczywistości	-10.2875
▁Hor	-10.2875
▁pojawiła	-10.2876
▁Toruniu	-10.2877
▁spotkanie	-10.2878
▁Gatunek	-10.2879
▁założona	-10.2882
▁próby	-10.2884
sson	-10.2886
▁Tytuł	-10.2888
▁Dar	-10.2888
▁Bud	-10.2892
val	-10.2895
▁Wilhelm	-10.2896
▁próbował	-10.2897
leb	-10.2898
▁Roman	-10.2901
▁Były	-10.2908
03	-10.2915
▁skał	-10.2915
▁sprzedaży	-10.2916
hor	-10.292
Ja	-10.2921
▁siedziba	-10.2921
▁świątynia	-10.2922
▁Th	-10.2923
Ha	-10.2924
▁Kas	-10.2925
ady	-10.2927
▁Państwa	-10.293
pływ	-10.293
Sa	-10.2931
▁Parku	-10.2941
iczna	-10.2946
▁mieści	-10.295
ida	-10.2954
gl	-10.2957
▁45	-10.2958
ns	-10.2964
kie	-10.2965
▁budowa	-10.2967
icy	-10.2972
▁napastnika	-10.2973
kur	-10.2973
▁francuskiej	-10.2976
▁mieć	-10.2978
zę	-10.2987
gni	-10.299
▁pisał	-10.2995
ącznie	-10.2998
In	-10.3004
jo	-10.3005
▁Antoniego	-10.3008
sti	-10.3011
▁dowództwo	-10.3012
▁Głównym	-10.3012
lok	-10.3012
▁obiektów	-10.3013
▁pojedynku	-10.3023
▁późniejszym	-10.3032
▁informacje	-10.3039
ub	-10.3043
▁nastąpiło	-10.3045
▁Grupy	-10.3046
▁lot	-10.3048
▁kraj	-10.3051
▁mogła	-10.3052
wschodniej	-10.3054
▁osada	-10.3054
esa	-10.3054
jskiej	-10.3057
▁kopalni	-10.3058
alnie	-10.3061
51	-10.3063
▁wszyscy	-10.3069
owały	-10.307
▁przydzielony	-10.307
▁braku	-10.3071
▁oper	-10.3071
▁kapłańskie	-10.3072
▁cech	-10.3073
ewski	-10.3074
ery	-10.3078
▁podział	-10.3078
▁kur	-10.3078
▁przedsiębiorstw	-10.308
▁powstanie	-10.3091
▁zarząd	-10.3091
ione	-10.3093
▁Aleksander	-10.3095
Do	-10.3097
lną	-10.3098
▁rewolucji	-10.3101
▁Kot	-10.3103
jprawdopodobniej	-10.3106
▁Pracy	-10.3106
▁nożnej	-10.3108
▁uroczystości	-10.3108
▁Ak	-10.3109
wiad	-10.3112
▁urzędu	-10.3114
pełni	-10.3122
▁Inne	-10.3127
▁Słowacji	-10.3129
▁własne	-10.3129
▁150	-10.3129
▁formy	-10.313
▁Danii	-10.3133
▁konkurs	-10.314
kiego	-10.3141
ciąg	-10.3148
bat	-10.315
52	-10.3153
▁rejestru	-10.3158
cel	-10.3167
▁Ger	-10.3169
rad	-10.3171
kt	-10.318
▁amerykańskiej	-10.3182
▁znajdujący	-10.3185
wać	-10.3185
▁cykl	-10.319
the	-10.319
▁rodziną	-10.3199
▁International	-10.3202
▁Don	-10.3203
ben	-10.3217
lina	-10.3218
▁Czar	-10.3218
▁Bel	-10.3226
▁Generalnego	-10.3228
isty	-10.323
▁administracyjny	-10.3233
▁du	-10.3233
▁torped	-10.3234
▁protest	-10.3234
zki	-10.3234
▁termin	-10.3235
▁rzeką	-10.3244
▁norm	-10.3246
▁zależności	-10.325
▁cześć	-10.3251
▁kat	-10.3254
rza	-10.3257
ff	-10.3257
▁bramki	-10.326
▁linię	-10.3263
▁duży	-10.3265
▁figur	-10.3271
▁tworzy	-10.3277
nął	-10.3278
▁pracowników	-10.3281
▁wskutek	-10.3281
▁uczniów	-10.3285
▁Budowa	-10.3285
▁młodych	-10.3286
gh	-10.3287
▁(1	-10.3289
▁powstaniu	-10.3293
▁Cie	-10.3294
▁Izraela	-10.3295
▁Pochowany	-10.3296
▁nazwiska	-10.3304
▁ożenił	-10.3304
▁komputer	-10.332
▁Zasługi	-10.3321
two	-10.3322
▁Martin	-10.3324
▁szyb	-10.3327
▁klubów	-10.3329
▁Ludności	-10.333
▁godzin	-10.3332
kr	-10.3334
zachodniej	-10.3338
oni	-10.3338
lem	-10.334
▁Is	-10.3341
▁mało	-10.3343
▁Praw	-10.3344
▁obwodu	-10.3346
▁drewniany	-10.3349
▁Europejskiej	-10.335
▁Cup	-10.3354
▁konkursu	-10.3357
▁narodową	-10.3363
▁kształcie	-10.3364
kim	-10.3366
▁wymaga	-10.3368
▁34	-10.337
▁kop	-10.3373
▁rodzin	-10.3375
▁Wyniki	-10.3376
▁Pas	-10.3377
liw	-10.3378
Pro	-10.3383
▁Sejmu	-10.3383
▁wolności	-10.3388
naj	-10.3391
▁zremisowanym	-10.3393
▁ranny	-10.3394
58	-10.3395
▁muzykę	-10.3398
▁powieść	-10.34
▁wydania	-10.3412
anda	-10.3412
▁wydarzenia	-10.3415
▁goli	-10.3416
czar	-10.3417
rica	-10.3424
czne	-10.3427
nikiem	-10.3428
fo	-10.3428
63	-10.3429
▁Grodzki	-10.3431
▁Wysp	-10.3433
▁Kanady	-10.3434
Ta	-10.3437
▁większych	-10.3441
▁trasy	-10.3444
▁weszły	-10.3446
▁Ter	-10.3457
▁samolotów	-10.3457
bieg	-10.3461
▁trzecim	-10.3463
▁Gar	-10.3464
▁Federacji	-10.3466
kowi	-10.3466
iki	-10.3466
▁obronił	-10.3474
▁francuskiego	-10.3477
▁Jas	-10.3482
▁żył	-10.3483
▁Grecji	-10.3488
▁swych	-10.3489
ląd	-10.3492
szk	-10.3494
▁Utwór	-10.3494
▁chociaż	-10.3498
▁komisji	-10.35
▁1903	-10.3502
enberg	-10.3507
yć	-10.3509
▁obszaru	-10.3509
▁ukraiński	-10.3518
▁Est	-10.3518
▁Podobnie	-10.3519
▁podstawowym	-10.3522
▁reprezentacja	-10.3522
▁wojną	-10.3523
▁kości	-10.3524
▁szpitala	-10.3524
lep	-10.3524
czyk	-10.3528
zyska	-10.353
Ho	-10.3531
▁Plan	-10.3531
wor	-10.3531
▁Oddział	-10.3533
▁Ameryce	-10.3536
rol	-10.3538
szka	-10.3544
▁Jeden	-10.3548
▁młodzież	-10.3548
▁zwyczaj	-10.3552
▁Występuje	-10.3555
▁ton	-10.3561
64	-10.3564
▁należący	-10.3565
▁Bol	-10.3569
▁Hol	-10.3572
▁kra	-10.3573
▁misji	-10.358
py	-10.358
▁Woj	-10.358
▁sielsowiecie	-10.3587
lis	-10.3591
▁materiału	-10.3591
ańska	-10.3599
ell	-10.36
onu	-10.3605
▁tuż	-10.3605
▁okupacją	-10.3606
▁for	-10.3607
▁SC	-10.3607
▁opisał	-10.3608
▁terenach	-10.3611
▁kolej	-10.3622
▁Para	-10.3627
▁przemysł	-10.3628
▁mówi	-10.363
gę	-10.3635
-17	-10.3636
▁szpital	-10.364
cjon	-10.3643
▁Mistrzów	-10.3649
▁Następn	-10.3649
▁Komitet	-10.3655
iel	-10.3656
–17	-10.3656
więtej	-10.3658
▁archidiecezji	-10.3667
▁dużym	-10.3675
▁zakład	-10.3677
▁partner	-10.3679
▁symbol	-10.368
▁listę	-10.368
▁ukończyła	-10.3682
▁południu	-10.3684
▁myśli	-10.3688
▁Kry	-10.3691
dia	-10.3694
▁krytyk	-10.3694
▁bazie	-10.3695
▁Louis	-10.3698
▁ukazała	-10.3698
▁obronie	-10.3702
▁Nr	-10.3703
▁nazywa	-10.3704
łow	-10.3707
▁kultur	-10.371
▁małżeństwa	-10.371
ord	-10.3713
▁uczestnik	-10.3717
▁głowy	-10.3719
dro	-10.3719
▁min	-10.3721
▁Hal	-10.3727
▁akt	-10.3728
▁kolejowej	-10.3728
tera	-10.3729
▁przedstawicieli	-10.373
▁Tre	-10.3733
ois	-10.3734
▁swą	-10.3735
▁stwierdził	-10.3735
▁wypadku	-10.374
▁mistrzowski	-10.3744
daw	-10.3748
▁pamięci	-10.3751
▁elementów	-10.3753
▁Wit	-10.3755
owską	-10.3755
▁All	-10.3755
nice	-10.3759
▁dach	-10.376
▁materiał	-10.3764
Or	-10.3766
▁Kol	-10.3767
biał	-10.3769
▁zakonu	-10.3776
wanie	-10.3778
▁mor	-10.378
▁długo	-10.3782
▁etap	-10.3783
▁przeniesiono	-10.3784
▁Au	-10.3786
▁Ste	-10.3787
eckim	-10.379
burg	-10.3791
▁rozpoczęły	-10.3793
▁następnych	-10.3793
▁miejscem	-10.3793
różni	-10.3796
▁piosenka	-10.3796
▁podróży	-10.3799
dana	-10.3799
▁główne	-10.3802
▁Fu	-10.3804
mus	-10.3804
▁formacji	-10.3807
ektor	-10.3809
▁ustaw	-10.381
▁Far	-10.3818
inie	-10.3818
▁uważa	-10.382
▁licząc	-10.382
leż	-10.3822
▁inni	-10.3822
▁tłumacz	-10.3823
▁Uczestniczył	-10.3826
ląska	-10.3827
▁Leon	-10.3828
▁środków	-10.3829
ring	-10.3837
▁Ek	-10.3839
kop	-10.384
oj	-10.3842
▁tabeli	-10.3844
▁swym	-10.3845
part	-10.3849
icznej	-10.3851
▁głosów	-10.3851
czył	-10.3853
▁US	-10.3853
Tr	-10.3855
▁Europejskiego	-10.3858
▁wymienia	-10.3862
▁szar	-10.3865
stą	-10.3869
▁miejscach	-10.387
69	-10.3874
▁Sanoku	-10.3876
all	-10.3878
▁kierownika	-10.3878
▁warszawskim	-10.3879
▁sekretarza	-10.3879
▁drogą	-10.388
▁uczęszczał	-10.3881
▁amerykańskich	-10.3885
▁parlamentu	-10.3888
▁koni	-10.3889
▁sport	-10.389
▁poniżej	-10.389
▁wydarzeń	-10.3892
▁ostatniej	-10.3894
▁punktu	-10.3895
Pi	-10.3895
gg	-10.3901
ick	-10.3903
eł	-10.3904
▁mas	-10.3908
ert	-10.3909
▁wydała	-10.3911
▁sto	-10.3911
▁Izby	-10.3912
–19	-10.3912
▁stadion	-10.3916
▁skrzydła	-10.3917
▁organizacja	-10.3918
▁Aleksandr	-10.3923
ius	-10.3924
▁modelu	-10.3925
68	-10.3928
▁Doliny	-10.3929
▁zyskał	-10.3929
▁Kat	-10.3934
górski	-10.3938
kową	-10.3938
▁zorganizował	-10.394
▁Wojennej	-10.3945
ryn	-10.3945
tter	-10.3946
▁zastępca	-10.3946
stein	-10.3948
▁eliminacjach	-10.3954
▁wyraz	-10.3955
▁obejmując	-10.3955
▁pozostałe	-10.3956
▁piłki	-10.3958
owni	-10.3962
▁członka	-10.3964
ria	-10.3966
▁pokoju	-10.3969
▁Fryderyka	-10.397
▁pożar	-10.3971
▁tr	-10.3971
pal	-10.3975
▁wzniesiono	-10.3976
▁żołnierze	-10.3979
PA	-10.398
nor	-10.398
▁chór	-10.3983
Pa	-10.3984
▁osi	-10.3984
tion	-10.3986
▁Augusta	-10.3989
▁Wydział	-10.399
▁Cy	-10.3992
not	-10.3992
▁Mary	-10.3994
▁motyw	-10.3995
▁noc	-10.3997
nicza	-10.3997
▁rządzie	-10.3999
▁CD	-10.4001
▁Niektóre	-10.4003
ise	-10.4005
▁rezerwy	-10.4013
▁Op	-10.4015
SP	-10.402
ort	-10.402
▁najważniejszych	-10.4023
▁warszawskiego	-10.4024
▁sprzed	-10.4026
▁trans	-10.4028
pas	-10.403
▁pomysł	-10.403
▁siedmiu	-10.4032
ewskiego	-10.4035
▁rozgrywki	-10.4036
łoż	-10.4036
▁wprowadził	-10.4039
ori	-10.4042
▁przegrywając	-10.4042
las	-10.4043
▁Inter	-10.4043
jskiego	-10.4044
▁kawaler	-10.4047
▁metal	-10.4047
▁akademicki	-10.4049
▁zwycięstwa	-10.405
▁utworzył	-10.405
arka	-10.4052
ryt	-10.4055
yna	-10.4058
▁dzieło	-10.406
▁wciąż	-10.406
▁Piosenki	-10.4061
▁wielkiego	-10.4061
▁brygady	-10.4064
▁dawnego	-10.4065
▁zbiór	-10.4065
kowych	-10.4068
ith	-10.407
62	-10.4074
▁plac	-10.4077
▁egzamin	-10.4082
▁jednakże	-10.4084
▁silnie	-10.4085
▁rządów	-10.4086
71	-10.4091
▁odbyło	-10.4094
▁Turcji	-10.4095
▁żadnego	-10.4095
▁oba	-10.4099
▁dodatkowo	-10.4099
▁Król	-10.4099
▁Wojskowej	-10.4103
▁Szkoła	-10.4103
▁Wojciech	-10.4105
▁studyjny	-10.4107
▁Ukrainie	-10.4107
▁30.	-10.4107
▁wiernych	-10.4111
▁korpusie	-10.4111
▁nazwisko	-10.4112
▁występów	-10.4113
▁bram	-10.4116
▁tą	-10.4116
rg	-10.4118
▁Ali	-10.4122
▁wewnątrz	-10.4125
▁granicę	-10.4125
▁pole	-10.413
rocz	-10.4131
lna	-10.4132
acie	-10.4132
▁ran	-10.4132
▁van	-10.4133
▁okazał	-10.4136
▁zastępcy	-10.4137
▁2023	-10.4139
ownik	-10.4141
▁stoczni	-10.4141
▁spotyka	-10.4144
▁ciąg	-10.4144
▁amerykańskiego	-10.4145
owaniem	-10.4148
Co	-10.4149
▁imieniu	-10.4154
Me	-10.4156
▁zmieniono	-10.4157
▁decyzji	-10.4158
▁zbudowana	-10.4164
Wy	-10.4164
▁Jakub	-10.4165
ciu	-10.4167
▁wysokość	-10.4168
▁egzemplarzy	-10.4172
miesz	-10.4172
▁spod	-10.4173
▁Zgromadzenia	-10.4177
▁Przebieg	-10.4178
▁Teatru	-10.4178
się	-10.4178
▁sceny	-10.4178
▁finał	-10.4179
gre	-10.4181
▁Rock	-10.4193
anu	-10.4198
▁kontakt	-10.4201
▁odpowiedzi	-10.4202
▁policji	-10.4203
▁wielki	-10.4203
shi	-10.4203
▁północnym	-10.4204
▁wykonany	-10.4205
▁dys	-10.4205
▁wadze	-10.4206
cię	-10.4206
-3	-10.4213
▁tj	-10.4214
▁kawalerii	-10.4215
mian	-10.4216
▁awansowany	-10.4216
Kościół	-10.4217
▁Peter	-10.4217
▁ścian	-10.4221
▁osiedle	-10.4222
▁nastąpił	-10.4223
▁wybudowany	-10.4223
▁Hel	-10.4223
▁skoczni	-10.4226
▁Euro	-10.4228
▁Okres	-10.4228
▁sol	-10.4231
nisz	-10.4231
▁Wcześniej	-10.4233
▁drużyną	-10.4233
▁odcinków	-10.4234
▁kamieni	-10.4234
▁David	-10.4234
▁38	-10.4236
▁Nowo	-10.424
▁będą	-10.4241
▁Organizacji	-10.4242
▁Land	-10.4245
▁opowiada	-10.4253
grob	-10.4258
▁kal	-10.4259
gad	-10.4261
▁przyczynił	-10.4261
cznych	-10.4262
▁del	-10.4266
So	-10.4272
▁fal	-10.4272
tre	-10.4276
▁znalazły	-10.4277
▁powierzchnię	-10.428
▁floty	-10.4281
nis	-10.4281
ól	-10.4283
▁bronił	-10.4284
▁Jur	-10.4285
▁Filip	-10.4289
▁leżał	-10.4292
▁ciało	-10.4296
▁Krzysztof	-10.4299
▁Bad	-10.43
▁odbywał	-10.43
▁Finlandii	-10.4301
▁prom	-10.4309
▁prezesa	-10.4309
▁muzyczny	-10.431
▁używany	-10.4311
Te	-10.4312
▁Pełnił	-10.4312
jąca	-10.4313
▁Mir	-10.4314
erem	-10.4314
▁King	-10.4316
▁Plat	-10.4322
ieniu	-10.4326
▁dopływ	-10.4336
gt	-10.4336
red	-10.434
▁Mel	-10.434
▁układu	-10.4341
ón	-10.4345
▁zostanie	-10.4351
▁używane	-10.4357
iści	-10.4357
▁całe	-10.4361
▁Irlandii	-10.4362
onej	-10.4367
uf	-10.4367
▁Rzymu	-10.4372
▁przeszłości	-10.4376
▁Towarzystwo	-10.4377
net	-10.4383
kla	-10.4386
▁pokonując	-10.4391
szedł	-10.4393
▁Pierwszą	-10.4397
▁wyjątkiem	-10.4397
▁środkowej	-10.4397
fra	-10.4403
▁Sko	-10.4404
▁Gen	-10.4406
sona	-10.4407
twa	-10.4409
▁Pięknych	-10.441
▁sprawy	-10.441
ańskim	-10.4412
▁będący	-10.4415
▁terenu	-10.4415
▁Ed	-10.4418
▁lek	-10.4419
▁ustalono	-10.442
▁społecznych	-10.442
▁dużych	-10.4425
▁drzwi	-10.4426
▁obie	-10.4426
▁umieszczone	-10.4436
▁James	-10.4437
▁NKWD	-10.4438
▁możliwe	-10.444
▁któremu	-10.4442
bran	-10.4443
▁pop	-10.4444
▁angielski	-10.4447
rk	-10.4447
▁Bośni	-10.4447
▁Bank	-10.4452
▁przekaz	-10.4452
▁karę	-10.4454
cznej	-10.4456
▁kilometrów	-10.4457
▁obrazy	-10.4458
nar	-10.4463
▁rankingu	-10.4468
▁Kraj	-10.4469
ąc	-10.447
▁przemian	-10.447
asa	-10.4471
▁Warszawskiej	-10.4471
▁ono	-10.4473
▁więzieniu	-10.4475
▁Kara	-10.4478
▁1902	-10.4479
▁piosenek	-10.448
▁Jar	-10.4481
▁wygląd	-10.449
▁instrument	-10.4496
▁populacji	-10.4496
▁Armia	-10.4498
▁magistra	-10.4498
▁uległ	-10.4498
▁zatytułowany	-10.4499
▁Men	-10.4499
▁Zygmunta	-10.4501
▁Jean	-10.4501
▁element	-10.4503
zon	-10.4511
▁rezerw	-10.4511
prowadza	-10.4513
cal	-10.4514
▁37	-10.4517
▁stoi	-10.452
▁uznany	-10.4521
▁Marcin	-10.4523
▁Ir	-10.4524
▁Obraz	-10.4525
▁Trzeci	-10.453
▁Państwowej	-10.453
▁tworzą	-10.4531
▁Paryża	-10.4535
▁Santa	-10.4543
▁pojawiły	-10.4544
▁Lwowa	-10.4545
sek	-10.4547
pł	-10.4549
▁sekretarz	-10.4549
▁żydowskiej	-10.4551
▁królem	-10.4554
▁telewizji	-10.4557
▁Rio	-10.4558
poli	-10.4558
▁Chicago	-10.4564
Je	-10.4567
▁lokalnych	-10.4569
rd	-10.4573
▁Sztabu	-10.4577
kwatera	-10.4577
▁Rodzina	-10.458
▁test	-10.4582
▁własnością	-10.4584
▁1901	-10.4588
anta	-10.4589
ras	-10.4589
▁kanał	-10.459
▁Program	-10.4591
▁jaki	-10.4599
▁okręg	-10.46
szenia	-10.4604
▁Prace	-10.4613
vin	-10.4614
dow	-10.4617
▁zarazem	-10.4619
archi	-10.4624
▁programie	-10.4625
▁piłkarska	-10.4629
wiec	-10.4631
02	-10.4633
▁Odrodzenia	-10.4634
▁Hall	-10.4637
▁właśc	-10.4638
▁FK	-10.4645
chodzi	-10.4646
owanym	-10.4646
▁bazy	-10.4649
acz	-10.4649
▁Należał	-10.4649
▁miejskiej	-10.4652
▁90	-10.4653
▁firmę	-10.4653
▁sezonach	-10.4657
▁Bułgarii	-10.467
▁Pradze	-10.4671
▁grupą	-10.4673
cje	-10.4673
▁uzyskując	-10.4674
ight	-10.4675
▁domach	-10.4677
łac	-10.4678
▁Dr	-10.4683
▁minucie	-10.4684
▁1500	-10.4687
osi	-10.469
▁zamiast	-10.4692
ast	-10.4692
iczny	-10.4705
śl	-10.4706
▁At	-10.4707
twór	-10.4708
▁dwór	-10.4709
▁wzięła	-10.4709
▁Bat	-10.471
▁Air	-10.471
▁przewodniczący	-10.4712
▁związana	-10.4712
▁(2	-10.4713
▁zaczyna	-10.4713
nit	-10.4719
▁odpowiednio	-10.4723
ucz	-10.4727
▁Ska	-10.4728
ip	-10.4732
trzyma	-10.4733
▁grani	-10.4734
▁rannych	-10.4737
▁Orderem	-10.4738
▁Premier	-10.474
▁płyta	-10.4744
▁młyn	-10.4745
Se	-10.4747
▁boku	-10.4747
arch	-10.4749
ate	-10.4754
▁bank	-10.4757
▁żadnych	-10.4761
ima	-10.4764
▁południowym	-10.4765
▁wydanie	-10.4766
pel	-10.4767
▁Ostr	-10.477
icznym	-10.477
▁ustawy	-10.4771
▁1897	-10.4774
▁źródło	-10.4774
ves	-10.4774
▁Jednym	-10.4776
▁trwał	-10.4778
▁patrol	-10.478
▁wstęp	-10.4781
▁not	-10.4784
▁Il	-10.4786
▁rodzinnym	-10.4786
hy	-10.4787
▁choroby	-10.4787
▁1898	-10.4788
▁Rząd	-10.4793
▁Wojskowego	-10.4798
osz	-10.48
uli	-10.48
hal	-10.4801
▁mogli	-10.4801
ller	-10.4802
ota	-10.4802
▁Kraków	-10.4803
▁stylem	-10.4803
▁sama	-10.4803
▁taki	-10.4805
dal	-10.4809
spor	-10.4811
▁Pułk	-10.4813
lecia	-10.4815
▁Legionów	-10.482
▁Nor	-10.482
▁Głównego	-10.4821
▁placówki	-10.4821
▁kaplica	-10.4823
publi	-10.4823
▁tronu	-10.4826
Be	-10.4828
▁pewien	-10.4832
czew	-10.4833
▁niedo	-10.4833
ęk	-10.4835
low	-10.4835
Lo	-10.4837
▁Parlamentu	-10.484
▁Wielki	-10.4841
▁Drugi	-10.4842
▁Bezpieczeństwa	-10.4842
brzeż	-10.4843
▁Michael	-10.4844
Wi	-10.4846
▁Kle	-10.4846
▁Em	-10.4848
▁ligowych	-10.4849
ella	-10.4851
prac	-10.4854
▁Wojciecha	-10.4855
▁rzeka	-10.4857
▁stadionie	-10.4861
▁gracz	-10.4863
▁Aby	-10.4863
▁dotychczas	-10.4864
▁dziennik	-10.487
bal	-10.4878
▁tekstów	-10.4881
▁trwa	-10.4883
▁ślub	-10.4885
tyl	-10.4888
vis	-10.489
▁zdobyli	-10.4892
ologia	-10.4892
▁złote	-10.4894
▁drogę	-10.4895
▁fotograf	-10.4896
▁przeszła	-10.4896
czyński	-10.4903
▁samolotu	-10.4906
▁Członek	-10.4908
▁Fin	-10.4913
▁tle	-10.492
▁dziecko	-10.492
zona	-10.4923
▁wyraźnie	-10.4924
▁osiągnęła	-10.4927
▁uplasował	-10.4927
▁budowie	-10.4928
▁nakładem	-10.4928
▁1896	-10.4932
▁autora	-10.4934
▁wiadomo	-10.4936
sil	-10.4937
▁Fran	-10.4938
strze	-10.4939
iceprzewodnicząc	-10.4942
dź	-10.4946
▁kompleks	-10.4947
szym	-10.4948
▁początek	-10.4949
iana	-10.4951
▁klucz	-10.4952
▁połączenie	-10.4952
▁otwarto	-10.4954
dyn	-10.4955
▁urodziła	-10.4955
chi	-10.4962
▁szczególności	-10.4963
▁mężem	-10.4965
▁terenów	-10.4969
▁ojcem	-10.497
▁więźniów	-10.497
lne	-10.4972
▁wyróżnia	-10.4972
▁krwi	-10.4973
bas	-10.4973
▁For	-10.4977
▁studentów	-10.4988
sar	-10.4988
▁przekład	-10.4989
▁Bro	-10.499
szki	-10.4992
▁Architektura	-10.4992
▁chor	-10.4995
▁problemy	-10.5
▁Mart	-10.5
▁sukcesy	-10.5002
ess	-10.5002
ille	-10.5004
▁powiedział	-10.5007
▁Straż	-10.5008
▁tworzył	-10.5008
kiej	-10.5011
▁numerem	-10.5011
▁przeciwnika	-10.5018
taj	-10.5023
boż	-10.5026
▁gości	-10.5027
ssa	-10.5031
▁wileńskim	-10.5032
lod	-10.5036
▁doktorat	-10.5037
▁skarb	-10.5037
van	-10.5041
▁administrację	-10.5041
▁ogłoszono	-10.5041
▁zachodu	-10.5046
▁szpitalu	-10.5049
▁zaborów	-10.505
▁pracowni	-10.5052
wen	-10.5056
klas	-10.5056
▁katedry	-10.5058
▁scenie	-10.5059
var	-10.5062
▁Dęb	-10.5062
▁mając	-10.5063
▁zajęli	-10.5064
▁Góry	-10.5071
▁Poli	-10.5072
▁miejskich	-10.5078
▁1899	-10.508
tha	-10.5087
▁zł	-10.5087
pokoj	-10.5093
czny	-10.5097
▁reprezentacją	-10.5098
▁zamian	-10.51
ywał	-10.5102
▁pomimo	-10.5104
▁tyle	-10.5109
▁znaleźć	-10.5111
▁Medal	-10.5111
▁gier	-10.5115
ance	-10.5116
▁pływa	-10.5116
▁występy	-10.5119
▁wieża	-10.5119
stos	-10.512
organiz	-10.5121
▁1895	-10.5121
ug	-10.5122
lla	-10.5123
lor	-10.5126
▁latem	-10.514
▁Kolej	-10.5141
▁su	-10.5141
▁własnych	-10.5142
▁siostry	-10.5143
cem	-10.5143
▁car	-10.5145
▁długi	-10.5147
▁pochodzący	-10.5147
wania	-10.5147
▁domowej	-10.5149
▁dotychczasowych	-10.5151
▁naukowe	-10.5154
▁Pochodził	-10.5155
▁Wówczas	-10.5155
pla	-10.5159
▁imieniem	-10.516
72	-10.5162
▁katolickiego	-10.5163
szer	-10.5165
▁Obiekt	-10.5165
▁krótki	-10.5167
▁wizyt	-10.5167
▁przyjaciół	-10.5167
▁rzeźb	-10.5168
▁der	-10.5172
▁trzykrotnie	-10.5172
▁Zygmunt	-10.5174
▁(16	-10.5175
▁założenia	-10.5176
dzenia	-10.5178
▁Copa	-10.5179
▁największym	-10.5182
ciel	-10.5184
▁relacji	-10.5185
▁wyp	-10.5186
▁poślubił	-10.5189
▁chce	-10.5191
▁rozpoczynał	-10.5191
▁Radzieckiego	-10.5196
bul	-10.52
▁Gre	-10.5205
ity	-10.5206
▁ja	-10.5208
▁Jakuba	-10.5209
▁Lista	-10.5209
▁okręty	-10.521
▁artysty	-10.5212
▁region	-10.5212
▁własnej	-10.5213
lek	-10.5214
▁nadano	-10.5214
▁zmarła	-10.5214
▁Wystąpił	-10.5215
▁dźwięk	-10.5215
▁słup	-10.5217
▁urzędnik	-10.5218
▁wybuch	-10.5219
zji	-10.5221
ija	-10.5222
▁większą	-10.5223
oba	-10.5224
▁pokład	-10.5224
▁rokiem	-10.5226
▁upraw	-10.5228
▁aktorka	-10.5229
czo	-10.5232
rn	-10.5232
▁średnio	-10.5233
migr	-10.5235
▁półfinale	-10.5243
▁Gromadę	-10.5243
▁Strzelców	-10.5245
▁Kos	-10.5245
▁wyszła	-10.5245
▁miesiące	-10.5247
▁zdał	-10.5253
▁przeprowadza	-10.5259
▁Indian	-10.5259
szko	-10.5259
▁samochód	-10.5261
oc	-10.5262
▁konflikt	-10.5263
rek	-10.5267
▁Bru	-10.5268
bert	-10.5268
ńca	-10.5276
▁holenderski	-10.5281
ucha	-10.5287
▁indywidualnym	-10.5289
age	-10.5289
▁Młodzieży	-10.5291
szkol	-10.5294
▁ludność	-10.5295
▁majora	-10.5296
▁sprincie	-10.5297
▁sekcji	-10.5298
▁procesu	-10.5302
▁Flor	-10.5302
▁prawosławnego	-10.5305
▁Kilka	-10.5313
▁mający	-10.5317
cin	-10.5319
szej	-10.532
bus	-10.532
▁eliminacji	-10.5321
▁miastem	-10.5323
▁lotnictwa	-10.5323
▁Samo	-10.5324
▁pedagog	-10.5327
▁szeroko	-10.5328
▁Kolejne	-10.5328
▁Historii	-10.5329
▁Teatrze	-10.533
▁należeli	-10.533
▁dawniej	-10.533
▁medalistka	-10.5332
▁Che	-10.5333
owicach	-10.5333
▁śmiercią	-10.5336
▁krawędzi	-10.5339
łości	-10.5342
▁seria	-10.5343
▁płat	-10.5343
Jo	-10.5345
▁dokonano	-10.5356
▁wniosek	-10.5357
ls	-10.536
wil	-10.5361
▁zapas	-10.5361
▁Pil	-10.5365
▁Pierwotnie	-10.5366
▁North	-10.5368
przed	-10.5369
▁Kanadzie	-10.5369
dni	-10.5372
▁Lot	-10.5375
nera	-10.5378
▁obywatel	-10.5385
▁ośmiu	-10.5385
▁Róż	-10.5393
zka	-10.5395
▁najwyższej	-10.5395
▁miłości	-10.5396
gal	-10.5397
▁państwo	-10.5398
▁kończąc	-10.5401
▁transportu	-10.5403
▁pogrzeb	-10.5403
▁UEFA	-10.5406
▁większe	-10.5413
▁Korei	-10.5415
wodz	-10.5415
▁zaczęły	-10.5417
▁struktury	-10.5417
:00	-10.5418
▁papier	-10.5421
▁występowania	-10.5425
▁ros	-10.5432
▁Wtedy	-10.5432
▁Shi	-10.5433
bla	-10.5435
▁inny	-10.5436
▁dystansie	-10.5439
▁wezwaniem	-10.5444
▁straty	-10.5446
▁Góra	-10.5446
▁zajęcia	-10.5447
kowego	-10.5447
ró	-10.545
anów	-10.5452
onie	-10.5452
tzw	-10.5453
▁wyruszył	-10.5459
▁Bell	-10.546
▁przemysłu	-10.5461
▁przeprowadzono	-10.5465
▁filmowy	-10.5467
▁wewnętrznych	-10.5467
▁czwarty	-10.5468
mb	-10.5469
▁Prawdopodobnie	-10.547
▁(15	-10.5472
bach	-10.5473
▁przeprowadzonej	-10.5474
▁Występował	-10.5479
▁zalicza	-10.5481
▁następnego	-10.5484
kowym	-10.5484
stwem	-10.5489
wiz	-10.549
▁wyrok	-10.5491
owem	-10.5491
▁Del	-10.5493
▁łączy	-10.5493
kapit	-10.5494
▁różnic	-10.5498
koł	-10.5498
▁Zakład	-10.5498
▁Swoją	-10.5498
▁pozostałości	-10.5499
gin	-10.5503
▁wprowadzono	-10.5504
▁struktur	-10.5506
▁By	-10.5507
iusz	-10.5509
▁teledysk	-10.5511
▁sukcesem	-10.5514
▁(3	-10.5519
▁warunki	-10.5519
▁pow	-10.5521
▁zakaz	-10.5522
czę	-10.5522
▁ówczesnego	-10.5523
hn	-10.5525
rb	-10.5525
▁wiary	-10.5526
▁granicą	-10.5537
nat	-10.5538
▁formę	-10.5539
▁uchwały	-10.5541
icznego	-10.5543
dał	-10.5544
▁prowadząc	-10.5545
▁piłce	-10.5545
▁pozwala	-10.5546
▁architekt	-10.5547
śle	-10.5551
wyż	-10.5553
▁silnik	-10.5553
ins	-10.5567
▁podobne	-10.557
▁amerykańska	-10.5572
▁Jednakże	-10.5573
▁bu	-10.5577
▁gaz	-10.5579
▁prezes	-10.558
▁prawosławnej	-10.558
▁przedstawił	-10.5581
rzuca	-10.5586
bol	-10.5588
szczy	-10.5592
▁Herb	-10.5593
onym	-10.5595
▁scen	-10.5604
zony	-10.5605
▁dotyczących	-10.5605
▁Pana	-10.5606
▁junior	-10.5608
▁odbywały	-10.561
▁ściany	-10.5619
▁porucznika	-10.5619
▁kierownik	-10.5619
twierdz	-10.5619
▁poświęcił	-10.562
▁wszystko	-10.562
▁potok	-10.5622
▁On	-10.5623
czyli	-10.5624
lus	-10.5625
▁gromada	-10.5625
▁producent	-10.5626
▁zdobywał	-10.5627
▁Sądu	-10.5627
płat	-10.5627
▁szczycie	-10.5628
▁jazdy	-10.5632
▁zbior	-10.5632
▁społecznej	-10.5632
▁żonę	-10.5633
kowatych	-10.5637
hen	-10.5637
dor	-10.564
▁Wilhelma	-10.564
grup	-10.5643
▁reklam	-10.5644
▁Jugosławii	-10.5645
yczne	-10.5649
▁Ul	-10.565
ark	-10.5652
▁wschodu	-10.5653
jski	-10.5656
puszcz	-10.5656
▁funkcjonowały	-10.5658
ish	-10.5661
▁ostatniego	-10.5661
▁cztero	-10.5661
agon	-10.5662
▁mogły	-10.5664
▁osiadł	-10.5664
▁brytyjskiej	-10.5667
▁wnętrza	-10.567
nicki	-10.567
▁ludzie	-10.567
▁metody	-10.5672
▁tekstu	-10.5672
▁Zbrojnych	-10.5672
pot	-10.5678
▁wieloletni	-10.5679
▁legend	-10.5681
▁napęd	-10.5688
▁filozof	-10.5689
piecz	-10.5689
▁płk	-10.5691
zone	-10.5692
▁Otrzymał	-10.5695
spir	-10.5695
▁płycie	-10.5702
▁PZPR	-10.5703
▁realizacji	-10.5707
▁wojnę	-10.571
▁nagród	-10.5712
▁Roberta	-10.5716
daje	-10.5725
szewski	-10.5725
▁składu	-10.5726
rót	-10.5731
dziej	-10.5732
▁obrazów	-10.5734
bet	-10.5736
▁portret	-10.5736
▁politycznej	-10.5738
bre	-10.5746
▁Igrzysk	-10.5746
▁systemem	-10.5747
pr	-10.5748
▁Należy	-10.5751
▁linie	-10.5752
czno	-10.5754
▁wielkim	-10.5756
▁Szkocji	-10.5756
▁oporu	-10.5757
▁Smith	-10.5757
▁kapitan	-10.5757
▁Obok	-10.5758
field	-10.5758
▁Szkołę	-10.5761
▁Morza	-10.5766
▁800	-10.5768
▁człon	-10.5769
▁eparchii	-10.577
▁małe	-10.5782
ńcu	-10.5783
▁święcenia	-10.5784
▁wojskową	-10.5786
rzecz	-10.5787
Da	-10.5789
▁widok	-10.579
▁Obszar	-10.5791
▁Staw	-10.5791
▁poprzedni	-10.5795
▁strzał	-10.5798
▁euro	-10.58
▁l	-10.581
dol	-10.581
▁Maciej	-10.5816
▁Petersburgu	-10.5818
▁Jos	-10.5819
▁las	-10.5819
pen	-10.5819
▁złotych	-10.5821
▁śpiewa	-10.5822
▁sur	-10.583
▁Str	-10.583
ern	-10.5833
▁rejonu	-10.5833
dwor	-10.5834
▁reform	-10.5837
▁zwany	-10.5839
▁Białoruskiej	-10.5839
nęła	-10.584
▁szwedzki	-10.584
▁radziecki	-10.584
▁serca	-10.5841
▁Char	-10.5843
▁rozpoczyna	-10.5844
▁staje	-10.5844
heim	-10.5853
▁australijski	-10.5856
▁zginęło	-10.5856
▁Top	-10.5856
sha	-10.5857
▁człowiek	-10.5861
świetl	-10.5861
▁hu	-10.5862
ander	-10.5864
▁Galicji	-10.5866
rost	-10.5869
łożył	-10.5872
▁obiekty	-10.5874
▁Portugalii	-10.5884
▁muzycznych	-10.5884
▁świętego	-10.5885
▁Marka	-10.5887
▁Mik	-10.5887
gran	-10.5889
▁współczesnych	-10.5889
▁angielskim	-10.5891
▁Kap	-10.5892
▁likwidacji	-10.5897
kl	-10.5904
▁poświęcony	-10.5904
–16	-10.5908
▁42	-10.5909
ken	-10.5911
lecie	-10.5911
▁materiałów	-10.5913
▁płci	-10.5914
▁Frontu	-10.5914
mistrz	-10.5914
gard	-10.5918
▁wspomina	-10.592
▁własność	-10.5924
trud	-10.5926
▁czasopisma	-10.5928
▁Division	-10.5928
▁statku	-10.5928
▁nazywany	-10.5929
vel	-10.5931
▁play	-10.5932
▁prowadziła	-10.5934
▁gole	-10.5936
ląsku	-10.5936
▁organizacyjne	-10.5937
▁Kro	-10.5943
dził	-10.5944
▁Team	-10.5945
▁Island	-10.5949
▁Pat	-10.595
▁mieszkalnych	-10.5955
pres	-10.5955
zel	-10.5957
▁rosyjskiego	-10.5959
▁Księstwa	-10.596
▁terytorialnego	-10.5961
▁podaje	-10.5961
cznym	-10.5965
stosunkowo	-10.5965
▁William	-10.5966
uda	-10.5967
tyki	-10.5968
Star	-10.5971
hol	-10.5973
▁dzwon	-10.5974
▁pozostaje	-10.5978
▁grając	-10.5981
nus	-10.5982
▁tworzenia	-10.5982
esz	-10.5987
got	-10.5988
▁wschodnim	-10.5991
▁wschodzie	-10.5995
▁artysta	-10.5998
▁dużo	-10.5998
▁wydawnictwa	-10.5999
▁zniszczony	-10.6001
▁powołano	-10.6003
▁handlu	-10.601
siedl	-10.6013
▁dekanatu	-10.6015
▁trasie	-10.6016
prawy	-10.6018
▁zasługi	-10.6018
▁1863	-10.6019
▁dotyczy	-10.6022
▁zaczęto	-10.6022
▁Poznań	-10.6023
oty	-10.6028
nowi	-10.6029
▁Starego	-10.6029
OS	-10.603
sor	-10.603
bór	-10.6031
▁grę	-10.6031
▁okup	-10.6033
pocz	-10.6034
▁Chor	-10.6035
▁portu	-10.6035
▁Rod	-10.6036
▁Sy	-10.6042
▁prowadzenie	-10.6042
▁odmówił	-10.6044
▁znak	-10.6048
▁wspiera	-10.6048
▁redaktorem	-10.6052
▁Absolwent	-10.6056
▁systemie	-10.6059
▁prędkości	-10.6059
▁Dra	-10.6059
▁Kir	-10.606
▁Wiele	-10.6066
awi	-10.6068
▁popularność	-10.607
słuch	-10.6071
▁zadania	-10.6073
▁Atl	-10.6074
▁Afryce	-10.6077
▁1890	-10.6077
cząc	-10.608
▁warunkach	-10.608
▁Długość	-10.608
oko	-10.6082
▁filmach	-10.6085
▁Często	-10.6086
▁którymi	-10.6089
▁osiągnięcia	-10.6091
▁własny	-10.6095
rs	-10.6096
żył	-10.6096
▁zachodnim	-10.6101
▁natychmiast	-10.6101
▁Początki	-10.6102
▁rodziców	-10.6103
ost	-10.6103
▁wydziału	-10.6111
spekt	-10.6116
int	-10.6117
▁120	-10.6118
▁rzadko	-10.612
▁praktyk	-10.612
▁Razem	-10.6123
ide	-10.6124
▁Radio	-10.6126
śnie	-10.6129
▁umowę	-10.613
▁samych	-10.6137
▁Skład	-10.6139
rób	-10.6139
▁niewielkie	-10.6139
▁powyżej	-10.6141
▁Dzi	-10.6141
leg	-10.6142
▁rosyjskich	-10.6152
▁węgierski	-10.6154
▁zniesienia	-10.6164
wany	-10.6164
▁Górze	-10.6166
▁budowli	-10.6167
▁lokatą	-10.6167
▁zadaniem	-10.6167
▁znajdowało	-10.6169
▁Az	-10.6171
arze	-10.6177
▁uważany	-10.6179
▁przejścia	-10.6181
▁komp	-10.6184
gór	-10.6185
ińska	-10.6187
▁płytę	-10.6187
▁Kan	-10.6189
▁języków	-10.6193
▁publicznej	-10.6197
kul	-10.6197
nictwa	-10.6198
▁zarządza	-10.6201
zen	-10.6203
ram	-10.6203
▁kolumn	-10.6203
▁wybiera	-10.6204
skr	-10.621
▁wysp	-10.6211
morski	-10.6213
▁Uni	-10.6213
▁dróg	-10.6215
▁1894	-10.6217
▁treści	-10.6219
istą	-10.622
▁istniała	-10.6221
▁Edwarda	-10.6227
▁polityczną	-10.6227
▁stopniowo	-10.6228
▁norweski	-10.6228
▁nominację	-10.623
▁miejskie	-10.623
iet	-10.623
▁lokal	-10.6231
łącz	-10.6231
▁Zdobył	-10.6231
▁Dodatkowo	-10.6232
▁trudności	-10.6232
▁Wisły	-10.6232
▁tegoż	-10.6232
▁Radia	-10.6238
▁przestał	-10.6238
▁procesie	-10.6241
inę	-10.6242
ódź	-10.6243
lni	-10.6244
Go	-10.6247
▁nosił	-10.6248
▁Zadebiutował	-10.6251
▁drzewa	-10.6252
▁nowa	-10.6253
▁Szy	-10.6255
▁39	-10.6255
gla	-10.6257
mysł	-10.6258
Najbardziej	-10.626
szew	-10.626
ńsko	-10.626
▁grupowej	-10.6264
▁pieśni	-10.6266
▁górnej	-10.6267
syp	-10.6267
owało	-10.6269
▁łamach	-10.6269
cach	-10.627
cjo	-10.627
▁przerwa	-10.627
▁stawał	-10.6272
▁skali	-10.6276
▁Mężczyźni	-10.6281
▁Gdyni	-10.6281
▁indywidualnych	-10.6285
trakt	-10.6288
▁okolic	-10.6289
▁dworze	-10.6291
▁wprowadza	-10.6293
▁instytucji	-10.6294
ndy	-10.6296
mas	-10.6302
▁Karl	-10.6304
▁zasady	-10.631
▁uczestników	-10.6312
▁południa	-10.6317
▁problem	-10.6325
▁przyznał	-10.6327
niczego	-10.633
▁Rom	-10.6334
▁samochodów	-10.6338
dane	-10.6339
▁dostęp	-10.6341
lera	-10.6341
▁radio	-10.6341
▁ptaków	-10.6342
▁dystrykcie	-10.6343
▁godziny	-10.6344
▁Lis	-10.6345
▁wzrost	-10.6345
▁osady	-10.6346
St	-10.6351
bl	-10.6351
▁rozwija	-10.6351
zyn	-10.6352
▁dywizjon	-10.6354
▁pewnym	-10.6356
bior	-10.6359
illi	-10.6359
▁Charakterystyka	-10.6361
ńczyk	-10.6362
▁sub	-10.6364
won	-10.6364
stu	-10.6365
▁mod	-10.6365
▁Kru	-10.6366
▁zachowały	-10.6366
▁nastąpiła	-10.6368
▁sezony	-10.6368
▁poczt	-10.6371
lny	-10.6373
▁dał	-10.6375
ewicz	-10.6377
▁wicemistrzostwo	-10.6381
▁Wrocław	-10.6383
▁Druga	-10.6385
niom	-10.6388
czej	-10.6392
ust	-10.6393
▁boczne	-10.6393
▁zabaw	-10.6394
▁Stacja	-10.6396
▁tro	-10.6396
▁sytuacja	-10.6396
▁lud	-10.6397
ole	-10.6397
kli	-10.6401
lice	-10.6402
▁wejścia	-10.6402
▁czwarte	-10.6405
▁konsul	-10.6405
▁Radzie	-10.6406
▁poeta	-10.641
▁wchodzą	-10.6411
Di	-10.6412
▁zmuszony	-10.6413
▁Mus	-10.6414
▁ośrodek	-10.6419
stron	-10.642
▁Tego	-10.6421
▁Tru	-10.6422
▁Bas	-10.6426
▁związał	-10.6429
▁szwajcarski	-10.6429
▁Demokratycznej	-10.6432
zd	-10.6433
Si	-10.6435
▁tarcz	-10.6435
▁Liber	-10.6436
▁wiejską	-10.6437
▁żołnierz	-10.6437
▁Czechosłowacji	-10.6438
▁Charles	-10.6439
jako	-10.644
▁niedaleko	-10.6443
▁stali	-10.6443
▁stopni	-10.6444
▁sukcesów	-10.6445
czas	-10.6447
uta	-10.6447
▁Lata	-10.6448
▁kardynał	-10.6452
▁zachodzie	-10.6452
▁hrabiego	-10.6452
▁liczy	-10.6454
▁wiedzy	-10.6458
▁matką	-10.646
▁strat	-10.6462
Ru	-10.6463
▁francuskim	-10.6464
▁Centralnego	-10.6465
▁godz	-10.6466
socjal	-10.6471
▁prowadzone	-10.6471
stąpi	-10.6476
▁1893	-10.6478
tis	-10.6478
▁Prowadził	-10.6479
▁Biel	-10.6481
▁hali	-10.6482
▁obecności	-10.6483
▁książka	-10.6484
węż	-10.6485
▁biorąc	-10.6489
▁debiutancki	-10.6493
shire	-10.6494
▁środku	-10.6494
▁zamachu	-10.65
▁cmentarza	-10.6501
▁Szczecinie	-10.6504
▁okazało	-10.6508
kin	-10.651
▁stanowiły	-10.6511
rum	-10.6513
▁muzyk	-10.6516
▁lubelskim	-10.652
▁zaczęli	-10.6531
▁władcy	-10.6533
▁Gru	-10.6534
▁trwała	-10.6536
▁umieszcza	-10.6536
fl	-10.6537
▁zakon	-10.6538
▁otworzył	-10.654
▁dawnych	-10.6541
▁dywizjonu	-10.6542
▁Ban	-10.6545
ign	-10.6546
▁organami	-10.6547
▁oparty	-10.655
▁Bob	-10.6551
rez	-10.6552
▁kończy	-10.6553
▁super	-10.6554
▁wzniesiony	-10.656
▁odcinka	-10.6562
pra	-10.6564
▁Christ	-10.6564
▁turystyczny	-10.6565
▁broń	-10.6565
feld	-10.6565
▁najlepiej	-10.6566
arza	-10.6567
pian	-10.6569
▁Stowarzyszenie	-10.6572
▁froncie	-10.6573
▁Tele	-10.6576
enne	-10.6578
▁wojskowego	-10.6587
sus	-10.6598
▁48	-10.6603
reg	-10.6604
▁teatr	-10.6605
▁debiutował	-10.6607
▁stąd	-10.6607
▁celów	-10.6614
▁teologii	-10.6614
▁Działał	-10.6615
▁Chinach	-10.6616
trzy	-10.6617
▁owoc	-10.6617
▁wpisany	-10.6619
▁obecnej	-10.6623
▁własnym	-10.6627
▁oficera	-10.6628
▁zadanie	-10.6629
▁Mickiewicza	-10.6632
kich	-10.6632
rok	-10.6633
ios	-10.6635
▁teatru	-10.6639
▁wysłał	-10.6639
▁Stadion	-10.6641
▁Podział	-10.6643
Sh	-10.6644
▁rzeczy	-10.6646
▁dar	-10.6648
▁dziedzic	-10.6649
▁piłkarskiej	-10.665
▁Serie	-10.6651
lskiego	-10.6651
▁Ham	-10.6652
▁przeciwieństwie	-10.6653
▁dawny	-10.6653
▁Most	-10.6657
▁zmienia	-10.6658
▁wystaw	-10.6658
dla	-10.6659
▁stara	-10.6659
▁architektury	-10.666
▁klasztorze	-10.6662
jak	-10.6663
▁objaw	-10.6669
▁zawarł	-10.6671
▁arcybiskupa	-10.6671
Prze	-10.6672
SS	-10.6672
▁Thomas	-10.6674
▁starcie	-10.6674
▁poznał	-10.668
▁Central	-10.6682
▁niepo	-10.6682
zdob	-10.6682
▁parlamentarnych	-10.6684
▁regularnie	-10.6684
▁75	-10.6686
▁1889	-10.6686
▁mniejsze	-10.6687
▁Posiada	-10.6688
gą	-10.6688
▁asystent	-10.6693
cen	-10.6694
▁odbywają	-10.6695
lnych	-10.6696
▁własnego	-10.6697
▁Sh	-10.6699
▁powszechnie	-10.67
▁podstawowej	-10.67
▁zasadzie	-10.6702
znani	-10.6705
szego	-10.6706
▁Gwiazd	-10.6706
▁dodatkowe	-10.671
rzenia	-10.671
▁or	-10.6712
▁drewna	-10.6712
▁Daniel	-10.6714
▁lekko	-10.6714
▁Ruch	-10.6717
▁pracach	-10.6719
af	-10.672
▁nazw	-10.6721
▁itp	-10.6725
czak	-10.6726
▁Głównej	-10.6727
▁41	-10.6727
▁edukacji	-10.673
mienia	-10.6737
ret	-10.6739
▁Richard	-10.6741
czych	-10.6742
czego	-10.6744
ence	-10.6744
▁ulica	-10.6746
▁koncertów	-10.6748
▁izraelski	-10.6748
▁Len	-10.675
▁sztab	-10.6752
met	-10.6752
▁siostra	-10.6755
gel	-10.6762
korzysta	-10.6764
Biał	-10.677
▁zwrot	-10.6772
▁Spo	-10.6774
000	-10.6774
▁udzielił	-10.6776
▁major	-10.6776
▁podwójnej	-10.6778
lnego	-10.678
▁Formuły	-10.6781
▁największy	-10.6784
nickiego	-10.6784
▁Ant	-10.6784
▁Cla	-10.6785
▁zaatakował	-10.679
▁Ministra	-10.6792
ograf	-10.6792
▁pion	-10.6793
▁ubiegał	-10.6795
▁interes	-10.6795
▁komitetu	-10.6796
▁Zna	-10.6798
▁Ken	-10.6799
▁produkcję	-10.6802
ywać	-10.6803
ture	-10.6804
ecie	-10.6804
▁Narodowy	-10.6807
▁umiejętności	-10.6811
▁Pen	-10.6815
▁Bolesław	-10.6815
pust	-10.6816
▁wrześniowej	-10.6816
▁1888	-10.6817
▁komendanta	-10.6818
los	-10.6819
▁kolejną	-10.6822
▁złożone	-10.6823
▁Dal	-10.6828
raż	-10.6829
▁jeńców	-10.6831
▁Neu	-10.6831
szych	-10.6833
patr	-10.6836
▁Wid	-10.6837
▁Militari	-10.684
fil	-10.6841
▁krótkim	-10.6842
kreśl	-10.6846
czyni	-10.6848
well	-10.6848
▁czarno	-10.6849
enko	-10.685
irtuti	-10.6852
▁Proces	-10.6853
▁generalnego	-10.6854
▁Sc	-10.6854
▁Przemysłu	-10.6857
rie	-10.6857
uel	-10.6858
▁Black	-10.6859
▁zamknięty	-10.6861
▁architektoniczn	-10.6861
▁razu	-10.6861
▁hotel	-10.6864
▁Polską	-10.6866
▁powołał	-10.6867
san	-10.6869
▁sprzedał	-10.687
▁bas	-10.6872
▁Nowe	-10.6874
aci	-10.6878
▁ośmio	-10.6879
▁PAN	-10.6881
▁otwarcie	-10.6885
▁44	-10.6888
▁1892	-10.689
▁metod	-10.6891
▁Mieszka	-10.6892
▁Niemcami	-10.6893
▁utworzony	-10.6895
▁kamer	-10.6898
prawia	-10.69
▁Cel	-10.69
▁zwrócił	-10.6902
▁pewne	-10.6903
▁lu	-10.6904
gle	-10.6904
▁równocześnie	-10.6906
▁Lake	-10.6907
▁zdjęcia	-10.6909
zeniu	-10.691
▁efekt	-10.691
▁Dzie	-10.691
▁traw	-10.6912
▁samoloty	-10.6912
▁armia	-10.6915
▁szczytu	-10.6916
▁siedmio	-10.6916
▁cele	-10.6917
▁znanym	-10.6922
▁poli	-10.6924
▁zabieg	-10.6925
▁pra	-10.6926
-16	-10.6926
▁fragmenty	-10.6932
nienia	-10.6933
▁Egiptu	-10.6934
▁największe	-10.6936
▁zwycięstw	-10.6937
był	-10.694
▁Rosjan	-10.6941
▁Fryderyk	-10.6942
rak	-10.6942
fu	-10.6942
▁otwarty	-10.6943
▁Bri	-10.6944
tsu	-10.6945
pięt	-10.6948
▁hiszpański	-10.6949
▁składała	-10.695
▁wyprawy	-10.6952
2,	-10.6954
▁wojen	-10.6958
▁Such	-10.6958
▁cechy	-10.6958
▁tenis	-10.696
▁należało	-10.6961
▁pilot	-10.6964
▁międzyczasie	-10.6965
▁Twórczość	-10.6967
▁wersję	-10.6967
▁1:1	-10.6967
Ki	-10.6971
bon	-10.6972
▁rzeźby	-10.6975
▁osoba	-10.6975
▁przebojów	-10.6976
▁wyznaczony	-10.6979
tona	-10.6979
▁krytyków	-10.698
▁turystyczne	-10.6982
▁uznanie	-10.6984
▁43	-10.6984
▁zbudowane	-10.6986
▁przywilej	-10.6986
▁Dywizja	-10.6986
▁byłego	-10.6986
▁przeniosła	-10.6987
NA	-10.6988
PS	-10.699
▁Kijowie	-10.699
▁wykonano	-10.699
▁Janusz	-10.6996
▁Ministerstwie	-10.6997
▁pułkownik	-10.6997
ciem	-10.7004
▁Sław	-10.7004
▁problemów	-10.7007
▁utworzenia	-10.7009
czenia	-10.7014
▁zachowanie	-10.7014
▁uciekł	-10.7015
▁swe	-10.7019
▁występowała	-10.7021
itz	-10.7021
▁słabo	-10.7021
▁znów	-10.7023
▁polityczne	-10.7024
▁pochodził	-10.7031
▁senior	-10.7032
tyk	-10.7033
▁Francuz	-10.7034
▁uznaje	-10.7037
▁pracownik	-10.7038
tury	-10.7038
▁Dru	-10.7039
▁małych	-10.704
▁oparciu	-10.7041
▁półfinał	-10.7041
▁uniwersytecie	-10.7043
stał	-10.7045
▁Poznania	-10.7048
▁studio	-10.7048
▁poz	-10.7049
-4	-10.7051
Bi	-10.7052
▁asystentem	-10.7052
ney	-10.7054
▁konfliktu	-10.7056
ującym	-10.7057
▁Sha	-10.7059
▁wartość	-10.7059
▁Wielkopolski	-10.7059
rodkowej	-10.706
ząc	-10.706
chwyt	-10.7062
▁wojskowe	-10.7063
stroj	-10.7064
icznie	-10.7067
iła	-10.7068
▁używa	-10.7068
▁pułkownika	-10.7071
▁pokładzie	-10.7075
▁obejmował	-10.7076
▁ministrem	-10.7076
▁Bez	-10.7077
▁młodości	-10.708
▁przedstawiciele	-10.7081
▁miesiącach	-10.7081
▁niszczyciel	-10.7081
ef	-10.7089
ito	-10.709
▁Kla	-10.7092
▁Lech	-10.7094
równa	-10.7094
▁pozycje	-10.7096
redni	-10.7104
El	-10.7104
▁1:0	-10.7108
▁Dnia	-10.7109
▁statek	-10.7109
▁dzisiaj	-10.711
kowska	-10.711
ette	-10.7116
▁dworu	-10.7116
▁ci	-10.712
▁Ford	-10.712
▁zaproponował	-10.7121
czes	-10.7124
niczych	-10.7129
▁turniejach	-10.7131
▁historyczne	-10.7133
▁wykładał	-10.7133
▁angielskiego	-10.7137
nąć	-10.7139
▁artykułów	-10.7146
▁Ojciec	-10.7147
▁czeski	-10.7148
▁pomieszczenia	-10.7149
▁startu	-10.7151
▁odwiedził	-10.7152
▁Nu	-10.7153
mes	-10.7155
▁światową	-10.7157
łom	-10.7158
▁Wielka	-10.7158
▁należały	-10.7159
ib	-10.716
▁zachował	-10.716
▁rośliny	-10.7162
▁jaką	-10.7162
▁NRD	-10.7165
▁Lew	-10.7166
yli	-10.7166
▁Nagrodę	-10.7169
▁kult	-10.717
▁prowadzenia	-10.7171
▁Sul	-10.7173
▁nic	-10.7174
▁najlepsze	-10.7179
gon	-10.718
rit	-10.7181
▁Prawosławnego	-10.7182
pośród	-10.7184
▁miliona	-10.7184
▁monet	-10.7185
▁porusza	-10.7185
tta	-10.7187
▁chłop	-10.7189
▁malarza	-10.719
porządkow	-10.719
▁Ludowego	-10.719
▁widzi	-10.7191
▁litewski	-10.7192
hel	-10.7192
▁wiosną	-10.7194
▁posiadłości	-10.7199
▁narodowymi	-10.72
rab	-10.7201
▁55	-10.7202
żon	-10.7203
osta	-10.7204
▁wygrywając	-10.7207
▁powodzenia	-10.7214
▁forma	-10.7216
dyk	-10.7216
ev	-10.7219
▁Pr	-10.7222
▁Zabytki	-10.7223
czenie	-10.7223
▁Parafia	-10.7224
▁Urzędu	-10.7225
▁ścianie	-10.7225
ile	-10.7226
centr	-10.7228
aka	-10.7233
szek	-10.7239
spa	-10.7244
▁Ryb	-10.7247
▁spółki	-10.7248
Ne	-10.7252
▁skoku	-10.7253
▁podlegała	-10.7257
▁Lidze	-10.726
▁warstw	-10.7261
anci	-10.7261
▁God	-10.7262
▁wyposażenie	-10.7264
▁książce	-10.7264
▁1891	-10.7267
▁reelekcję	-10.7268
▁nagrania	-10.7268
▁najmniejsza	-10.7268
▁istot	-10.7269
▁tematy	-10.7269
▁wypierając	-10.727
plan	-10.7273
▁koła	-10.7274
▁magazynu	-10.7275
▁muzycznej	-10.7275
stro	-10.7278
▁be	-10.7279
ense	-10.7283
▁Wiosną	-10.7284
▁Sze	-10.7285
lam	-10.729
▁Mały	-10.7291
▁Grzegorz	-10.7292
ira	-10.7295
▁narciarskich	-10.7296
▁Odznaczenia	-10.7297
▁liter	-10.73
Georg	-10.7301
▁mil	-10.7302
▁sprawą	-10.7304
▁ras	-10.7305
▁Henry	-10.7305
▁królowej	-10.7306
▁krzyża	-10.7307
▁Ji	-10.7311
ult	-10.7312
▁największą	-10.7313
▁muzyka	-10.7314
▁mocno	-10.7319
▁wysłany	-10.7321
▁ustanowił	-10.7322
▁frontu	-10.7322
▁usług	-10.7324
▁domy	-10.7325
▁Biskup	-10.7325
▁tron	-10.7326
▁wytwarza	-10.7327
ówek	-10.7329
miar	-10.7329
▁Izrael	-10.7332
▁widoczne	-10.7333
▁świętych	-10.7333
▁przejście	-10.7335
▁wykonywał	-10.7339
dając	-10.734
GRN	-10.7343
▁600	-10.7345
▁kilkanaście	-10.7346
▁klubach	-10.7347
▁myśl	-10.735
▁odpowiedzialny	-10.7351
▁Mari	-10.7357
▁połączone	-10.7358
▁dochodzi	-10.736
raj	-10.7361
▁Dawniej	-10.7361
▁Mad	-10.7362
▁spowodowało	-10.7362
▁najlepszego	-10.7362
ire	-10.7368
▁rodzice	-10.7369
▁żydowskiego	-10.7369
▁Czas	-10.7372
▁Monte	-10.7373
▁wspólnoty	-10.7374
▁Bolesława	-10.7375
▁gminną	-10.7379
▁Dwor	-10.7383
cher	-10.7383
▁uważał	-10.7383
▁opisany	-10.7384
▁srebrne	-10.7387
lą	-10.7389
▁pseudonim	-10.7392
▁założyciel	-10.7393
▁poziomu	-10.7395
▁Chełm	-10.7398
▁wręcz	-10.7398
▁włączony	-10.7401
▁przystanek	-10.7401
▁Serb	-10.7402
▁budowla	-10.7405
▁wybrzeża	-10.7408
Ni	-10.7409
▁Zajął	-10.741
▁warszawskiej	-10.7411
▁uznawany	-10.7412
jskim	-10.7412
▁żywi	-10.7413
▁składając	-10.7416
▁właściciela	-10.7423
tura	-10.7426
▁wileńskiej	-10.743
uck	-10.7431
He	-10.7431
▁singiel	-10.7432
▁zajmowała	-10.7434
czony	-10.7437
▁żeby	-10.7438
zką	-10.744
▁Jesienią	-10.7441
▁1973,	-10.7442
zysk	-10.7444
▁społeczeństwa	-10.7445
tic	-10.7445
▁Siedzib	-10.7447
▁Warszawskim	-10.7452
▁kolejowy	-10.7452
▁Zelandii	-10.7452
▁pasażerów	-10.7452
▁metropolita	-10.7454
▁innej	-10.7455
bolszewickiej	-10.7459
av	-10.746
▁kanadyjski	-10.7461
▁Marynarki	-10.7463
▁Fort	-10.7464
▁odpadł	-10.7465
elle	-10.7469
▁samorząd	-10.7469
▁puchar	-10.7473
▁plam	-10.7474
▁pe	-10.7476
▁Chile	-10.7476
▁religii	-10.7476
▁zmianie	-10.7477
stru	-10.7478
▁trwały	-10.7484
wiątynia	-10.7484
▁tłum	-10.7484
▁wydano	-10.7487
elli	-10.749
▁liceum	-10.7491
▁kontroli	-10.7491
▁gotycki	-10.7493
kiewicza	-10.7494
▁najniższego	-10.75
▁wojskowym	-10.7501
▁Bon	-10.7504
mit	-10.7507
▁zgłosił	-10.7508
Alpy	-10.7511
▁zestaw	-10.7513
▁związkowym	-10.7515
▁większej	-10.7515
▁postęp	-10.7517
▁Rog	-10.7524
kol	-10.7524
▁Gromady	-10.7527
▁miecz	-10.7532
▁kod	-10.7532
▁Sand	-10.7534
▁Tokio	-10.7536
▁organizował	-10.7539
cker	-10.7543
▁zadań	-10.7543
▁Kier	-10.7545
▁promieni	-10.7546
▁zupełnie	-10.7547
▁raczej	-10.7549
rzesz	-10.7552
▁konferencji	-10.7552
▁znajdujące	-10.7553
▁wykładowcą	-10.7556
ila	-10.756
▁Gmin	-10.756
pisane	-10.7561
▁Walki	-10.7563
▁krajowych	-10.7565
▁międzynarodowe	-10.7567
▁Liga	-10.7568
▁Indii	-10.7568
przedsiębiorstwo	-10.7573
▁rosyjskim	-10.7574
▁energii	-10.7574
▁wybrał	-10.7574
lad	-10.7575
car	-10.7576
▁wioski	-10.7579
▁Ruchu	-10.758
▁teksty	-10.7581
▁(4	-10.7581
▁Sydney	-10.7582
▁brzeg	-10.7582
izacji	-10.7583
▁ostro	-10.7585
opa	-10.7586
▁Zjednoczone	-10.7586
▁doprowadził	-10.7588
▁takiej	-10.759
▁Kam	-10.7593
▁rakiet	-10.7594
run	-10.7594
zar	-10.7597
▁Bla	-10.7603
▁wyżej	-10.7603
▁epoki	-10.7604
▁GRN	-10.761
pisano	-10.7612
▁Prezydenta	-10.7614
ycznych	-10.7616
▁takim	-10.7616
▁Dor	-10.7617
amerykański	-10.7619
▁otrzyma	-10.7625
lnej	-10.7625
ycznej	-10.7627
isa	-10.7628
▁Seminarium	-10.7629
▁rozwiązania	-10.763
▁duża	-10.7633
ning	-10.7634
▁niez	-10.7634
▁Kost	-10.7634
▁kot	-10.7635
▁Hut	-10.7636
▁uległa	-10.7636
▁ust	-10.7637
▁starszy	-10.7638
▁proboszczem	-10.7642
▁zaangażował	-10.7644
▁drużynowym	-10.7646
▁niemiecka	-10.7647
▁scenariusz	-10.765
oung	-10.7651
▁imprez	-10.7654
▁albumie	-10.7655
chów	-10.7656
Su	-10.7659
▁specjalnych	-10.766
▁zdobyć	-10.7661
▁dotąd	-10.7661
▁węgla	-10.7661
aków	-10.7666
▁rumuński	-10.767
▁1885	-10.7671
sin	-10.7676
▁zewnątrz	-10.7677
▁Mie	-10.7679
▁Marek	-10.7679
▁spis	-10.768
inem	-10.7681
▁złota	-10.7681
▁Dia	-10.7684
▁student	-10.7685
czyć	-10.7688
▁przebieg	-10.769
▁przyznawan	-10.769
▁Jeśli	-10.7691
▁stanowił	-10.7691
▁Akcja	-10.7693
▁czasami	-10.7694
▁Złoty	-10.7698
–15	-10.7703
▁Bogu	-10.7703
BA	-10.7704
erów	-10.7704
▁20.	-10.7707
▁Swoje	-10.771
▁twórczość	-10.7711
ttle	-10.7714
▁potwierdził	-10.7715
zono	-10.7716
▁radami	-10.772
▁nagrał	-10.7721
▁Osi	-10.7723
▁ser	-10.7723
▁stronach	-10.7725
▁2:1	-10.7726
ycznego	-10.7728
▁Szczyt	-10.7729
szerz	-10.7731
▁tramwaj	-10.7732
far	-10.7733
▁nawy	-10.7735
▁złożony	-10.7738
▁Lee	-10.7738
▁Domu	-10.7745
▁reorganizując	-10.7745
▁ukr	-10.7746
iar	-10.7746
▁analiz	-10.7751
▁Szu	-10.7753
▁dzisiejszego	-10.7757
Par	-10.7757
ozy	-10.7758
fal	-10.7759
gród	-10.776
ies	-10.7761
▁historia	-10.7763
▁posiadała	-10.7764
▁stanowisk	-10.7765
▁pluton	-10.7766
▁małżeństwo	-10.7766
▁zawodnicy	-10.7766
rog	-10.7778
jedno	-10.7778
▁Bohater	-10.7778
▁Gol	-10.7778
▁nawiązuje	-10.7779
▁sportowy	-10.7781
aria	-10.7781
▁Polskie	-10.7786
óz	-10.7788
▁oczy	-10.7789
arstwa	-10.779
▁ośrodka	-10.7791
maga	-10.7792
▁High	-10.7796
▁opozycji	-10.7796
▁francuskich	-10.7797
▁wystawy	-10.7798
▁wybit	-10.7799
sur	-10.78
sąd	-10.7801
ingu	-10.7803
▁gromadzkim	-10.7805
our	-10.781
▁elementem	-10.7811
▁1880	-10.7812
▁stolicą	-10.7814
▁wroga	-10.7815
▁remis	-10.7815
▁miejscowej	-10.7817
yczną	-10.7818
▁wzór	-10.7819
bb	-10.7821
▁Leg	-10.7825
dyjski	-10.7825
▁premierę	-10.7826
▁wyborów	-10.7827
ształ	-10.783
arskiej	-10.783
▁WWE	-10.7833
tle	-10.7833
arski	-10.7835
▁instruktor	-10.7837
▁WRN	-10.7838
kaz	-10.784
▁Les	-10.7841
▁1867	-10.7841
▁stawia	-10.7842
▁armat	-10.7842
arskiego	-10.7843
eckiej	-10.7844
▁senator	-10.7844
lega	-10.7844
▁mieszkalne	-10.7845
owości	-10.7846
nictwo	-10.7846
▁1870	-10.7848
arki	-10.785
▁pozostała	-10.785
▁Christian	-10.7855
▁AS	-10.7858
▁Jen	-10.7858
▁utrzymywał	-10.7858
▁ciężkiej	-10.7858
▁lotu	-10.786
kowice	-10.7862
▁stanowiła	-10.7863
▁wywodzi	-10.7866
▁dramat	-10.7869
▁nakazał	-10.7872
▁arenie	-10.7873
▁Gal	-10.7873
▁utworzona	-10.7873
list	-10.7873
jska	-10.788
siad	-10.7881
ające	-10.7884
▁klasycznym	-10.7886
ato	-10.7887
▁oficerem	-10.789
▁imprezy	-10.789
bri	-10.789
▁uprawia	-10.789
▁Ignacego	-10.7891
▁ważne	-10.7892
Pod	-10.7893
pul	-10.7894
▁prawnych	-10.7895
▁zanotował	-10.7898
▁brązowe	-10.7898
▁historycznych	-10.7901
▁Fra	-10.7903
▁posiadają	-10.7904
▁zadebiutowała	-10.7906
▁stacjonował	-10.7906
▁Tel	-10.7907
2008	-10.7908
kazał	-10.791
▁powrotem	-10.7912
▁okien	-10.7912
▁zgodził	-10.7912
▁pp	-10.7914
2009	-10.7915
▁Bie	-10.7918
▁3000	-10.7919
tyczne	-10.7919
▁Ministrów	-10.7923
unt	-10.7923
▁miastach	-10.7927
▁Boskiej	-10.7929
▁kandydat	-10.7933
▁rezultat	-10.7934
fin	-10.7937
▁gitar	-10.7938
▁wypad	-10.7938
▁występując	-10.7938
▁rozegrano	-10.7941
ującego	-10.7943
▁Mistrz	-10.7945
▁warunków	-10.7945
▁znaczenia	-10.7947
▁spoczynku	-10.7948
▁Polak	-10.7949
▁brytyjskich	-10.795
▁trzema	-10.7952
eau	-10.7955
ici	-10.7956
▁inter	-10.7959
anka	-10.7959
▁zatem	-10.7961
▁nazwano	-10.7962
▁wskazuje	-10.7962
▁utracił	-10.7964
▁Liczba	-10.7968
▁książkę	-10.797
▁światła	-10.797
▁gwiazdy	-10.797
▁Emil	-10.7974
▁wzmianka	-10.7976
▁rozgrywane	-10.7976
▁bułgarski	-10.7979
▁Francisco	-10.7979
▁komunikacji	-10.7979
▁Tatr	-10.7983
tin	-10.7985
▁Moskwy	-10.7985
wit	-10.7987
▁zagrożenia	-10.7987
▁powrót	-10.799
▁przechodzi	-10.7991
▁dziecka	-10.7992
▁Eu	-10.7993
▁autobus	-10.7994
▁społeczny	-10.7994
▁żywo	-10.7994
▁medali	-10.7998
anki	-10.7999
▁ciężko	-10.8001
▁regul	-10.8003
chow	-10.8003
ważny	-10.8003
▁Wielkim	-10.8004
▁kolonia	-10.8005
▁hrabi	-10.8008
▁wicemistrzem	-10.8008
▁Real	-10.8008
rii	-10.801
▁Gdańsk	-10.8015
▁krakowskiego	-10.8015
eri	-10.8015
jechał	-10.8016
opol	-10.8016
▁wchodził	-10.8018
▁ugrupowania	-10.8018
▁Letnich	-10.8019
but	-10.8019
▁Hali	-10.8021
▁Anton	-10.8022
▁uni	-10.8023
rozum	-10.8025
▁stosowane	-10.8026
▁gromadzkiej	-10.8027
▁pisarza	-10.803
▁twórców	-10.8032
nęły	-10.8032
▁wydziale	-10.8036
▁honor	-10.8037
nięcia	-10.8038
ath	-10.8038
old	-10.8041
legły	-10.8042
▁dziesięć	-10.8044
▁przyszłości	-10.8046
▁dane	-10.8049
▁Trójcy	-10.8049
▁cyfr	-10.8055
▁samic	-10.8056
sel	-10.8058
ces	-10.8058
▁stając	-10.8061
▁epi	-10.8062
▁doznał	-10.8062
▁zagrała	-10.8066
▁niewielki	-10.8068
nięcie	-10.8068
ionych	-10.8072
▁telewizyjny	-10.8076
brali	-10.8078
▁opracował	-10.8079
▁Mos	-10.8079
▁1887	-10.8081
lic	-10.8081
mag	-10.8081
▁komiks	-10.8081
▁sprzeciw	-10.8082
▁morza	-10.8082
▁Petr	-10.8084
):	-10.8089
▁46	-10.8091
▁prezent	-10.8095
▁poezji	-10.8095
▁slalomie	-10.8098
▁Met	-10.81
▁druk	-10.81
▁katedrze	-10.81
▁fiński	-10.81
▁Pałac	-10.8101
chodzą	-10.8102
▁nauczycielem	-10.8102
▁Grał	-10.8107
wolni	-10.8107
▁wydaje	-10.8108
bs	-10.8109
ett	-10.8114
▁Navy	-10.8115
ińskim	-10.8116
▁Wschodnich	-10.8117
CA	-10.8118
▁Wersja	-10.8118
▁Lin	-10.8119
krze	-10.812
piel	-10.8121
▁Biura	-10.8123
non	-10.8123
▁wydane	-10.8128
▁Daw	-10.8129
2007	-10.8129
▁52	-10.813
▁Administracji	-10.8131
▁Fundacji	-10.8134
▁47	-10.8135
▁zegar	-10.814
▁ziemie	-10.814
cio	-10.8142
arab	-10.8143
▁naukowej	-10.8144
▁Komun	-10.8144
▁wykształcenie	-10.8145
▁komun	-10.8145
▁lasów	-10.8145
▁długie	-10.8145
▁Stud	-10.8146
▁przypomina	-10.8147
▁Wiktor	-10.8151
▁siedziby	-10.8151
▁brytyjskiego	-10.8153
▁Gmina	-10.8154
▁kocha	-10.8156
kończ	-10.8157
▁wyścig	-10.8159
tycznych	-10.816
▁lekarza	-10.816
▁publicznych	-10.8164
▁lasy	-10.8167
▁powodzeniem	-10.817
▁szeregach	-10.817
ston	-10.8172
dis	-10.818
▁eskadry	-10.818
▁zewnętrzne	-10.8181
▁Love	-10.8181
▁Lang	-10.8181
▁organizm	-10.8181
▁sportowych	-10.8182
▁lasu	-10.8184
▁rock	-10.8188
▁redaktor	-10.8192
▁pojawiają	-10.8193
▁ga	-10.8193
▁Katedry	-10.8193
widz	-10.8194
▁Haw	-10.8197
rabia	-10.8197
inger	-10.8199
cznego	-10.8199
▁literaturze	-10.8199
▁tor	-10.82
tak	-10.8201
▁kobieta	-10.8201
▁Zbigniew	-10.8202
▁biało	-10.8202
▁Cal	-10.8202
łusz	-10.8202
▁proboszcz	-10.8203
▁Zajmował	-10.8203
▁Arm	-10.8205
▁dorobku	-10.8205
niej	-10.8213
wiedzi	-10.8213
▁pośrednictwem	-10.8214
Bu	-10.8215
▁kluby	-10.8217
▁Targ	-10.822
▁tytuły	-10.822
ących	-10.8223
▁wiatr	-10.8223
▁sali	-10.8223
▁słów	-10.8226
▁japoński	-10.8226
▁One	-10.8229
▁Tomasza	-10.8233
▁złoto	-10.8235
niczym	-10.8237
▁zbiera	-10.8239
▁przeznaczone	-10.8241
▁dokładnie	-10.8246
▁praca	-10.8249
▁kontuzji	-10.8249
▁samą	-10.8249
owcy	-10.8249
kut	-10.8249
▁250	-10.825
wro	-10.825
EC	-10.8252
▁Cer	-10.8256
tami	-10.8256
▁torze	-10.8257
borg	-10.826
▁Czer	-10.8261
▁głęboki	-10.8261
▁pomnika	-10.8262
▁opinii	-10.8265
▁średnicy	-10.8269
▁Tatrach	-10.8271
▁Chorwacji	-10.8273
ług	-10.8273
ues	-10.8277
▁Szwajcar	-10.8277
▁duński	-10.8278
▁niekiedy	-10.8279
2012	-10.8279
▁cała	-10.828
▁odpowiada	-10.8285
wano	-10.8286
dale	-10.8291
▁et	-10.8295
▁KM	-10.8295
▁sprawę	-10.8301
▁wysokie	-10.8304
ystów	-10.8305
▁starszego	-10.8306
▁urządzenia	-10.831
ote	-10.8311
▁Główny	-10.8313
▁ówczesny	-10.8314
▁Miejskiej	-10.8314
▁Hiszpan	-10.8315
▁architekta	-10.8315
owic	-10.8316
▁Nik	-10.8316
ródło	-10.8317
▁kole	-10.8318
▁Zim	-10.8319
▁sztuce	-10.8319
niczą	-10.8319
▁zanim	-10.832
▁napisany	-10.8321
▁zabytkowy	-10.8321
▁Zakładu	-10.8323
▁szczegół	-10.8323
▁talent	-10.8323
tru	-10.8325
noszą	-10.8327
▁godzinie	-10.8327
▁pojedynczej	-10.8328
ction	-10.8328
▁Ran	-10.8334
▁liczył	-10.8335
ewoluc	-10.8337
▁próbę	-10.8338
▁dziewczyn	-10.8339
▁dachem	-10.8339
▁sześcio	-10.8345
ior	-10.8348
▁Order	-10.8352
łączeni	-10.8356
▁przetrwała	-10.8358
orze	-10.8361
uer	-10.8361
▁56	-10.8365
▁Eurowizji	-10.8365
anty	-10.8366
rap	-10.8367
▁islam	-10.8368
▁portal	-10.8368
owani	-10.8368
dów	-10.8368
▁Przemysł	-10.8369
▁wielkiej	-10.8369
▁Dział	-10.8373
letniej	-10.8373
▁wyboru	-10.8373
▁American	-10.8375
▁bal	-10.8375
▁graczem	-10.8375
▁poinformował	-10.8377
▁Joseph	-10.8379
▁targ	-10.8384
▁Woł	-10.8385
▁Cat	-10.8385
mir	-10.8386
▁plany	-10.8386
▁językiem	-10.8386
łowie	-10.8386
kov	-10.8387
▁piosenkę	-10.839
▁Lit	-10.839
▁trzeciego	-10.839
budowana	-10.839
granic	-10.8391
2)	-10.8394
płynął	-10.8394
▁kolejnego	-10.8396
▁takiego	-10.8396
▁federacji	-10.8398
▁użyciu	-10.8398
oby	-10.8401
▁Morfologia	-10.8402
▁1886	-10.8406
rzut	-10.8407
▁Narodowym	-10.841
▁sieć	-10.8412
▁Ang	-10.8412
▁Lan	-10.8412
dd	-10.8415
wood	-10.8415
▁Każdy	-10.8418
lk	-10.8419
2010	-10.8419
kolwiek	-10.842
▁osadzony	-10.8422
uż	-10.8423
wca	-10.8423
▁Lwów	-10.8425
▁Peru	-10.8428
▁Cezar	-10.8429
▁sądu	-10.8432
▁amerykańskim	-10.8432
▁Pet	-10.8433
▁opublikowany	-10.8434
▁zniszczone	-10.8434
ukr	-10.8435
▁opiera	-10.8436
▁post	-10.8436
▁Litwy	-10.8437
aceae	-10.8437
▁dalsze	-10.844
▁podał	-10.8441
▁stu	-10.8441
▁1884	-10.8444
▁odmian	-10.8446
▁kolonii	-10.8449
▁piąte	-10.845
▁64	-10.8451
▁formalnie	-10.8453
▁prywatnych	-10.8454
niejsze	-10.8457
krotnie	-10.8457
pierw	-10.8458
▁równo	-10.8459
ewska	-10.8459
czona	-10.846
fit	-10.8465
▁Studio	-10.8465
▁Studia	-10.8466
▁Tekst	-10.8467
▁służbie	-10.8473
▁komplet	-10.8476
▁medycyny	-10.8477
zny	-10.8477
▁Bożego	-10.8478
▁Kawalerii	-10.848
niósł	-10.848
szcza	-10.848
później	-10.8481
▁korytarz	-10.8485
▁określenie	-10.8485
▁witebskim	-10.8487
▁neo	-10.8488
▁Celem	-10.8488
▁emigracji	-10.8489
Hu	-10.8491
▁KC	-10.8492
rop	-10.8493
▁najwyższym	-10.8498
▁dolnej	-10.8498
▁dowolnym	-10.8498
lini	-10.8499
▁podjęła	-10.8499
▁baz	-10.85
▁biegnie	-10.8502
nicze	-10.8502
▁Eli	-10.8505
nig	-10.8507
▁bp	-10.8509
▁zakłada	-10.8513
▁PPS	-10.8514
▁autorów	-10.8515
▁pracuje	-10.8518
▁Rob	-10.8527
▁austriacki	-10.8527
▁skończył	-10.8528
▁piersi	-10.8528
łączony	-10.8529
▁51	-10.8531
▁poważnie	-10.8532
▁krakowskim	-10.8533
▁miesza	-10.8533
▁Bart	-10.8534
ariusz	-10.8535
sów	-10.8535
▁odnosi	-10.8538
uss	-10.8538
▁Lind	-10.8539
Ga	-10.8539
▁dyscyplin	-10.854
▁Korpus	-10.8544
▁Ala	-10.8546
cent	-10.8547
▁czarne	-10.855
▁sprzedaż	-10.8554
▁gospodarki	-10.8555
▁boga	-10.8555
▁Syrii	-10.8557
ęg	-10.8557
▁Sob	-10.8559
▁kpt	-10.856
2011	-10.8561
▁szlachecki	-10.8561
▁Urząd	-10.8562
brać	-10.8562
dowa	-10.8563
▁8759	-10.8563
▁mikro	-10.8563
ląsk	-10.8564
▁Organizacja	-10.8565
ującej	-10.8569
▁państwowej	-10.8569
▁chrześcijan	-10.8571
▁przyczyną	-10.8571
▁Woli	-10.8571
▁dzieli	-10.8572
▁Zachodniej	-10.8574
▁Medalem	-10.8574
▁dostępne	-10.8578
▁wspólnego	-10.8579
▁wyda	-10.8581
Od	-10.8586
▁wyposażony	-10.8586
SM	-10.8586
MP	-10.8588
▁Artylerii	-10.8592
▁wykonana	-10.8593
ińskiej	-10.8593
▁wysoko	-10.8596
▁poł	-10.8597
▁kan	-10.8597
▁Kalifornii	-10.8598
▁teraz	-10.8599
yńskiego	-10.86
▁polega	-10.8602
giel	-10.8602
▁Rejon	-10.8602
kos	-10.8603
ping	-10.8604
▁kolejności	-10.8607
▁Green	-10.8609
▁Got	-10.8609
▁wydawnictwo	-10.8611
▁gazet	-10.8612
▁włoskiego	-10.8612
▁asyst	-10.8615
▁Czechach	-10.8616
kąt	-10.8616
▁portugalski	-10.8617
▁ślad	-10.8618
▁Abd	-10.8619
town	-10.8622
▁efekcie	-10.8623
▁okna	-10.863
zem	-10.8631
▁prawosławny	-10.8631
▁lekki	-10.8632
▁nawiązał	-10.8632
▁Tymczasem	-10.8633
▁Kul	-10.8633
▁Kościele	-10.8633
▁49	-10.8635
▁kandydował	-10.8635
szuka	-10.8636
▁wzniesiona	-10.8637
uci	-10.8638
ież	-10.8641
▁mostu	-10.8642
▁produkowany	-10.8643
▁zaprojektowany	-10.8648
cyjne	-10.8648
ywanie	-10.8649
cław	-10.8649
-20	-10.865
▁jaj	-10.8652
waniu	-10.8652
▁Iwan	-10.8655
▁May	-10.8657
▁działający	-10.866
▁Starym	-10.8661
▁Hans	-10.8664
▁Budowla	-10.8664
▁rodzinę	-10.8667
2000	-10.8667
dziob	-10.8668
▁nacisk	-10.8668
▁Otto	-10.8668
line	-10.8671
▁umowy	-10.8673
wel	-10.8674
▁Jawor	-10.8674
ląskiego	-10.8675
▁zainteresowanie	-10.8675
2013	-10.8676
niczej	-10.8677
wir	-10.8677
▁znalazło	-10.8678
▁jezioro	-10.8679
▁grać	-10.8681
▁zainteresowania	-10.8685
▁Biało	-10.8685
▁kamienia	-10.8689
▁ocenia	-10.8689
▁lasach	-10.869
▁dalszych	-10.8692
edy	-10.8693
▁podzielone	-10.8695
▁Ple	-10.8695
▁publiczności	-10.8698
▁Można	-10.8698
▁brazylijski	-10.8698
▁takimi	-10.8698
▁wokal	-10.8698
SC	-10.87
yg	-10.87
▁Międzynarodowej	-10.8702
▁singla	-10.8702
▁przygotowania	-10.8704
abi	-10.8704
padł	-10.8707
▁Organ	-10.8708
▁Klubu	-10.8708
▁narodowych	-10.8708
▁trasę	-10.871
▁wyścigach	-10.871
▁pasażerski	-10.8712
▁malarstwa	-10.8713
▁Bieg	-10.8714
▁Wspólnoty	-10.8715
spi	-10.872
OP	-10.8721
▁kulturze	-10.8723
▁decyzją	-10.8727
▁Państwowego	-10.8727
stosow	-10.8728
▁Cre	-10.8731
▁firm	-10.8733
▁poparcie	-10.8734
▁serbski	-10.8736
▁Berlina	-10.8739
▁dotarła	-10.8744
cum	-10.8745
▁jedyne	-10.8746
▁dobre	-10.8747
arni	-10.8747
▁rzeźbiarz	-10.8748
▁emitowany	-10.8748
ico	-10.875
▁eksperyment	-10.8751
▁Motor	-10.8753
▁wiersz	-10.8754
▁oparte	-10.8755
▁filmy	-10.8755
▁narodowości	-10.8759
▁Dlatego	-10.8759
arska	-10.8759
▁Ari	-10.8761
▁osobiste	-10.8762
▁liczbie	-10.8766
ością	-10.8766
▁Albanii	-10.8767
▁jazz	-10.8767
▁Bir	-10.8769
nc	-10.8773
▁stowarzyszenia	-10.8775
▁zawodową	-10.8775
biera	-10.8775
▁rozdział	-10.8776
▁stojąc	-10.8776
pisana	-10.8778
▁dalszej	-10.8779
▁wejście	-10.878
▁wydaniu	-10.8781
▁Pomnik	-10.8781
▁Dun	-10.8782
▁prawnicze	-10.8783
▁utworzenie	-10.8783
▁mono	-10.8783
▁pojemności	-10.8785
▁mające	-10.8789
dło	-10.8789
niony	-10.8789
▁razie	-10.8792
dany	-10.8794
▁sygnał	-10.8794
stów	-10.8796
▁łódzkim	-10.8801
▁adwokat	-10.8802
żyli	-10.8803
▁Piłsudskiego	-10.8803
▁Bernard	-10.8804
kona	-10.8805
acyjne	-10.8807
icach	-10.8809
▁Staro	-10.881
▁kompozycji	-10.8811
▁poprzednich	-10.8815
▁Oslo	-10.8816
▁pielgrzym	-10.8817
lip	-10.8817
▁Powstał	-10.8818
hard	-10.8821
▁Carl	-10.8821
▁Zawody	-10.8822
▁65	-10.8823
▁wielkie	-10.8826
▁białe	-10.8829
lud	-10.8829
Ku	-10.8832
2006	-10.8834
ped	-10.8837
▁zastosowanie	-10.8838
Lu	-10.8842
sja	-10.8842
▁Powierzchnia	-10.8842
▁Sm	-10.8844
Bar	-10.8846
▁podstaw	-10.8846
▁swoimi	-10.8846
niejszych	-10.8847
▁Zachodnich	-10.8848
▁Marcina	-10.8852
lli	-10.8854
▁Cza	-10.8854
-5	-10.8856
▁rozprawy	-10.8858
▁División	-10.8859
▁zachowania	-10.886
▁Pap	-10.8861
▁trzecia	-10.8863
▁grunt	-10.8864
zenia	-10.8865
▁Albert	-10.8865
ite	-10.8866
▁twarz	-10.8868
▁agent	-10.8872
▁wykładowca	-10.8872
▁Rab	-10.8874
typ	-10.8876
▁(14	-10.8878
▁biskupów	-10.8879
▁zdaniem	-10.888
▁studiach	-10.8884
unek	-10.8885
ting	-10.8888
▁ocen	-10.8889
▁koncerty	-10.8891
▁wykorzystywane	-10.8891
▁powoduje	-10.8892
▁liści	-10.8892
Sch	-10.8895
tyczny	-10.8899
▁działanie	-10.8899
▁Katarzyny	-10.89
▁Piosenka	-10.8901
▁zamordowany	-10.8901
▁Białymstoku	-10.8902
oto	-10.8905
▁Stal	-10.8907
▁chcąc	-10.8909
▁kolekcji	-10.8911
▁Kobiety	-10.8912
▁projektów	-10.8914
▁Kre	-10.8916
▁bezpośredni	-10.8923
▁otwarta	-10.8923
▁korpusu	-10.8923
▁symboli	-10.8924
▁utrzymanie	-10.8925
▁wsparcie	-10.8926
aga	-10.8928
▁Pozostałe	-10.8929
▁dokumentów	-10.8934
▁czci	-10.8936
▁lewym	-10.8936
▁zakup	-10.8936
tum	-10.8938
▁sowieckie	-10.8941
▁bokser	-10.8942
▁naczelnym	-10.8947
▁Batalion	-10.8949
andr	-10.8949
▁Jacka	-10.895
▁wzięli	-10.8951
▁działała	-10.8951
▁żadnej	-10.8953
▁fundament	-10.8953
▁stosunki	-10.8955
hit	-10.8955
ywano	-10.8956
din	-10.8957
▁Bay	-10.8957
rzuceni	-10.8958
▁Mazur	-10.8958
▁jakości	-10.8961
stad	-10.8962
▁Grab	-10.8962
▁East	-10.8966
▁dal	-10.8971
▁przyjaciel	-10.8972
bici	-10.8973
wane	-10.8973
▁telefon	-10.8973
▁opada	-10.8974
▁proboszcza	-10.8976
▁Pańskiego	-10.8977
▁Fre	-10.8977
▁Gdańska	-10.898
▁liga	-10.8981
▁Socjalistycznej	-10.8981
MS	-10.8981
gry	-10.8982
▁Bab	-10.8983
bun	-10.8985
▁wynosił	-10.8986
▁stosowany	-10.8987
▁rycerz	-10.8987
▁okaz	-10.8987
▁ogon	-10.8987
▁Sad	-10.8988
▁kościołem	-10.899
ńscy	-10.899
rr	-10.8991
sol	-10.8991
ówce	-10.8991
niak	-10.8993
▁Koron	-10.8994
▁Mas	-10.8996
▁pieniędzy	-10.8996
kręt	-10.8998
▁serię	-10.9001
▁Dunaj	-10.9001
▁Luc	-10.9001
▁1882	-10.9006
▁kilkakrotnie	-10.9011
▁halowych	-10.9012
▁dostaw	-10.9013
▁robi	-10.9014
▁artykuł	-10.9014
▁przegrała	-10.9016
▁elektro	-10.9017
▁sprawia	-10.9017
▁hip	-10.9017
▁zaraz	-10.9018
mocni	-10.9018
puści	-10.902
manna	-10.902
▁ściśle	-10.9022
bóstw	-10.9022
▁Award	-10.9022
▁zakończenie	-10.9024
▁towar	-10.9025
▁dziesięciu	-10.9026
▁nadając	-10.9028
if	-10.9029
▁Pis	-10.903
▁Fr	-10.903
prowadził	-10.9032
zywa	-10.9032
▁Bułgar	-10.9033
wieczny	-10.9034
▁egipski	-10.9035
▁jakim	-10.9036
mond	-10.9036
▁pani	-10.9037
▁pl	-10.9038
nosząc	-10.9041
zdrow	-10.9043
▁2:0	-10.9043
bocz	-10.9043
▁młodego	-10.9052
▁właściwie	-10.9055
▁redakcji	-10.9056
▁Współ	-10.9056
▁etat	-10.906
▁Alba	-10.9061
▁Sin	-10.9062
▁zwierzęta	-10.9063
▁sąsiad	-10.9063
Wa	-10.9064
▁Fla	-10.9065
▁Struktura	-10.9065
▁Katedrze	-10.9067
bir	-10.9074
▁zamknięte	-10.9076
▁Koła	-10.908
owcem	-10.908
▁artykuły	-10.908
▁dzielnica	-10.9081
głębi	-10.9082
▁rezerwat	-10.9085
wald	-10.9085
▁łączności	-10.9089
▁wolnym	-10.909
stępując	-10.9091
-21	-10.9092
▁Sur	-10.9093
vil	-10.9093
▁lesie	-10.9093
▁Cap	-10.9095
▁techniki	-10.9097
▁rosną	-10.9099
▁Wrocławia	-10.91
rach	-10.9101
▁Festival	-10.9102
▁stworzenia	-10.9102
▁praktyce	-10.9102
▁kap	-10.9102
yczna	-10.9103
bru	-10.9104
▁szkolenia	-10.9104
▁kontrolę	-10.9105
west	-10.9106
▁osobiście	-10.9106
▁kontakty	-10.9108
▁wykonania	-10.9108
▁przyjęła	-10.9111
▁istniał	-10.9111
▁zbiorów	-10.9115
▁mięs	-10.9116
▁Spi	-10.9116
▁kierowca	-10.9117
graniczny	-10.9118
łek	-10.9119
▁średnią	-10.912
lim	-10.912
Fr	-10.9121
▁daje	-10.9122
▁przynajmniej	-10.9124
▁podporucznika	-10.9128
▁Robotniczej	-10.913
rasta	-10.9131
▁kongres	-10.9131
▁kalibru	-10.9132
kle	-10.9134
▁marynarki	-10.9137
▁Stał	-10.9137
We	-10.9138
▁administracyjne	-10.9138
▁Jehowy	-10.9139
▁zapewne	-10.9139
▁trenował	-10.9139
▁doświadczenia	-10.914
▁Metal	-10.9144
▁czołgów	-10.9145
▁1881	-10.9145
▁nominowany	-10.9147
▁łuk	-10.9148
▁Wojskowych	-10.9148
ywania	-10.9149
▁Wenecji	-10.915
icz	-10.915
▁pociągi	-10.9152
łączenie	-10.9155
▁Auto	-10.9155
onem	-10.9156
▁działaczy	-10.9156
▁57	-10.9157
▁rywalizację	-10.9158
▁Legion	-10.9159
▁Berlin	-10.9161
▁wysyła	-10.9162
IS	-10.9163
▁dziedzictwa	-10.9163
jście	-10.9163
oś	-10.9165
▁ówczesnej	-10.9167
▁Boh	-10.9168
Gra	-10.9168
▁granice	-10.917
▁pięcio	-10.9172
▁należąca	-10.9172
▁Ot	-10.9173
▁Brown	-10.9176
▁tryb	-10.9177
istka	-10.9179
▁marsz	-10.918
ującą	-10.918
▁twierdzy	-10.9181
▁pseudonimem	-10.9182
słan	-10.9182
2014	-10.9182
▁mogło	-10.9183
mierć	-10.9187
▁osobowy	-10.9187
stki	-10.9189
▁następne	-10.9192
▁Krzysztofa	-10.9193
▁miejscowych	-10.9195
▁Kim	-10.9199
▁wód	-10.9199
ający	-10.9201
▁państwowych	-10.9201
erze	-10.9201
▁Swój	-10.9202
▁wzmianki	-10.9202
chor	-10.9202
enburg	-10.9203
czewski	-10.9204
out	-10.9205
▁mechanizm	-10.9207
▁stację	-10.9207
▁powinien	-10.9209
▁Hy	-10.9209
▁zawodu	-10.9209
▁znanego	-10.9211
broj	-10.9212
▁przedstawiający	-10.9214
▁1848	-10.9214
▁sekund	-10.9216
tat	-10.9217
▁skór	-10.9217
▁ogół	-10.9218
party	-10.9219
więtych	-10.9219
▁współczesnej	-10.9222
▁Gold	-10.9224
▁centralnej	-10.9225
owskie	-10.9226
▁sprzęt	-10.9227
bili	-10.9228
▁1,5	-10.9229
▁Szar	-10.923
▁Choć	-10.9232
▁wystąpili	-10.9233
▁przebudowy	-10.9233
jar	-10.9234
▁Nauki	-10.9235
▁warsztat	-10.9235
▁Im	-10.9235
▁trzyma	-10.9236
▁Juan	-10.9237
▁Wolności	-10.9238
czni	-10.9238
sena	-10.9238
arstwo	-10.9241
anek	-10.9242
▁otoczony	-10.9242
ild	-10.9244
chodził	-10.9245
iusza	-10.9245
▁Stro	-10.9247
nienie	-10.9248
lica	-10.9249
▁Jarosław	-10.9251
▁wzgórza	-10.9251
jew	-10.9251
▁kadr	-10.9253
▁łatwo	-10.9256
▁Simon	-10.9256
odor	-10.9258
▁dziewięć	-10.9259
▁bliski	-10.9262
▁rugby	-10.9264
▁Komendy	-10.9266
cenia	-10.9266
anem	-10.9268
ewa	-10.9268
nce	-10.9269
▁łącząc	-10.9272
die	-10.9275
▁Wielu	-10.9276
▁rocznicę	-10.9277
▁1883	-10.9279
▁Chan	-10.9279
hop	-10.928
cyt	-10.9281
lony	-10.9282
▁statków	-10.9284
kw	-10.9286
▁podjęto	-10.9288
▁końcowej	-10.929
▁wielką	-10.9291
stawienie	-10.9291
▁Band	-10.9291
▁wywalczyła	-10.9295
▁specjalne	-10.9296
rowa	-10.9296
▁Williama	-10.9298
▁Walter	-10.9299
prezent	-10.9299
▁dworca	-10.93
▁święta	-10.9304
cami	-10.9304
▁pełniąc	-10.9305
▁przerwał	-10.9306
Wie	-10.9309
▁plaż	-10.931
▁Um	-10.931
▁Moskwa	-10.931
▁biskupi	-10.9317
▁wkład	-10.9318
▁nauczyciela	-10.9319
▁Rat	-10.932
▁tematyce	-10.9324
nęli	-10.9325
Parafia	-10.9329
▁poświęcone	-10.9333
▁wicemistrz	-10.9333
▁zawodnika	-10.9335
burgu	-10.9335
▁urodzin	-10.9339
▁festiwal	-10.9342
▁rewanż	-10.9344
▁zakończenia	-10.9346
▁oddał	-10.9347
▁powodów	-10.9347
▁wszech	-10.9348
nio	-10.9348
▁nauczania	-10.9348
▁Serbii	-10.9348
▁cieszył	-10.9349
wis	-10.9352
▁towarzysz	-10.9353
▁Gil	-10.9354
▁szlaku	-10.9355
tas	-10.9357
▁pomieścić	-10.9357
▁wchodząc	-10.9357
▁bohaterów	-10.9357
ańską	-10.9358
piera	-10.9359
▁znaczeniu	-10.9361
wór	-10.9361
eng	-10.9362
▁własności	-10.9365
▁narciarski	-10.9365
▁dysk	-10.9366
ars	-10.9366
▁Den	-10.9367
▁otwarcia	-10.9368
▁SG	-10.9369
▁Paulo	-10.9369
graf	-10.9371
▁postanawia	-10.9373
▁strefie	-10.938
▁Kielcach	-10.9383
▁Rzeszowie	-10.9383
▁Pla	-10.9386
▁pośredni	-10.939
▁ziemski	-10.9391
▁zabudowania	-10.9392
▁rzek	-10.9393
▁rękach	-10.9393
▁uciec	-10.9394
pos	-10.9394
▁dotychczasowej	-10.9396
▁rud	-10.9398
▁Tim	-10.9398
zio	-10.9398
▁papieski	-10.94
wat	-10.9402
▁starał	-10.9405
▁wyraził	-10.9405
▁sąsiedztwie	-10.9408
mmer	-10.9409
▁miesiąc	-10.9409
▁kas	-10.941
▁znaczne	-10.941
▁komendant	-10.9413
▁królewskiej	-10.9413
▁Syr	-10.9413
▁kuzyn	-10.9413
pomni	-10.9414
▁wspierał	-10.9415
chen	-10.9415
▁wybrano	-10.9417
▁Brat	-10.9417
▁Produkcja	-10.9419
▁Kolejny	-10.9424
▁osłon	-10.9425
▁generalny	-10.9426
nowa	-10.9426
▁każda	-10.9426
Cz	-10.9427
Wo	-10.9427
SL	-10.9428
▁skup	-10.9428
brod	-10.9429
czone	-10.943
▁ćwierćfinale	-10.9431
▁przeznaczony	-10.9432
▁religijnych	-10.9434
▁drużynę	-10.9434
▁Linia	-10.9435
▁Bern	-10.9437
▁krajowej	-10.9437
▁hrabia	-10.9437
▁piąty	-10.9437
▁rodzinnej	-10.9438
szar	-10.9439
głow	-10.9443
▁utworzonego	-10.9447
▁państwowy	-10.9449
▁belgijski	-10.9449
▁zasięg	-10.945
isz	-10.945
▁posłem	-10.9451
▁Oba	-10.9451
▁stref	-10.9452
aną	-10.9454
▁Kongres	-10.9454
▁głowę	-10.9456
▁wolność	-10.9457
▁niezwykle	-10.9461
enci	-10.9462
▁stosuje	-10.9462
cyn	-10.9464
▁oddziałem	-10.9465
▁murowany	-10.9465
▁wolno	-10.9465
ade	-10.9472
2005	-10.9473
▁Stary	-10.9474
▁kompleksu	-10.9474
▁oskarżony	-10.9476
▁wraca	-10.9476
ding	-10.9477
▁bocznych	-10.9478
▁Cmentarz	-10.9478
▁Słowa	-10.948
▁traktat	-10.9481
▁święto	-10.9481
▁pokarm	-10.9482
▁obóz	-10.9484
▁sal	-10.9485
▁zgodę	-10.9488
▁duet	-10.9491
wiązał	-10.9491
▁Cztery	-10.9492
▁projektant	-10.9493
sc	-10.9496
▁bracia	-10.9497
▁lokalnej	-10.9498
▁ziemię	-10.9498
▁bud	-10.95
▁natury	-10.9501
▁szat	-10.9502
tyce	-10.9503
fort	-10.9506
lak	-10.9507
roni	-10.9512
▁Palestyny	-10.9514
▁(5	-10.9516
niesienie	-10.9517
▁albański	-10.9518
eńskiego	-10.9519
staje	-10.9522
▁prawym	-10.9523
▁Ker	-10.9523
ky	-10.9524
▁tablic	-10.9525
▁jedyną	-10.9525
▁Jac	-10.9526
▁należących	-10.9528
▁zbrojne	-10.953
▁miejskiego	-10.9531
▁ośrodkiem	-10.9532
zło	-10.9533
▁pieniądze	-10.9533
▁włoskiej	-10.9534
▁Jordan	-10.9534
▁SA	-10.9534
arską	-10.9534
▁sztandar	-10.9537
▁Wystaw	-10.9537
▁Zarząd	-10.9539
▁okolicznych	-10.9541
sburg	-10.9541
Sp	-10.9542
▁raper	-10.9544
way	-10.9545
▁skokach	-10.9547
krzyw	-10.9548
▁dolinie	-10.9548
▁Istnieje	-10.9548
▁sum	-10.955
▁dwukrotny	-10.9552
▁Krze	-10.9552
szczep	-10.9553
▁Polacy	-10.9553
▁powrotu	-10.9555
rzę	-10.9556
▁Company	-10.9559
▁unika	-10.9559
▁Opolu	-10.956
▁rosyjskie	-10.9562
▁fabuły	-10.9564
▁Prezydent	-10.9565
pój	-10.9566
▁zajęciu	-10.9566
▁koncepcji	-10.9567
▁zmusił	-10.9571
pet	-10.9572
▁dworski	-10.9575
▁Festiwal	-10.9575
▁lotniczy	-10.9576
AM	-10.9577
▁silnika	-10.9577
▁korpus	-10.9581
niego	-10.9583
▁Tan	-10.9584
▁Series	-10.9587
kraj	-10.9587
▁bokach	-10.9588
▁1954.	-10.9589
▁dyspozycji	-10.9592
róż	-10.9592
żdż	-10.9593
-15	-10.9595
▁gminnej	-10.9597
▁społeczne	-10.9598
▁Hen	-10.96
▁otrzymali	-10.96
▁muzyczne	-10.96
▁pośmiertnie	-10.9601
▁ślady	-10.9602
ctwa	-10.9604
ctwo	-10.9605
▁zdolności	-10.9607
▁przydział	-10.9612
▁czynny	-10.9613
▁Tereny	-10.9617
▁Banku	-10.9618
▁prowadzą	-10.9621
▁Jagiellońskiego	-10.9621
▁Williams	-10.9624
inform	-10.9625
▁istnienie	-10.9626
▁plemion	-10.9628
zielony	-10.9628
▁gałęzi	-10.9629
▁mazowieckim	-10.9629
▁rezultacie	-10.963
PL	-10.9634
cc	-10.9636
▁założone	-10.9637
▁organizacyjna	-10.9637
gno	-10.9638
▁zdobywa	-10.9639
▁1864	-10.964
▁obywatelstwo	-10.964
chan	-10.9642
ędzi	-10.9643
aba	-10.9643
▁znaleziono	-10.9644
Fi	-10.9645
arty	-10.9645
sob	-10.9649
Rodan	-10.965
▁sołectwa	-10.965
▁sędzia	-10.965
▁ważnym	-10.965
fen	-10.965
▁Sukcesy	-10.9651
▁rozkład	-10.9655
▁wykonując	-10.9655
▁wsparcia	-10.9655
▁lider	-10.9657
▁Jam	-10.9658
▁Maj	-10.9658
ova	-10.9661
tte	-10.9663
2015	-10.9664
▁Systematyka	-10.9665
▁przejęła	-10.9665
gów	-10.9666
▁Służba	-10.9673
▁zmiana	-10.9674
kat	-10.9674
▁istnieją	-10.9675
▁kilkunastu	-10.9676
▁bohatera	-10.9677
▁działalnością	-10.9678
▁ONZ	-10.9681
▁związków	-10.9681
▁środkowego	-10.9681
mini	-10.9681
▁Dzień	-10.9682
▁czyta	-10.9683
▁otaczając	-10.9684
sing	-10.9684
▁rodzaje	-10.9685
ule	-10.9686
plik	-10.9686
świat	-10.9687
czkę	-10.9687
▁zdobycie	-10.9688
wała	-10.9688
▁Miejsce	-10.9689
▁opat	-10.969
▁zabitych	-10.9691
AP	-10.9691
▁Trans	-10.9693
▁następcą	-10.9694
▁Kolegium	-10.9697
▁uzyskać	-10.9697
owate	-10.9701
bił	-10.9702
▁rozegranym	-10.9702
▁Gri	-10.9705
▁mówiąc	-10.9705
▁Także	-10.9706
szenie	-10.9706
▁czwartej	-10.9706
▁pojedyncze	-10.9707
▁Wschodniej	-10.971
▁Uczęszczał	-10.9711
▁kamienicy	-10.9711
▁rękopis	-10.9712
iak	-10.9712
▁wielkich	-10.9712
▁rozegrane	-10.9714
▁pociąg	-10.9715
ante	-10.9716
trze	-10.9716
sten	-10.9718
dła	-10.9719
AS	-10.972
▁media	-10.972
▁Szwed	-10.9722
▁umieszczona	-10.9724
▁siłami	-10.9726
▁5000	-10.9728
▁założycieli	-10.9728
▁garnizon	-10.9729
▁medalu	-10.973
niż	-10.9732
▁białoruski	-10.9733
▁Fil	-10.9733
cisk	-10.9733
czym	-10.9733
▁Partia	-10.9733
▁rozpoczęciem	-10.9735
▁baron	-10.9736
▁szturm	-10.9736
nast	-10.9737
-6	-10.9741
▁masyw	-10.9741
▁zakonne	-10.9741
▁stoczył	-10.9742
▁Rosyjskiej	-10.9742
▁mnich	-10.9744
▁Antonio	-10.9745
▁pozbawiony	-10.9745
dio	-10.9745
▁lekkoatleta	-10.9746
▁Kin	-10.9749
▁nagrany	-10.9749
▁zawierający	-10.9749
▁biel	-10.975
▁zjazd	-10.9751
▁marki	-10.9752
▁funkcjonuje	-10.9755
▁Pracowni	-10.9755
▁zasięgu	-10.9755
▁skrzydło	-10.9756
▁Demografia	-10.9757
▁he	-10.9758
▁Stru	-10.9762
mieści	-10.9762
komend	-10.9765
▁technologii	-10.9766
▁następująco	-10.9766
▁łącznej	-10.9773
▁ogólno	-10.9774
▁obecny	-10.9775
▁odległość	-10.9775
▁Ron	-10.9776
sma	-10.9776
▁określił	-10.9776
OR	-10.9776
▁generalnym	-10.9777
▁główna	-10.9781
▁niewielkim	-10.9781
▁rajd	-10.9783
▁Budapeszcie	-10.9785
▁mistrzyni	-10.9789
▁wodny	-10.9789
pow	-10.9791
▁(12	-10.9794
sił	-10.9795
put	-10.9795
▁pozostając	-10.9796
▁gigancie	-10.9796
▁szkołach	-10.9797
etta	-10.9797
społ	-10.98
ses	-10.98
AN	-10.98
który	-10.9801
▁Wojskowym	-10.9802
▁mierze	-10.9803
▁zarządzania	-10.9803
chód	-10.9803
▁żydowskich	-10.9804
▁atom	-10.9805
▁Senatu	-10.9806
▁zajęły	-10.9808
ington	-10.981
cina	-10.9811
▁pochodzące	-10.9812
▁miłość	-10.9814
▁RFN	-10.9815
▁trenerska	-10.9817
▁Atenach	-10.982
▁odwiedza	-10.982
pę	-10.982
▁Wychowanek	-10.9821
▁przełęcz	-10.9821
▁trwania	-10.9821
acyjnych	-10.9822
▁zjeździe	-10.9822
▁Ostatnie	-10.9822
obowiąz	-10.9823
nger	-10.9823
▁okoliczności	-10.9823
▁reorganizacji	-10.9824
▁wszelkie	-10.9826
ografia	-10.9828
AR	-10.983
▁wyposażenia	-10.983
dre	-10.9833
▁parlament	-10.9833
▁biegach	-10.9834
▁Franz	-10.9835
▁Wolf	-10.9835
▁wyższych	-10.9837
▁strefy	-10.9837
▁Obie	-10.9838
▁ochroną	-10.9839
▁potoku	-10.9839
▁potrafi	-10.9842
▁przepływa	-10.9843
▁twórca	-10.9845
▁zbiorach	-10.9845
orzyst	-10.9846
▁Wola	-10.9846
dzenie	-10.9847
▁zdobycia	-10.985
▁przeważnie	-10.985
pół	-10.9852
▁granic	-10.9854
▁wzięło	-10.9855
▁Badania	-10.9855
▁wykorzystywany	-10.9855
▁rodzi	-10.9855
▁kary	-10.9857
▁Marcel	-10.9858
acyjny	-10.9859
ega	-10.9861
nen	-10.9862
▁piask	-10.9864
▁funtów	-10.9864
▁wielkopolskim	-10.9865
▁prototyp	-10.9867
▁Scott	-10.9867
▁startując	-10.9867
▁Will	-10.9867
▁domowym	-10.987
więty	-10.987
▁Lotnictwa	-10.9871
▁Finał	-10.9872
▁Nar	-10.9875
▁Boj	-10.9877
tycz	-10.9878
▁Hill	-10.9879
▁technicznych	-10.9879
▁szans	-10.988
szczęśliw	-10.988
▁inżyniera	-10.9881
ges	-10.9882
▁France	-10.9883
▁odkryto	-10.9886
▁ówczesnych	-10.9886
▁kres	-10.9888
niesiony	-10.9888
▁młody	-10.9889
▁towarzyszył	-10.989
▁zasila	-10.9891
▁Siedziba	-10.9892
liwy	-10.9898
syryjski	-10.9899
▁zorganizowano	-10.9899
▁wariant	-10.99
▁mjr	-10.9903
▁pogląd	-10.9903
▁san	-10.9905
▁karabin	-10.9905
Międzynarodowego	-10.9906
▁Janeiro	-10.9906
▁zmianę	-10.9908
jskich	-10.9911
▁Uzyskał	-10.9913
▁opuszcza	-10.9918
▁wiadomości	-10.992
PR	-10.992
uchy	-10.992
HL	-10.9921
▁Dur	-10.9921
polski	-10.9921
lich	-10.9924
RA	-10.9927
budowane	-10.9929
▁Edukacji	-10.993
atyw	-10.9931
▁koncertu	-10.9931
kwi	-10.9931
▁ramion	-10.9933
ado	-10.9933
▁zajmowan	-10.9934
pion	-10.9934
▁obszarów	-10.9934
No	-10.9934
▁Ogólnokształcąc	-10.9935
▁postacią	-10.9935
▁sprawach	-10.9936
jaw	-10.9936
▁powróciła	-10.9936
▁praktycznie	-10.9937
▁wilgotn	-10.9939
▁pomaga	-10.9939
▁Des	-10.9941
▁Formule	-10.9944
ensis	-10.9945
▁River	-10.9946
▁53	-10.9948
▁starszych	-10.9951
▁UNESCO	-10.9953
▁ksiądz	-10.9956
▁osiąga	-10.9957
pin	-10.9958
▁umysł	-10.9958
▁Wielkie	-10.9959
▁dyrygent	-10.9959
▁telewizyjnych	-10.9961
kret	-10.9963
▁zmieniła	-10.9965
▁wykład	-10.9966
▁rynek	-10.9966
▁finansowych	-10.9967
owcu	-10.9969
zania	-10.9971
cyjny	-10.9972
AT	-10.9975
pał	-10.9975
▁Indiach	-10.9975
etti	-10.9976
górz	-10.9978
▁Mecz	-10.9978
▁księstwa	-10.9979
▁obrad	-10.9983
▁krew	-10.9983
▁Dub	-10.9984
Kon	-10.9985
▁Argentyny	-10.9987
szli	-10.9988
▁Książę	-10.999
▁chodzi	-10.9992
tos	-10.9992
▁obc	-10.9993
▁Part	-10.9993
tery	-10.9993
▁podstawy	-10.9994
▁Chociaż	-10.9994
ID	-10.9995
▁ofiary	-10.9996
▁połączył	-10.9996
▁rejs	-10.9996
▁oddano	-10.9998
▁Istnieją	-10.9999
▁stworzony	-10.9999
według	-11
▁równi	-11
▁odczyt	-11
▁Mak	-11.0002
nin	-11.0003
zno	-11.0003
▁czuł	-11.0005
waj	-11.0005
tow	-11.0006
▁pojazdów	-11.0006
atów	-11.0007
▁zgody	-11.0009
▁trafi	-11.0009
▁odnosząc	-11.001
▁Występowanie	-11.0011
▁wersje	-11.0013
fel	-11.0017
▁Departamentu	-11.0017
lut	-11.0019
▁Raj	-11.002
▁Kobiet	-11.0025
oń	-11.0027
▁ewangelicki	-11.0028
▁Placówka	-11.0028
▁Paula	-11.0029
▁utworzonej	-11.0029
▁osobą	-11.0029
▁(10	-11.003
▁blok	-11.0031
▁1875	-11.0034
▁Kurs	-11.0034
gram	-11.0035
▁pracując	-11.0035
Dziennik	-11.0036
gospodar	-11.0036
pha	-11.0039
▁Stronnictwa	-11.0039
ryka	-11.0041
▁Roślin	-11.0046
▁będące	-11.0048
polis	-11.0049
▁Upamiętnienie	-11.0051
▁żywności	-11.0051
ictor	-11.0052
seksu	-11.0052
▁Słońca	-11.0053
▁ukazało	-11.0055
▁alpejski	-11.0056
▁właścicieli	-11.0057
powiedzi	-11.0057
▁grzyb	-11.0058
▁niegdyś	-11.0058
jad	-11.0058
czką	-11.0059
▁wykaz	-11.0059
▁sportu	-11.006
▁Form	-11.006
▁Hart	-11.0061
▁polityczna	-11.0061
stwie	-11.0061
▁trzecią	-11.0062
Pol	-11.0063
▁poety	-11.0063
ingen	-11.0063
▁zorganizowany	-11.0064
▁wystawie	-11.0065
▁sprzedany	-11.0066
równy	-11.0067
▁Szkół	-11.0068
▁księdza	-11.0068
▁South	-11.0068
▁Złotym	-11.0069
▁pochodzenie	-11.0069
▁1921–1945	-11.0071
▁dusz	-11.0072
▁indywidualnie	-11.0073
▁czworo	-11.0075
▁radzie	-11.0078
▁koszt	-11.0078
▁programów	-11.0078
▁(6	-11.0079
▁Osob	-11.0079
▁Estonii	-11.008
MA	-11.008
▁Zagrał	-11.0081
▁widzenia	-11.0082
▁Bl	-11.0084
▁publicznego	-11.0084
▁albumów	-11.0084
▁Wood	-11.0085
▁pokrywa	-11.0085
zję	-11.0088
▁danego	-11.0089
▁otrzymuje	-11.0089
▁ucieczki	-11.009
▁ikon	-11.009
▁stop	-11.0091
–1939	-11.0091
▁White	-11.0093
wskim	-11.0093
▁parze	-11.0096
▁leżą	-11.0098
▁lokalnego	-11.01
▁wyjazd	-11.0102
▁pokonała	-11.0102
AC	-11.0102
▁opisuje	-11.0103
ear	-11.0103
ewicza	-11.0105
▁Serial	-11.0106
oka	-11.0108
▁silne	-11.0108
▁narodowego	-11.0109
rzec	-11.0111
▁mianem	-11.0115
▁osobników	-11.0115
▁nazwany	-11.0116
ovi	-11.0118
▁argument	-11.0119
▁1879	-11.0122
▁zbiory	-11.0122
więcenia	-11.0125
liński	-11.0125
▁1866	-11.0131
▁szerokość	-11.0131
ecka	-11.0131
▁najwyżej	-11.0132
rac	-11.0133
▁sprawiedliwości	-11.0135
▁Spe	-11.0139
▁biznes	-11.014
▁przypadkach	-11.014
▁wspomnienia	-11.014
▁wyprodukowany	-11.014
eński	-11.014
▁Okręgowego	-11.014
▁Ny	-11.014
▁zwraca	-11.0143
▁tyłu	-11.0143
▁fabryki	-11.0143
▁tygodnie	-11.0144
▁posąg	-11.0145
▁Układ	-11.0145
▁podstawowych	-11.0146
▁sięga	-11.0147
▁zapewnia	-11.0147
▁wodzą	-11.0148
▁Es	-11.0149
▁Pozostał	-11.0149
▁Najlepsze	-11.0151
▁zaprojektował	-11.0152
▁rolnictwa	-11.0154
▁patron	-11.0155
▁zakwalifikował	-11.0156
liny	-11.0157
▁wyemigrował	-11.0159
▁pełniła	-11.0161
▁Roku	-11.0163
głów	-11.0164
▁grzybów	-11.0164
▁plutonu	-11.0165
atora	-11.0165
rozpozna	-11.0166
▁role	-11.0168
▁wyjazdowym	-11.0168
▁postacie	-11.0169
▁SK	-11.0169
▁Najwyższej	-11.0171
▁stanowili	-11.0172
▁1878	-11.0173
▁łodzi	-11.0177
▁cywil	-11.0179
▁dłuższy	-11.0181
▁sponsor	-11.0182
▁Wojewódzkiego	-11.0182
sky	-11.0184
▁Dzieci	-11.0188
▁typowe	-11.0192
▁Carlos	-11.0193
▁54	-11.0194
▁ulicą	-11.0194
▁dachu	-11.0194
▁Główne	-11.0195
ds	-11.0197
nowo	-11.0198
▁politykę	-11.0198
mera	-11.0199
▁Nigdy	-11.02
▁Kri	-11.0201
▁danej	-11.0203
▁kost	-11.0203
ello	-11.0206
▁ognia	-11.0207
obec	-11.0207
niczy	-11.0208
Man	-11.0209
▁58	-11.0209
tag	-11.0211
giem	-11.0211
went	-11.0213
▁święty	-11.0213
▁wykonanie	-11.0214
▁polityczny	-11.0214
▁Gene	-11.0215
▁nazwał	-11.0216
▁Sun	-11.0216
▁żaden	-11.0217
▁kolarz	-11.022
▁Wrestling	-11.0222
▁habilitowanego	-11.0223
▁pododdział	-11.0224
▁wymiany	-11.0225
▁indyjski	-11.0227
▁wykłady	-11.0228
▁Zasięg	-11.0229
▁odebrał	-11.0232
▁przeżył	-11.0232
wiadom	-11.0234
▁niewy	-11.0239
fic	-11.0239
▁najstarszych	-11.024
▁Kamień	-11.024
dry	-11.024
▁Transport	-11.0242
▁szwadron	-11.0242
▁podobny	-11.0243
▁brała	-11.0245
ese	-11.0246
▁mały	-11.0249
▁Bukow	-11.0249
▁widoczny	-11.0249
▁ówczesnym	-11.0249
łot	-11.025
▁Współpracował	-11.0251
bicie	-11.0251
▁muszą	-11.0252
cyjną	-11.0255
▁zniszczeniu	-11.0258
▁udaje	-11.0259
▁zniszczenia	-11.0263
▁Muzycznej	-11.0263
▁Pop	-11.0264
▁aktywny	-11.0264
tym	-11.0269
lej	-11.027
▁Ap	-11.027
▁sklasyfikowany	-11.0271
▁Pła	-11.0272
▁wprowadzenie	-11.0273
grodzki	-11.0273
▁wojskami	-11.0273
▁Sztokholmie	-11.0273
▁Centralnym	-11.0274
▁kin	-11.0275
▁opiekun	-11.0275
▁tarczy	-11.0276
are	-11.0276
czeń	-11.0276
▁cegły	-11.0278
▁WOP	-11.0279
▁Pekinie	-11.028
▁Michel	-11.028
▁taką	-11.0281
▁rodzajów	-11.0281
itów	-11.0281
▁irlandzki	-11.0283
▁wzrostu	-11.0283
▁zawarte	-11.0286
nga	-11.0286
owań	-11.0288
▁lokatę	-11.0288
▁Hil	-11.029
▁Brygada	-11.029
ecz	-11.029
▁1860	-11.029
▁orkiestr	-11.0292
▁Inspektoratu	-11.0293
ńczyków	-11.0294
▁elit	-11.0296
▁składają	-11.0296
▁wyznacza	-11.0297
▁wysokim	-11.0297
▁niepodległej	-11.0297
▁Ryszard	-11.0298
▁światowa	-11.0299
▁Domin	-11.0301
FA	-11.0302
uan	-11.0304
▁specjalnie	-11.0305
▁zbrojnych	-11.0305
▁und	-11.0305
▁sesji	-11.0305
▁leżące	-11.0306
▁art	-11.0308
iono	-11.0308
▁argentyński	-11.0312
▁Litwie	-11.0313
▁kuchni	-11.0315
▁nazywane	-11.0319
▁organizowane	-11.032
ństwo	-11.032
towa	-11.0322
▁filar	-11.0322
▁armię	-11.0322
▁kościołów	-11.0322
tico	-11.0323
▁kardynała	-11.0325
▁godności	-11.0326
▁straż	-11.0327
▁wojennej	-11.0329
▁lotniska	-11.0329
▁menedżer	-11.0329
▁używana	-11.033
▁granat	-11.0332
▁pomagał	-11.0332
▁mord	-11.0332
ycznym	-11.0332
▁Sara	-11.0336
lenia	-11.0338
▁autostrad	-11.0342
▁służy	-11.0342
▁Bill	-11.0342
▁ciek	-11.0346
▁Najwyższy	-11.0347
▁podzielony	-11.0349
nieść	-11.0349
▁Wzgórz	-11.0349
narodowe	-11.0351
Dzi	-11.0351
▁nosiła	-11.0352
Car	-11.0354
▁krótkie	-11.0354
▁bitwa	-11.0356
▁powietrza	-11.0359
▁kaplicę	-11.0362
▁mięśni	-11.0364
fan	-11.0365
▁siedlisk	-11.0365
encja	-11.0366
▁nazwiskiem	-11.0367
stabil	-11.0368
▁raport	-11.0369
▁techniką	-11.037
▁Filipa	-11.0375
Akademi	-11.0375
▁Street	-11.0378
Ber	-11.0378
▁Młyn	-11.0378
▁przepraw	-11.0379
▁ilość	-11.038
▁murów	-11.038
Stanisław	-11.038
▁bramkarza	-11.0381
▁auto	-11.0384
▁zakończony	-11.039
▁kamień	-11.0391
▁Windows	-11.0391
▁przodu	-11.0392
▁Jack	-11.0393
▁porównaniu	-11.0393
hof	-11.0393
▁burmistrza	-11.0395
▁Formowanie	-11.0395
▁stulecia	-11.0397
Har	-11.0398
▁radzieckich	-11.0398
▁komunikacyjn	-11.0401
▁Dam	-11.0401
▁ram	-11.0402
▁zmarłego	-11.0402
skar	-11.0402
▁nawiązując	-11.0403
eder	-11.0403
uży	-11.0405
▁wodą	-11.0406
▁doprowadziło	-11.0406
▁teolog	-11.041
▁zastęp	-11.0411
ńców	-11.0411
▁Roger	-11.0411
▁zachodnich	-11.0413
Str	-11.0413
▁porozumienia	-11.0418
▁prośbę	-11.0418
▁rozgrywany	-11.0418
▁zakończone	-11.042
▁zamach	-11.042
czem	-11.042
▁następuje	-11.0421
▁płyn	-11.0422
▁wybór	-11.0422
▁załoga	-11.0422
ścią	-11.0425
▁zniesiono	-11.0425
▁Węgrzech	-11.0425
▁morskich	-11.0426
trz	-11.0431
▁miesiącu	-11.0432
▁Pier	-11.0433
▁kultu	-11.0434
cus	-11.0435
▁Służył	-11.0438
▁demon	-11.0438
▁walcząc	-11.0439
▁Włodzimierz	-11.044
erii	-11.044
▁geo	-11.044
▁powierzchnia	-11.0442
▁pism	-11.0442
▁Wczesne	-11.0445
rodził	-11.0448
▁Ani	-11.0448
fili	-11.0449
▁peron	-11.0449
▁ostrze	-11.0453
kel	-11.0453
baj	-11.0455
▁ekspert	-11.0458
ukasz	-11.0458
▁Joe	-11.046
ruch	-11.0462
realizowa	-11.0465
nale	-11.0465
źnie	-11.0466
▁Ph	-11.0467
▁Marię	-11.0468
najd	-11.047
▁powtarza	-11.047
▁Feder	-11.0471
▁zdobi	-11.0471
▁ostatnią	-11.0471
▁finansowe	-11.0472
ld	-11.0472
▁Może	-11.0477
▁parę	-11.0478
▁Eg	-11.0479
ożyw	-11.0479
▁Racing	-11.0481
ysz	-11.0482
cle	-11.0484
▁Grec	-11.0485
▁beton	-11.0485
▁Jedno	-11.0485
▁systemów	-11.0486
▁maszyny	-11.0487
cke	-11.049
▁dzielnic	-11.049
▁Jezus	-11.0491
nosi	-11.0493
▁List	-11.0495
▁dolina	-11.0496
zach	-11.0497
dzki	-11.05
▁firmie	-11.0502
▁KOP	-11.0503
▁brąz	-11.0509
stor	-11.051
uni	-11.051
onia	-11.0512
▁kto	-11.0513
▁ekonom	-11.0513
▁Fer	-11.0514
▁planu	-11.0515
▁mieszkania	-11.0518
ubi	-11.0519
▁budowlane	-11.052
▁rozgrywkowej	-11.0523
▁ćwierćfinał	-11.0525
▁Jedna	-11.0526
bia	-11.0526
▁GP	-11.0527
▁uderzył	-11.0528
▁zakładów	-11.0529
▁ogród	-11.0529
wist	-11.0534
ssel	-11.0534
▁umożliwia	-11.0536
▁wieloma	-11.0537
▁bied	-11.0538
▁rodzicami	-11.0538
led	-11.0538
yzmu	-11.0539
▁Raw	-11.0539
▁popularne	-11.0541
patrz	-11.0546
▁Sen	-11.0548
tana	-11.055
▁Francis	-11.0552
▁pozostały	-11.0553
pper	-11.0554
wój	-11.0555
tycznej	-11.0555
pier	-11.0555
▁Moraw	-11.0555
▁ścianach	-11.0559
▁kompania	-11.0561
antów	-11.0562
▁wydawał	-11.0563
▁obniż	-11.0563
▁przełęczy	-11.0564
▁Politechnice	-11.0565
▁zlecenie	-11.0565
▁postaw	-11.0566
▁obecność	-11.0568
▁czerwonym	-11.0571
inter	-11.0576
cor	-11.0577
▁(7	-11.0577
eck	-11.0577
▁światło	-11.0577
▁rozpoczęli	-11.0578
szów	-11.0579
▁Lim	-11.058
czyńskiego	-11.0584
▁gościnnie	-11.0584
kryte	-11.0584
▁kosz	-11.0584
adi	-11.0587
▁rozwijał	-11.0587
▁przekroczył	-11.0588
▁mundur	-11.059
iga	-11.059
▁Day	-11.059
▁niewielka	-11.0593
▁wież	-11.0594
▁sala	-11.0594
▁obsługi	-11.0594
▁młodzieżowych	-11.0595
▁MT	-11.0595
▁Szczecin	-11.0595
▁Mach	-11.0595
▁Plac	-11.0596
urze	-11.0596
▁1815	-11.0599
▁Teren	-11.06
▁amerykańskie	-11.0601
klar	-11.0602
▁wierzch	-11.0602
▁1871	-11.0603
▁1861	-11.0604
▁pracą	-11.0604
▁szkocki	-11.0605
▁układzie	-11.0607
lum	-11.0607
nov	-11.0607
tina	-11.0608
▁Cl	-11.0608
▁laureat	-11.0608
▁dęb	-11.0608
brzy	-11.061
▁okazała	-11.061
▁pil	-11.0611
TS	-11.0612
▁techniczny	-11.0612
▁końcem	-11.0616
▁zimowych	-11.0617
▁przybywa	-11.0618
▁poprzedniego	-11.0618
▁zwane	-11.0619
▁Jones	-11.062
▁fundacji	-11.0621
▁Rodzaj	-11.0621
▁geograficzne	-11.0621
lag	-11.0622
słania	-11.0622
wschodnim	-11.0624
▁kanale	-11.0625
▁miejscowego	-11.0626
▁przejściu	-11.0627
▁Kub	-11.0628
▁miedzi	-11.0628
▁1876	-11.0629
▁HMS	-11.063
▁kina	-11.0631
▁sportowe	-11.0631
kowskiej	-11.0632
▁Górna	-11.0633
dawane	-11.0636
▁AC	-11.0638
▁1872	-11.0638
▁przekazany	-11.0638
lone	-11.0639
▁doczekał	-11.0639
dają	-11.0641
▁elektor	-11.0641
olo	-11.0643
szczenie	-11.0644
ische	-11.0647
▁muzyką	-11.0648
▁narzędzi	-11.065
Arthur	-11.065
etu	-11.0651
▁brzmi	-11.0651
wody	-11.0652
lez	-11.0653
2016	-11.0653
uma	-11.0655
▁ogłosiła	-11.0655
▁pracownikiem	-11.0656
ywa	-11.0658
▁przypada	-11.066
czynie	-11.0664
języcz	-11.0667
▁dorosłych	-11.0669
nięte	-11.067
▁Drużyna	-11.067
itt	-11.0671
Szcz	-11.0674
▁wykonywania	-11.0674
kcji	-11.0674
▁panowanie	-11.0675
▁muzyków	-11.0675
łowa	-11.0677
▁konsol	-11.068
▁Leona	-11.068
▁40.	-11.0682
jącymi	-11.0683
tti	-11.0684
▁siostrą	-11.0689
-10	-11.069
▁stosunków	-11.0692
▁Alt	-11.0693
▁Chłop	-11.0697
żan	-11.0697
▁wyspę	-11.0699
▁Dre	-11.07
▁graczy	-11.0706
▁wyników	-11.0708
▁same	-11.071
▁lepiej	-11.071
▁członkami	-11.0711
arg	-11.0712
▁Turniej	-11.0713
czności	-11.0714
▁kamienic	-11.0716
▁trybun	-11.0717
ńczycy	-11.0717
▁rozbudowy	-11.0717
bawi	-11.0719
▁Rzym	-11.0719
▁Pogranicza	-11.072
▁Największy	-11.072
▁wice	-11.0724
▁spółka	-11.0725
▁Henri	-11.0725
opat	-11.0728
hrer	-11.0728
▁świeckie	-11.0728
▁składał	-11.0728
▁materiały	-11.073
▁stanowiąc	-11.0735
kot	-11.0735
▁prawem	-11.0736
▁Long	-11.0738
tego	-11.0738
num	-11.074
▁podwodny	-11.0741
tycznego	-11.0741
▁juniorskich	-11.0742
▁europejskiej	-11.0744
▁ceremonii	-11.0745
▁humanistycznych	-11.0746
▁Cerkiew	-11.0746
▁poprze	-11.0747
▁Rozwoju	-11.0748
▁kopuł	-11.0748
▁wagi	-11.0749
▁fizyk	-11.0749
▁tworzenie	-11.075
▁godność	-11.0751
Dom	-11.0752
lov	-11.0752
▁dokumenty	-11.0752
▁propozycję	-11.0753
cyjnej	-11.0754
zów	-11.0754
ndi	-11.0754
▁sportowej	-11.0754
▁Jacek	-11.0755
▁produkt	-11.0756
▁dwudziestoleciu	-11.0756
▁Mał	-11.0756
▁Por	-11.0757
▁trafia	-11.076
▁myśliwski	-11.0762
▁specjalizujący	-11.0763
▁półfinału	-11.0764
▁trójkąt	-11.0764
▁serwis	-11.0764
▁przedstawienia	-11.0764
nione	-11.0765
sis	-11.0765
uki	-11.0768
▁zwierzę	-11.0768
ous	-11.0768
bab	-11.077
▁nauczycieli	-11.0772
▁trasa	-11.0772
pri	-11.0772
bek	-11.0772
iro	-11.0776
▁biura	-11.0776
▁Brak	-11.0778
▁Jackson	-11.0779
▁Tal	-11.078
▁gwar	-11.0781
▁nieza	-11.0781
▁ptaka	-11.0781
▁Niektórzy	-11.0781
▁Komunistycznej	-11.0781
▁powołanie	-11.0783
▁placówka	-11.0783
▁Walii	-11.0783
▁punktem	-11.0783
▁2,5	-11.0785
▁1873	-11.0788
dle	-11.0789
▁Baj	-11.079
niku	-11.0791
ący	-11.0791
SA	-11.0793
▁Jednostka	-11.0794
▁Bram	-11.0796
▁motocykl	-11.0797
▁Pomocy	-11.0797
Gu	-11.08
▁Badań	-11.0801
▁wyższe	-11.0801
▁basen	-11.0802
▁Niedługo	-11.0804
▁piosenkarz	-11.0804
▁śmie	-11.0807
▁następujących	-11.0808
▁Kras	-11.0809
▁Elżbiety	-11.081
▁wykorzystał	-11.081
▁sportowa	-11.0814
▁Gran	-11.0814
▁podrodziny	-11.0815
▁poglądy	-11.0818
▁Ogrod	-11.0819
Ri	-11.0821
▁aktora	-11.0822
nięty	-11.0822
▁Olsztynie	-11.0822
▁gazety	-11.0822
tnik	-11.0826
stek	-11.0826
zachodnim	-11.083
▁Jun	-11.0832
▁trudne	-11.0834
▁fali	-11.0835
dek	-11.0835
▁1877	-11.0835
▁odznaczenia	-11.0836
grad	-11.0838
▁Chris	-11.0838
▁przypadł	-11.0839
ewo	-11.0839
▁fortepian	-11.0839
▁Ośrodek	-11.084
▁Dyrektor	-11.0843
▁Równocześnie	-11.0846
▁poselski	-11.0846
▁Radom	-11.0849
▁szóste	-11.0849
▁ad	-11.085
▁wyszedł	-11.0851
▁Odznaczony	-11.0851
Kr	-11.0852
▁Gminy	-11.0853
▁umieścił	-11.0854
przez	-11.0854
▁rodzinnego	-11.0855
▁kombinacji	-11.0859
▁znaleźli	-11.0861
▁Nord	-11.0862
▁BBC	-11.0862
▁Cur	-11.0863
▁otrzymując	-11.0864
▁rozciąga	-11.0865
▁mniejszych	-11.0868
▁Bli	-11.0869
pisał	-11.087
kus	-11.0872
▁dało	-11.0874
Solidarności	-11.0874
▁brytyjskie	-11.0874
▁polecenie	-11.0874
miel	-11.0875
ligi	-11.0875
▁dwoje	-11.0878
▁1874	-11.0878
▁niewielką	-11.0879
▁Pal	-11.0882
▁triumfował	-11.0883
▁ruszył	-11.0884
▁Toronto	-11.0887
sio	-11.0888
▁wyścigowy	-11.0891
▁Naczelnego	-11.0892
▁epizod	-11.0892
▁dostępny	-11.0893
▁Piłki	-11.0894
▁biała	-11.0894
▁środowisku	-11.0895
▁Ignacy	-11.0896
eńskiej	-11.0897
rio	-11.0898
▁gmachu	-11.0899
▁objęła	-11.09
▁źródłowego	-11.09
ccy	-11.0902
etto	-11.0902
▁zaangażowany	-11.0903
nością	-11.0903
▁twierdził	-11.0904
▁wsią	-11.0907
wiesz	-11.0908
▁baterii	-11.0908
▁brygad	-11.0908
alności	-11.091
ales	-11.091
Br	-11.0913
nką	-11.0914
▁moment	-11.0915
una	-11.0915
▁Cesarstwa	-11.0916
mark	-11.0917
▁wychowankiem	-11.0917
▁hol	-11.0918
▁naukowego	-11.0918
▁Mars	-11.0919
▁międzynarodowy	-11.092
▁700	-11.0922
moc	-11.0925
▁zdobyciu	-11.0926
oid	-11.0927
▁kupił	-11.0927
Sta	-11.0928
wu	-11.0928
dzkiego	-11.0931
lewa	-11.0934
▁rozmowy	-11.0934
▁greckiego	-11.0939
▁krajobraz	-11.094
legal	-11.0942
▁podmiot	-11.0943
▁med	-11.0943
▁węzłów	-11.0944
▁Władze	-11.0945
nickiej	-11.0945
▁prokurator	-11.0947
radz	-11.0947
▁wzniesienia	-11.0947
▁konkurencjach	-11.0949
▁Hugo	-11.095
▁łac	-11.0952
▁północnych	-11.0953
▁bywa	-11.0955
▁1865	-11.0959
▁tajemnic	-11.096
▁rzadki	-11.0961
dru	-11.0961
▁cara	-11.0962
RO	-11.0962
▁małej	-11.0963
Pr	-11.0963
▁olej	-11.0964
▁turystów	-11.0964
▁Język	-11.0964
arda	-11.0965
▁spa	-11.0966
▁organy	-11.0967
▁Manchester	-11.0968
▁startów	-11.0968
▁Nic	-11.0969
yzacji	-11.0973
kryty	-11.0973
▁Obsada	-11.0976
▁Kości	-11.0976
enz	-11.0976
▁Pad	-11.0978
▁odpowiadał	-11.0978
▁miejscowym	-11.0979
▁Awards	-11.0979
▁1:2	-11.0979
▁Samolot	-11.098
▁moskiewski	-11.098
▁Przyjaciół	-11.0981
▁niezależne	-11.0981
▁grafik	-11.0981
▁misjonarz	-11.0984
▁tył	-11.0984
▁politycznego	-11.0985
▁inwazji	-11.0986
▁olimpijczyk	-11.0986
▁chrześcijański	-11.0986
▁przyjęcia	-11.0989
▁czwartym	-11.0991
▁koloni	-11.0992
dża	-11.0993
słysz	-11.0994
▁sowiecką	-11.0994
▁związki	-11.0995
▁Aten	-11.0998
▁większa	-11.0998
▁fizyki	-11.0998
kło	-11.1001
▁Cam	-11.1001
▁zastępując	-11.1002
▁wznosi	-11.1003
▁Sala	-11.1003
▁spisu	-11.1003
▁należące	-11.1004
▁bojowych	-11.1004
▁pismo	-11.1005
▁Matt	-11.1009
▁Bos	-11.1009
▁występowanie	-11.101
ctor	-11.1014
RC	-11.1015
▁samca	-11.1016
▁białych	-11.1017
▁inną	-11.102
▁Republice	-11.102
▁lekkiej	-11.1021
▁konsekwencji	-11.1022
▁bunt	-11.1022
▁agresji	-11.1023
▁Museum	-11.1023
▁Szef	-11.1025
▁prostokąta	-11.1026
▁strukturze	-11.1029
▁Gall	-11.103
▁wydział	-11.1034
▁analizy	-11.1034
▁saperów	-11.1036
▁środka	-11.1038
▁110	-11.1039
▁monasteru	-11.1039
▁kursy	-11.1041
▁Jeżeli	-11.1044
▁Zofii	-11.1044
▁uniwersytet	-11.1046
▁utrzymał	-11.1046
dani	-11.1046
▁rozważa	-11.1047
▁rozp	-11.1049
▁przewodniczył	-11.105
owcz	-11.105
óż	-11.105
▁dobrym	-11.1051
kir	-11.1053
▁rezerwatu	-11.1054
▁rządy	-11.1055
obi	-11.1055
▁Praca	-11.1056
▁większy	-11.1057
gat	-11.1057
▁tamtym	-11.1058
▁66	-11.1059
nad	-11.1061
ląskiej	-11.1061
▁Ober	-11.1062
ric	-11.1063
▁zlokalizowany	-11.1064
▁jury	-11.1064
▁Jamesa	-11.1065
cul	-11.1065
acyjnej	-11.1066
FC	-11.1067
locie	-11.1068
arne	-11.1068
▁Szer	-11.1068
▁wodę	-11.1069
▁wykorzystując	-11.107
▁doszedł	-11.1071
▁komendantem	-11.1072
Dr	-11.1076
▁pojedynek	-11.1078
▁hokej	-11.1079
▁Bod	-11.1079
▁Wnętrze	-11.108
pamięt	-11.108
ness	-11.1081
▁Białej	-11.1082
▁konkursach	-11.1082
▁Strzel	-11.1085
wiązanie	-11.1085
▁Helen	-11.1085
▁odzyskaniu	-11.1086
cześni	-11.1087
▁Show	-11.1087
▁odkrył	-11.1087
▁Równ	-11.1087
nikach	-11.1087
biegł	-11.1088
▁0:1	-11.109
▁krążownik	-11.109
▁ciężkie	-11.1092
KO	-11.1093
wiet	-11.1093
2017	-11.1095
▁fu	-11.1097
▁poległych	-11.1097
sla	-11.1098
▁Ost	-11.1099
ografii	-11.1101
med	-11.1101
▁pokryte	-11.1101
▁seniorów	-11.1102
▁więzi	-11.1104
łog	-11.1105
2004	-11.1105
mog	-11.1108
▁Premiera	-11.1109
edi	-11.1111
iera	-11.1112
▁wybory	-11.1115
gie	-11.1118
sdorf	-11.1118
Zdzisław	-11.1119
▁Up	-11.112
▁odzyskał	-11.1122
PK	-11.1122
▁Olimpi	-11.1124
▁wybrana	-11.1128
puścił	-11.113
▁zachowała	-11.1131
▁łańcuch	-11.1131
▁Davida	-11.1132
▁przegląd	-11.1134
▁idei	-11.1134
morf	-11.1135
▁Zdanie	-11.1135
▁władca	-11.1136
▁różni	-11.1137
▁stadionu	-11.1137
▁używał	-11.1139
▁opublikowane	-11.1139
ral	-11.114
▁włoskim	-11.1141
nde	-11.1145
▁Akademię	-11.1145
▁Wewnętrznych	-11.1147
▁Anders	-11.1147
▁(8	-11.1148
▁osiągając	-11.1149
2003	-11.115
▁silny	-11.1152
▁chan	-11.1152
▁wpływy	-11.1154
▁drewniana	-11.1155
▁sytuację	-11.1155
▁Ministerstwo	-11.1156
▁prowadzić	-11.1157
▁(11	-11.1158
▁tylnej	-11.1159
▁Dane	-11.1159
▁podlega	-11.1159
▁wywiadu	-11.1161
rei	-11.1163
▁źródłem	-11.1166
kowskim	-11.1168
▁sprzętu	-11.1168
▁Sprawiedliwości	-11.1169
lnym	-11.117
▁lotnisko	-11.1171
▁kategoriach	-11.1172
▁takson	-11.1173
▁pozwolił	-11.1174
▁egz	-11.1176
plec	-11.1179
▁napaści	-11.118
▁muzycznym	-11.118
▁kręg	-11.1182
państw	-11.1184
▁przod	-11.1185
▁ogromne	-11.1186
tyczna	-11.1186
sche	-11.1187
▁grecki	-11.1188
▁mających	-11.1188
koreański	-11.1189
▁dziełem	-11.1189
▁Urban	-11.119
▁opieki	-11.119
▁ogląda	-11.1191
▁Sel	-11.1191
▁stoł	-11.1193
▁Wier	-11.1193
▁porucznik	-11.1195
▁Gali	-11.1195
▁żadnym	-11.1195
▁szerokie	-11.1196
▁brązu	-11.1198
▁stanowiło	-11.1198
zim	-11.12
Słow	-11.1202
krypt	-11.1202
▁duchownego	-11.1204
▁Kali	-11.1204
▁gubernatora	-11.1205
▁Radziwiłł	-11.1206
▁Zmarła	-11.1206
tia	-11.1207
▁Wielką	-11.1208
post	-11.1209
Con	-11.1209
▁ułanów	-11.1212
▁północnego	-11.1212
▁planów	-11.1213
rag	-11.1214
▁organizator	-11.1219
szyński	-11.122
wym	-11.1221
▁wieżę	-11.1222
arnej	-11.1223
▁sens	-11.1223
▁objęci	-11.1225
czep	-11.1226
▁Dwukrotnie	-11.1226
▁Prób	-11.1226
▁Milan	-11.1226
Głos	-11.1227
▁szosowy	-11.1228
▁History	-11.1228
▁Awans	-11.1231
tykę	-11.1231
▁posiadając	-11.1231
▁zapewnił	-11.1231
▁płaski	-11.1233
rand	-11.1235
budowano	-11.1236
▁stworzenie	-11.1236
▁znajdujących	-11.1237
stanie	-11.1237
andra	-11.1238
▁(13	-11.1239
▁projekty	-11.1241
sier	-11.1241
▁manewr	-11.1244
▁Bert	-11.1246
trak	-11.1246
▁Biblioteki	-11.1247
▁ewentualn	-11.1252
▁terror	-11.1252
▁Fri	-11.1253
błęd	-11.1254
▁wcześniejszych	-11.1254
▁samodzielnie	-11.1255
▁umiarkowan	-11.1255
▁general	-11.1256
▁dystans	-11.1259
▁Leonard	-11.126
wraz	-11.126
▁robotników	-11.1262
▁koncie	-11.1262
▁mis	-11.1264
▁62	-11.1264
▁występować	-11.1265
dawniej	-11.1266
▁książąt	-11.1268
logi	-11.1268
mara	-11.1269
▁63	-11.127
▁WP	-11.127
▁76	-11.127
▁Reg	-11.1271
▁ołtarza	-11.1272
▁Ziem	-11.1275
mund	-11.1276
▁wiersze	-11.1276
▁przyrodni	-11.1279
▁adiunkt	-11.1279
▁Madryt	-11.1279
▁francuskie	-11.1282
▁przewodnik	-11.1286
▁medycznych	-11.1287
▁odcinki	-11.129
▁chłopów	-11.1291
▁Superpuchar	-11.1292
▁Ducha	-11.1293
▁wzniesienie	-11.1293
▁uda	-11.1294
▁Południowo	-11.1295
Kar	-11.1296
▁Kut	-11.1297
▁zwyciężyła	-11.1297
Zachodni	-11.1298
can	-11.1299
chowie	-11.1302
gue	-11.1302
▁uzyskaniu	-11.1303
PN	-11.1304
▁Mieczysław	-11.1304
▁Konstantyn	-11.1306
wej	-11.1307
▁kapłan	-11.1309
▁przetrwał	-11.1309
BP	-11.1309
cier	-11.131
▁upadł	-11.1312
▁Entertainment	-11.1313
▁Wacław	-11.1314
▁Haj	-11.1314
▁1842	-11.1315
▁Edmund	-11.1317
▁widać	-11.1318
▁doktorską	-11.1321
▁spotkać	-11.1321
▁towarzyski	-11.1322
▁starego	-11.1325
▁1862	-11.1325
afrykański	-11.1325
▁obszarach	-11.1328
▁dokumentach	-11.1331
czel	-11.1334
hem	-11.1335
▁chorwacki	-11.1336
▁aktywności	-11.1336
▁właściwości	-11.1336
▁Kolejnym	-11.1336
▁wprowadzony	-11.1338
▁Auschwitz	-11.1338
▁Legii	-11.1339
▁mody	-11.1339
wicz	-11.1339
▁zaprezentował	-11.1341
▁jasno	-11.1342
gnie	-11.1343
wag	-11.1343
▁zniszczył	-11.1344
▁lamp	-11.1345
▁towarzyszy	-11.1345
mos	-11.1346
▁spad	-11.1348
▁General	-11.1348
▁rzucie	-11.1348
Am	-11.1349
▁spektakl	-11.135
▁otwarte	-11.135
▁naukowo	-11.1351
▁przewodni	-11.1352
▁DP	-11.1352
▁całość	-11.1353
łączone	-11.1353
▁Bet	-11.1355
sberg	-11.1355
▁trening	-11.1356
▁Center	-11.1356
▁Zamek	-11.1357
▁kryty	-11.136
▁Fred	-11.1361
BC	-11.1362
etyki	-11.1363
▁Uczył	-11.1363
▁Elżbieta	-11.1367
▁towarzysząc	-11.1369
cznik	-11.1371
▁operator	-11.1371
▁ekipy	-11.1374
▁61	-11.1375
▁Pru	-11.1375
tował	-11.1376
ksa	-11.1377
▁Tag	-11.1377
▁kontraktu	-11.1381
▁dziewięciu	-11.1382
▁Kijów	-11.1382
▁lip	-11.1386
▁Wyspy	-11.1387
mobil	-11.1387
▁użycia	-11.1388
▁1831	-11.1388
▁monety	-11.1389
icki	-11.139
fy	-11.139
▁Rose	-11.139
▁uczestniczyła	-11.1392
olu	-11.1393
▁romans	-11.1395
▁przyjmuje	-11.1396
▁Wobec	-11.1397
vers	-11.1397
▁szkolenie	-11.1398
lly	-11.1398
encji	-11.1399
▁mur	-11.1399
▁defini	-11.1401
gieł	-11.1404
▁powstańców	-11.1404
▁Odbył	-11.1405
▁biblioteki	-11.1405
▁honorowym	-11.1406
▁kul	-11.1408
▁małż	-11.141
▁Pers	-11.1411
eter	-11.1411
sji	-11.1412
▁Big	-11.1412
▁Melbourne	-11.1412
▁1868	-11.1415
▁Johnson	-11.1415
▁Ziel	-11.1417
▁Jer	-11.1418
▁oficjalnych	-11.1419
ON	-11.142
▁opowieści	-11.142
▁wykształcenia	-11.142
▁organizacją	-11.142
sun	-11.1422
▁dwuletni	-11.1422
▁liczyło	-11.1422
▁Mol	-11.1423
▁Jazz	-11.1423
▁małopolskim	-11.1426
▁egzemplarz	-11.1427
▁Narodzenia	-11.1429
mobiliz	-11.1431
▁domowe	-11.1431
▁stacjonując	-11.1431
budowany	-11.1435
▁Ostro	-11.1438
▁odejściu	-11.144
▁zagrożenie	-11.144
▁1869	-11.1442
▁wokalista	-11.1444
▁bierze	-11.1445
▁etapie	-11.1446
nowie	-11.1447
▁przekracza	-11.1447
▁Stanowi	-11.1449
▁kanału	-11.145
▁walka	-11.145
▁językach	-11.145
▁legendy	-11.1451
wozi	-11.1451
▁poświęcona	-11.1453
▁sezonów	-11.1454
yczny	-11.1455
▁piętrze	-11.1457
▁latarni	-11.1457
sygn	-11.1458
▁pancernik	-11.1459
▁nokaut	-11.1461
▁zdjęć	-11.1461
▁białoruską	-11.1464
▁Częstochowie	-11.1464
▁dzisiejszej	-11.1465
▁Siły	-11.1465
▁oddany	-11.1465
▁Płyta	-11.1467
▁postrzega	-11.1467
▁pojazdu	-11.1468
▁Die	-11.1469
słowiański	-11.1469
▁Matka	-11.147
▁Najpierw	-11.147
▁Typ	-11.147
▁nazywana	-11.1471
▁rozbit	-11.1471
arm	-11.1472
Solidarność	-11.1472
▁partia	-11.1473
▁tele	-11.1473
▁zabudowy	-11.1475
▁czynności	-11.1476
jrzał	-11.1477
szach	-11.1478
▁zniszczona	-11.1478
▁Koło	-11.148
▁skrzydeł	-11.1481
▁przebywa	-11.1482
▁grób	-11.1482
onim	-11.1483
▁opiekę	-11.1483
▁Mis	-11.1484
▁Kraju	-11.1486
wodni	-11.1489
Kodeks	-11.1489
ancer	-11.1489
▁Kolei	-11.149
alt	-11.1491
▁niewiele	-11.1492
▁świątynię	-11.1493
stol	-11.1493
▁Ole	-11.1493
Ferr	-11.1494
▁połowę	-11.1495
tej	-11.1498
▁starszym	-11.1498
▁72	-11.1498
▁wrażenie	-11.15
▁poznańskiego	-11.1503
▁Cro	-11.1504
czuk	-11.1506
AL	-11.1508
▁publikował	-11.1508
▁dra	-11.1509
▁dowództwa	-11.151
trwał	-11.1511
▁Morzu	-11.1513
ward	-11.1513
ologiczny	-11.1513
▁stóp	-11.1514
▁Society	-11.1514
▁Lat	-11.1514
▁kanon	-11.1514
▁przeniesiona	-11.1516
▁relacje	-11.1517
▁FIS	-11.1517
▁Obecny	-11.1519
▁Kopernika	-11.152
▁Kwa	-11.152
▁Af	-11.1521
-8	-11.1521
▁światowego	-11.1522
gul	-11.1525
▁Pel	-11.1526
▁She	-11.1527
▁szczątki	-11.1528
▁ław	-11.1528
▁Try	-11.1529
ons	-11.1529
▁założono	-11.153
▁łąk	-11.1531
pre	-11.1531
niesienia	-11.1532
gier	-11.1534
▁wschodnich	-11.1534
▁Og	-11.1534
▁Minister	-11.1535
▁Puszczy	-11.1536
yjne	-11.1536
▁koszul	-11.1536
▁okolice	-11.1539
bec	-11.154
mordowan	-11.1543
▁data	-11.1543
▁Dro	-11.1544
▁Ana	-11.1545
org	-11.1546
▁Ky	-11.1547
▁Bibli	-11.1547
pit	-11.1548
ive	-11.155
▁strop	-11.1552
more	-11.1552
▁wojsko	-11.1553
▁Biały	-11.1554
▁zebrał	-11.1556
azar	-11.1556
hebr	-11.156
▁losy	-11.156
▁turniejów	-11.1563
czność	-11.1564
Du	-11.1566
▁komentarz	-11.1566
kowicz	-11.1571
▁ATP	-11.1573
–14	-11.1574
▁uhonorowany	-11.1575
usta	-11.1577
▁olimpijskie	-11.1577
▁parafię	-11.1577
zawod	-11.1579
alis	-11.1579
▁przedmiotów	-11.1579
czów	-11.158
▁mieszkało	-11.1582
chodzący	-11.1583
zia	-11.1584
▁dając	-11.1585
▁utworem	-11.1586
▁KP	-11.1586
fie	-11.1589
czono	-11.159
▁opuścić	-11.1591
▁pojęcie	-11.1592
▁gleb	-11.1594
▁dwiema	-11.1595
dziw	-11.1596
hm	-11.1596
▁Serca	-11.1596
▁górze	-11.1599
▁strzela	-11.1601
▁Koz	-11.1604
▁Johann	-11.1605
▁akcja	-11.1607
▁hipotez	-11.1607
▁Państwowym	-11.1607
brał	-11.1607
budowa	-11.1608
▁rośnie	-11.1608
nęło	-11.1609
▁działaczem	-11.161
▁pomocniczy	-11.161
▁ogłoszony	-11.1611
onów	-11.1611
▁zawodowych	-11.1613
▁tygodniu	-11.1613
▁Rozgrywki	-11.1614
ović	-11.1617
orem	-11.1617
▁niepodległość	-11.1619
ińską	-11.1621
alski	-11.1622
▁powtór	-11.1623
chot	-11.1623
▁zastąpiony	-11.1625
▁reżysera	-11.1628
▁tur	-11.1629
▁Fry	-11.1629
▁zawodowej	-11.1629
berga	-11.1629
▁koloru	-11.163
Przy	-11.1635
bija	-11.1637
2018	-11.1638
▁średniowieczu	-11.1639
prezbiter	-11.164
▁sztuka	-11.1641
szla	-11.1641
▁Zakopanem	-11.1642
eks	-11.1643
▁tytułów	-11.1645
▁szeroki	-11.1646
▁Królewskiej	-11.1646
▁równolegle	-11.1647
ywany	-11.165
łącza	-11.165
▁Ow	-11.165
tacji	-11.1653
▁uczynił	-11.1653
▁kwalifikacjach	-11.1653
kontrol	-11.1655
▁elektron	-11.1656
▁Baz	-11.1657
klin	-11.1657
▁łagodn	-11.1657
▁boisko	-11.1658
▁Janem	-11.1658
▁sojusz	-11.1659
▁prawdziwe	-11.1661
karp	-11.1662
ioną	-11.1665
▁przylega	-11.1665
nell	-11.1668
▁Miejskiego	-11.1669
▁czarny	-11.1671
▁kierownic	-11.1672
▁zwycięstwie	-11.1673
▁Rafał	-11.1677
▁siódmy	-11.1678
▁Romana	-11.168
▁obecnego	-11.1681
▁prosto	-11.1683
▁średnich	-11.1684
oth	-11.1684
letniego	-11.1684
rock	-11.1685
rzucił	-11.1692
▁London	-11.1692
▁Biblii	-11.1694
oper	-11.1694
Mat	-11.1694
róg	-11.1694
▁antenie	-11.1696
▁chiński	-11.1698
▁Pierre	-11.1702
▁getta	-11.1702
yjnej	-11.1704
pole	-11.1704
▁wyprzedził	-11.1706
cego	-11.171
▁przyniosła	-11.171
▁Artur	-11.1711
omży	-11.1711
▁wskazują	-11.1711
ST	-11.1711
▁branży	-11.1712
ssen	-11.1713
▁ogień	-11.1715
▁Drużyny	-11.1715
▁Wygląd	-11.1715
▁Palm	-11.1717
▁populacja	-11.1718
▁ogromny	-11.1718
▁ziemiach	-11.1722
▁Dowództwa	-11.1723
▁daleko	-11.1724
rin	-11.1724
bierał	-11.1724
kwa	-11.1731
▁zbudował	-11.1732
▁dzierżaw	-11.1733
pil	-11.1733
▁uzbrojenia	-11.1735
▁małżeński	-11.1736
owycz	-11.1737
▁Janusza	-11.1739
Pan	-11.1741
grub	-11.1742
100	-11.1742
▁poddany	-11.1742
▁koszar	-11.1743
▁religijne	-11.1743
ciąż	-11.1746
▁grzbiecie	-11.1746
▁wierszy	-11.1747
rzeń	-11.1749
▁skalę	-11.175
▁zabija	-11.175
▁lasem	-11.1751
▁Association	-11.1751
▁zmieniając	-11.1754
▁Termin	-11.1755
▁Zakładzie	-11.1755
▁Marie	-11.1755
niemiecki	-11.1756
▁obozów	-11.1758
Dż	-11.1759
▁Głowa	-11.176
nal	-11.1761
▁Pin	-11.1762
▁order	-11.1762
zym	-11.1763
▁Ponownie	-11.1763
▁rozkazu	-11.1764
▁odrzucił	-11.1767
wychowawc	-11.1767
▁patrona	-11.1767
▁najwięcej	-11.1771
nięciu	-11.1773
powiada	-11.1774
▁Komisja	-11.1774
▁położenie	-11.1774
nicę	-11.1776
▁oddziałami	-11.1776
▁wróciła	-11.1776
bło	-11.1778
▁bezskutecznie	-11.1779
kosm	-11.1781
▁zamiar	-11.1781
życi	-11.1782
▁Dem	-11.1784
▁lekkoatlet	-11.1784
▁producenta	-11.1785
▁stypendium	-11.1785
▁Primera	-11.1787
rą	-11.1787
nić	-11.1788
gas	-11.1789
maj	-11.1791
▁Kowal	-11.1791
▁Madrycie	-11.1791
▁mieszkała	-11.1793
▁Polan	-11.1796
▁Group	-11.1796
▁Prezydium	-11.1797
▁Maszyn	-11.1798
godz	-11.1798
▁Grzegorza	-11.18
▁górach	-11.1802
▁rabin	-11.1802
▁fałszyw	-11.1803
ywane	-11.1803
▁pochowana	-11.1804
▁Klasyfikacja	-11.1805
▁brasławskim	-11.1805
stka	-11.1808
▁jakiś	-11.1808
▁Med	-11.181
▁Football	-11.1811
▁siostrę	-11.1811
▁porządku	-11.1811
▁południowych	-11.1812
▁wojenne	-11.1813
▁Adolf	-11.1814
▁samochodu	-11.1814
sien	-11.1815
▁Ing	-11.1819
▁wizerunek	-11.1822
▁rzece	-11.1823
alb	-11.1826
▁kandydatów	-11.1827
▁matematyk	-11.183
▁civil	-11.1831
▁Marią	-11.1832
▁udany	-11.1832
▁utworzeniu	-11.1832
▁biegacz	-11.1834
▁Meksyk	-11.1837
▁politycznym	-11.1837
Józef	-11.1838
▁wyścigów	-11.1839
▁ostatnia	-11.184
▁Lord	-11.1843
▁oficjalnym	-11.1845
▁Osiągnięcia	-11.1848
▁chirurg	-11.1849
jas	-11.1851
▁elementami	-11.1851
czyka	-11.1851
▁Gaj	-11.1852
▁tras	-11.1853
▁rejestr	-11.1854
▁Katarzyna	-11.1857
Bra	-11.1858
▁specjalizując	-11.1859
▁Igrzyska	-11.1859
owość	-11.1859
▁stanęła	-11.186
▁wyłoni	-11.1863
yzm	-11.1864
▁pisar	-11.1864
▁Habsburg	-11.1867
▁band	-11.1869
▁1830	-11.1869
▁szlaki	-11.1869
luz	-11.1869
▁Ev	-11.187
▁otacza	-11.1872
▁krakowskiej	-11.1872
▁pozwalając	-11.1872
▁południowego	-11.1874
▁ujścia	-11.1875
▁Harry	-11.1876
▁Gospodar	-11.1876
▁dziedziny	-11.1876
▁Carr	-11.1877
▁Tabela	-11.1877
▁Jezior	-11.1877
▁Der	-11.1879
▁odbudowy	-11.188
▁Julian	-11.1881
▁płuc	-11.1882
▁Nożnej	-11.1882
▁Niepodległości	-11.1882
▁wybudowana	-11.1883
▁miano	-11.1885
▁skały	-11.1885
Dąb	-11.1885
▁okazuje	-11.1885
▁twierdzi	-11.1886
stre	-11.1886
▁zakupił	-11.1887
▁Przełęcz	-11.1888
dziesiąt	-11.1889
▁najstarszy	-11.1889
▁wywiad	-11.189
▁Belg	-11.1891
▁dziśnieńskim	-11.1891
▁Model	-11.1894
▁częst	-11.1894
▁godzinach	-11.1895
istyki	-11.1901
▁musiała	-11.1902
▁ulega	-11.1902
dent	-11.1902
▁istniejąca	-11.1904
▁cesarski	-11.1905
▁strumieni	-11.1909
▁archeologiczne	-11.191
▁Floty	-11.1911
Kom	-11.1911
▁jeżeli	-11.1911
▁Dzielnic	-11.1911
▁przedstawiony	-11.1912
▁mieszkalny	-11.1913
▁publicznie	-11.1914
▁Katowice	-11.1914
▁gospodarstwa	-11.1915
▁Stu	-11.1916
▁zwolenników	-11.1916
▁Napoleona	-11.1917
▁komitet	-11.1918
▁Bug	-11.1919
nder	-11.1919
▁starosta	-11.192
yjnych	-11.1921
▁wnętrzu	-11.1921
▁wojennego	-11.1925
Zasłużony	-11.1926
▁ekonomii	-11.1928
iciel	-11.1928
bycie	-11.1929
▁runda	-11.193
▁Wacława	-11.193
▁Przemyślu	-11.193
wet	-11.193
▁słowo	-11.193
▁kwiat	-11.1932
wóz	-11.1933
▁Rynku	-11.1934
▁Jagiellońskim	-11.1935
leni	-11.1935
▁traktatu	-11.1935
▁Mike	-11.1936
▁Turni	-11.1941
▁podpułkownika	-11.1941
luk	-11.1941
▁żyje	-11.1947
▁NBA	-11.1948
▁przyjechał	-11.1952
▁męski	-11.1952
sey	-11.1952
▁wyraża	-11.1953
▁małego	-11.1953
▁apostolski	-11.1954
▁środki	-11.1954
▁Bull	-11.1954
▁Front	-11.1954
▁uniwersytetu	-11.1955
iew	-11.1957
▁seniorskiej	-11.1958
woje	-11.1958
▁mini	-11.1961
▁fotografii	-11.1961
▁partie	-11.1962
▁otwiera	-11.1965
dam	-11.1965
▁komisariatu	-11.1968
▁opieką	-11.1969
▁Ernest	-11.1969
▁rocznie	-11.197
▁mózgu	-11.1973
▁Zofia	-11.1973
▁wpisane	-11.1974
▁Ross	-11.1977
▁pełne	-11.1978
▁Herman	-11.1978
grodz	-11.1979
▁Wydawnictwo	-11.1979
▁pokój	-11.1979
sport	-11.198
łożenie	-11.1982
Mu	-11.1984
ące	-11.1985
kcję	-11.1986
▁Teodor	-11.1987
Powiat	-11.1992
▁Sankt	-11.1992
▁Służby	-11.1992
▁odnosił	-11.1992
▁prostu	-11.1994
▁krok	-11.1994
▁Gabriel	-11.1995
▁zwana	-11.1995
▁Kamieni	-11.1995
▁wyróżnienia	-11.1995
▁chorych	-11.1995
powszechni	-11.1996
▁orbit	-11.1997
ydzi	-11.1997
▁kilkoma	-11.1998
▁Brand	-11.1999
▁wypowiedzi	-11.2002
oficj	-11.2002
ksy	-11.2003
ańskich	-11.2006
4)	-11.2008
▁Gromada	-11.2008
▁Izraelu	-11.2008
żer	-11.2009
▁Rusi	-11.201
kryw	-11.2012
▁tablica	-11.2013
ryjski	-11.2013
▁musieli	-11.2014
▁katalog	-11.2015
▁ukończono	-11.2016
▁wyspa	-11.2016
lona	-11.2017
▁wojenny	-11.2019
▁podpis	-11.2019
▁parish	-11.202
bil	-11.202
▁wyniosła	-11.2024
▁pierścieni	-11.2024
ceni	-11.2027
▁Laur	-11.2028
Art	-11.2029
konstytu	-11.2029
sak	-11.203
▁siódme	-11.203
▁wysokiej	-11.2031
▁świec	-11.2031
▁szlachty	-11.2033
▁Stone	-11.2033
▁kwestii	-11.2033
▁Kolonii	-11.2034
▁Dud	-11.2034
▁pochodzących	-11.2034
stw	-11.2035
▁urządzeń	-11.2036
▁Studium	-11.2037
▁zawierał	-11.2037
Bitwa	-11.2037
▁kasztelan	-11.2038
bok	-11.204
▁Medycznej	-11.204
▁obiektem	-11.204
hiszp	-11.2041
-12	-11.2042
▁Bronisław	-11.2043
▁Public	-11.2043
▁Dolinie	-11.2043
▁Jim	-11.2043
▁symbolem	-11.2043
▁sukcesu	-11.2046
▁wywoła	-11.2046
▁danym	-11.2048
▁Bogusław	-11.205
▁reprezentujący	-11.2054
▁Oksytania	-11.2059
▁grona	-11.2059
▁uczniem	-11.2059
lińskiego	-11.206
▁międzynarodowym	-11.2061
▁emitowan	-11.2062
▁kolegium	-11.2063
▁kapitanem	-11.2065
▁kwalifikacji	-11.2065
Comt	-11.2065
żąc	-11.2067
acyjnego	-11.2067
▁granica	-11.2067
▁ekran	-11.2069
▁przebywając	-11.207
▁Berg	-11.207
▁Phil	-11.2072
▁letnich	-11.2074
lskim	-11.2075
▁imprezie	-11.2076
▁Chrystus	-11.2077
▁boiska	-11.2077
▁uzbrojenie	-11.2077
▁włada	-11.208
▁łup	-11.208
▁Dani	-11.208
cony	-11.2081
Mor	-11.2081
▁zaliczany	-11.2082
▁założenie	-11.2082
▁nieopodal	-11.2082
▁Teledysk	-11.2082
jścia	-11.2084
▁Alfred	-11.2084
gam	-11.2084
uff	-11.2087
wład	-11.2087
wiedza	-11.2087
▁obyczaj	-11.2088
2002	-11.2088
sso	-11.209
oro	-11.209
▁Gaz	-11.2091
▁powołana	-11.2091
▁Podlegał	-11.2091
▁Norweg	-11.2091
▁rzymskiego	-11.2092
▁rola	-11.2093
▁austriackiej	-11.2094
▁Ogółem	-11.2094
kuł	-11.2095
▁deputowany	-11.2096
▁popularności	-11.2097
rth	-11.2098
▁muzycznego	-11.2098
▁zmierzył	-11.2098
▁przykładem	-11.21
▁oznaczenie	-11.21
właściw	-11.2101
ocha	-11.2101
▁gmach	-11.2102
▁wyposażone	-11.2103
▁trzon	-11.2103
Ry	-11.2105
▁dłuższe	-11.2106
kryta	-11.2106
LC	-11.2106
▁nagrań	-11.2109
▁ściga	-11.211
▁będąca	-11.2111
▁Lublin	-11.2112
▁dwudziestu	-11.2112
▁68	-11.2113
▁Skarbu	-11.2114
▁podstawowe	-11.2114
▁lokalne	-11.2116
▁Powstała	-11.2116
▁wspomaga	-11.2117
cept	-11.212
▁Zarówno	-11.212
▁Sim	-11.212
▁linią	-11.2121
więto	-11.2121
iną	-11.2122
▁Bundeslidze	-11.2123
▁królestwa	-11.2124
▁Natal	-11.2125
pus	-11.2127
▁wiejska	-11.2128
ajd	-11.2129
▁Akwitania	-11.2129
▁wiąże	-11.2129
▁częściej	-11.213
▁Drzew	-11.213
▁Pont	-11.2131
▁Hell	-11.2133
▁hrabstwa	-11.2136
▁karabinów	-11.2136
bier	-11.2136
bis	-11.2137
▁budową	-11.2138
▁Kozi	-11.214
▁Zasiadał	-11.2141
▁spoczywa	-11.2142
▁nabożeństwa	-11.2145
▁Bere	-11.2145
▁zakończono	-11.2146
scha	-11.2146
▁angielskiej	-11.2147
▁Hercegowiny	-11.215
linie	-11.2152
▁tamtej	-11.2152
onii	-11.2153
arium	-11.2156
▁Hei	-11.2156
▁obowiązków	-11.2156
▁królowi	-11.2156
▁hiszpańskiej	-11.2157
▁dominują	-11.2157
leya	-11.2157
▁Town	-11.2158
▁teatralny	-11.2158
król	-11.2159
ywi	-11.216
▁gitarzysta	-11.2162
▁komedii	-11.2162
▁aspekt	-11.2163
pisany	-11.2164
▁ppłk	-11.2165
▁Akt	-11.2166
nemu	-11.2166
▁potencjaln	-11.2167
▁Barcelonie	-11.2167
▁powinna	-11.2168
▁podzielona	-11.2169
▁Stare	-11.2171
▁ocean	-11.2172
Sk	-11.2172
▁kilkadziesiąt	-11.2172
▁Władimir	-11.2174
kultur	-11.2174
▁naukowym	-11.2174
▁Baran	-11.2175
▁poślubiła	-11.2175
▁dokumentalny	-11.2176
▁włos	-11.2176
▁protestancki	-11.2176
▁parafialnym	-11.2178
▁UW	-11.2179
▁akcję	-11.218
▁1827	-11.218
▁przyłączono	-11.2182
tions	-11.2184
▁pasa	-11.2185
RS	-11.2186
▁pancerne	-11.2186
▁Cr	-11.2187
▁przyniósł	-11.2187
▁Egipcie	-11.2191
▁miejskim	-11.2194
▁płynie	-11.2194
▁fabryce	-11.2194
▁zasadniczej	-11.2195
energ	-11.2195
izowany	-11.2196
łączyć	-11.2198
tycznie	-11.2199
▁Hot	-11.22
▁Sig	-11.2202
▁Manuel	-11.2202
▁wymiar	-11.2202
▁Night	-11.2204
uga	-11.2204
▁diecezja	-11.2204
▁najlepszą	-11.2206
▁Bogdan	-11.2206
aud	-11.2207
▁Policji	-11.2208
▁Force	-11.2209
▁austro	-11.2209
▁Jerozolimy	-11.2212
▁wchodziła	-11.2214
▁obserwator	-11.2214
wice	-11.2214
▁samobójstwo	-11.2215
500	-11.2215
▁małą	-11.2217
▁katolików	-11.2219
▁Michal	-11.2221
▁Iraku	-11.2221
alność	-11.2221
▁opisując	-11.2221
prowadzić	-11.2223
▁wielko	-11.2223
▁konstruktor	-11.2224
▁postępowania	-11.2226
cci	-11.2227
▁Camp	-11.223
▁uznano	-11.223
▁Prawo	-11.223
▁uruchomiono	-11.223
▁funkcjonariusz	-11.2231
▁Oskar	-11.2232
▁Sas	-11.2232
▁doprowadziły	-11.2233
▁leżący	-11.2234
ugh	-11.2234
▁soli	-11.2237
▁Geneza	-11.2237
▁mnie	-11.2238
▁Juliusza	-11.2239
▁Kawalerskim	-11.224
▁zamierza	-11.2242
▁zagra	-11.2243
europejski	-11.2245
▁Turk	-11.2245
▁pozwoliło	-11.2249
▁wymiarach	-11.2249
elektr	-11.225
▁konstrukcja	-11.225
▁Powstanie	-11.225
▁Lar	-11.2252
pat	-11.2253
Trzeb	-11.2253
▁produkcja	-11.2254
▁CO	-11.2255
vie	-11.2256
pewni	-11.2257
▁potępi	-11.2257
▁Kościuszki	-11.2257
▁publicysta	-11.2259
▁zainteresował	-11.2259
▁monaster	-11.2262
▁Szym	-11.2262
inga	-11.2263
▁Mińsku	-11.2263
▁pojazd	-11.2263
żyn	-11.2265
▁Moz	-11.2266
▁sejmiku	-11.2268
▁Chrzciciela	-11.2269
▁zakładu	-11.2269
▁Bau	-11.2269
▁produktów	-11.227
▁skraj	-11.2271
▁historią	-11.2272
▁trafiła	-11.2274
▁reprezentując	-11.2275
▁It	-11.2276
▁Szlak	-11.2276
▁lotów	-11.2276
eria	-11.2277
▁Pancernej	-11.2277
nkę	-11.2278
▁lotniczych	-11.2278
nicą	-11.2279
▁młodzieżowej	-11.228
▁ptaki	-11.228
prawa	-11.2282
wiatowej	-11.2282
▁bio	-11.2282
ąg	-11.2283
ówkę	-11.2283
BS	-11.2283
▁usługi	-11.2284
▁woli	-11.2287
▁pozbawienia	-11.2287
oru	-11.2287
▁złotym	-11.2287
▁graniczy	-11.2288
▁skrzyp	-11.2288
▁Neapolu	-11.229
▁Stany	-11.229
gs	-11.2294
▁podręcznik	-11.2295
ES	-11.2297
▁górę	-11.2298
▁uzyskania	-11.2298
▁kół	-11.2301
▁Brukseli	-11.2301
pala	-11.2302
▁Kanał	-11.2304
owiecki	-11.2304
▁strona	-11.2304
▁zostając	-11.2305
Franche	-11.2305
Młod	-11.2306
▁rocznicy	-11.2306
▁zajęcie	-11.2307
onaty	-11.2308
▁Centralnej	-11.231
stanowi	-11.231
▁dalszym	-11.231
▁Kadr	-11.2313
▁Cambridge	-11.2313
ambo	-11.2314
dzy	-11.2315
▁Friedrich	-11.2316
▁Opracowano	-11.2316
▁wodnych	-11.2317
▁komin	-11.2317
▁zaproszony	-11.2319
▁zapisał	-11.2322
▁Goł	-11.2322
najpopularniejsz	-11.2322
▁Josef	-11.2323
▁nazywał	-11.2324
▁drużynowych	-11.2325
▁portalu	-11.2325
▁wydanej	-11.2327
▁wideo	-11.2329
łącznie	-11.2332
▁Czerni	-11.2333
▁And	-11.2333
wołał	-11.2333
▁mogąc	-11.2333
▁komór	-11.2334
▁prowincja	-11.2335
▁Status	-11.2337
▁przestrzenn	-11.2337
▁rozegrany	-11.2339
▁prowadzonych	-11.2339
▁odpadła	-11.234
▁inicjatyw	-11.234
▁proto	-11.2341
▁statut	-11.2341
▁Górnej	-11.2342
oboz	-11.2343
▁gdański	-11.2343
▁adres	-11.2343
para	-11.2344
▁alternatyw	-11.2345
ołnierz	-11.2347
▁Zawodnik	-11.2348
▁Cra	-11.2348
wróceni	-11.2351
oshi	-11.2351
kins	-11.2351
ewskiej	-11.2352
▁Pił	-11.2352
▁finansów	-11.2355
▁praktykę	-11.2355
▁brutal	-11.2355
oński	-11.2356
▁ewangeli	-11.2357
▁67	-11.2357
anti	-11.2359
więtokrzyski	-11.2359
▁lotniczego	-11.236
▁finansowa	-11.2361
▁59	-11.2361
▁zwanej	-11.2363
▁trzeba	-11.2363
iva	-11.2363
▁sięgają	-11.2363
▁ciężar	-11.2367
▁władców	-11.2367
▁Społecznej	-11.2367
▁Pomiędzy	-11.2368
▁ołtarze	-11.2369
▁artystycznej	-11.2371
funkcjon	-11.2374
▁Mają	-11.2375
arna	-11.2376
▁ciele	-11.2378
▁rozpoczęło	-11.2382
▁zatwierdzony	-11.2382
▁zachowane	-11.2384
▁zwycięzca	-11.2385
▁modlitw	-11.2386
▁silniki	-11.2386
▁zamieszkuje	-11.2388
▁Not	-11.2388
▁inaczej	-11.2389
▁reguły	-11.2391
▁szczelin	-11.2391
▁plemienia	-11.2391
ienne	-11.2391
▁Aires	-11.2397
▁Boy	-11.2398
alia	-11.24
tio	-11.2401
▁Ara	-11.2402
▁napisem	-11.2402
▁naukową	-11.2404
▁Najczęściej	-11.2406
▁przeszkod	-11.2407
Pe	-11.2407
▁obywateli	-11.2409
▁starania	-11.2409
▁burz	-11.241
izacja	-11.2411
1)	-11.2411
bę	-11.2411
▁korzeni	-11.2414
brze	-11.2416
▁Andre	-11.2416
cił	-11.2416
▁cud	-11.2417
▁kolorze	-11.2417
▁najważniejsze	-11.2418
▁Buenos	-11.2418
▁piec	-11.242
2001	-11.2421
▁Walczył	-11.2423
gun	-11.2425
▁zakłady	-11.2425
szta	-11.2425
▁Dale	-11.2425
▁czasopism	-11.2427
Ob	-11.2427
▁teatrze	-11.2427
▁Gwardii	-11.2428
▁Orle	-11.2428
▁gwiazda	-11.2429
ństwa	-11.243
▁Hum	-11.2431
▁Toruń	-11.2431
▁Hr	-11.2431
tsch	-11.2434
zkiej	-11.2434
▁Borys	-11.2435
▁Pole	-11.2436
▁tabor	-11.2438
▁chrzest	-11.244
chowski	-11.244
łó	-11.2441
anna	-11.2442
trum	-11.2443
▁Brod	-11.2446
ings	-11.2446
dzon	-11.2447
▁zgromadzenia	-11.2447
▁profesjonalny	-11.2449
▁narodzin	-11.2449
acyjnym	-11.2449
▁rezydencji	-11.2452
▁odniosła	-11.2452
▁wiceprezesem	-11.2452
▁nieprzerwanie	-11.2454
▁Of	-11.2454
thy	-11.2454
▁Pałacu	-11.2455
szły	-11.2455
▁spowodowały	-11.2456
▁grupach	-11.2457
styn	-11.2457
▁Steve	-11.2457
stry	-11.2459
węgierskiej	-11.246
▁Jadwigi	-11.2461
▁Czyn	-11.2461
▁Dolnej	-11.2461
▁dziele	-11.2462
▁wykonaniu	-11.2462
▁Ukraińskiej	-11.2464
grana	-11.2465
▁Media	-11.2466
▁Poseł	-11.2467
oll	-11.2468
vent	-11.2468
▁znaczną	-11.2474
hir	-11.2474
▁dowódców	-11.2477
▁kilkudziesięciu	-11.2477
tyczną	-11.2477
▁określone	-11.2481
▁łączył	-11.2481
witz	-11.2483
▁przeprowadziła	-11.2485
▁Uczestnik	-11.2485
▁Ball	-11.2486
chodzące	-11.2486
▁dzieje	-11.2487
▁hełm	-11.2487
▁Om	-11.2487
▁wreszcie	-11.2488
▁miesiąca	-11.2493
▁źródłach	-11.2495
▁amunicji	-11.2497
▁państwowe	-11.2498
▁biały	-11.2499
▁Zdrowia	-11.2501
▁Byli	-11.2502
▁obr	-11.2503
▁zajmują	-11.2503
4,5	-11.2504
dostęp	-11.2504
▁Najlepszy	-11.2506
▁Funkcję	-11.2506
▁Olympi	-11.2507
▁wyciąg	-11.2508
▁absolwentem	-11.2508
▁Ras	-11.2508
▁Wybor	-11.2509
żni	-11.2509
▁Ołtarz	-11.251
▁fanów	-11.2512
tór	-11.2513
Ju	-11.2514
▁Sab	-11.2515
▁zakończyło	-11.2515
▁głosu	-11.2515
▁skierował	-11.2516
back	-11.2519
▁zachowany	-11.2519
▁wybrzeżu	-11.2519
ME	-11.252
▁Ray	-11.2521
▁medyczne	-11.2521
▁130	-11.2524
▁gospodarcze	-11.2524
▁wypraw	-11.2525
col	-11.2525
nier	-11.2525
▁zawodowy	-11.2528
▁chłod	-11.2528
▁nowoczesny	-11.2528
▁wydawane	-11.2529
roda	-11.2529
▁Porto	-11.253
▁Start	-11.253
▁kryzys	-11.2533
▁spełnia	-11.2533
▁wychowan	-11.2536
▁specjalista	-11.2536
średni	-11.2537
▁Thi	-11.2538
przedsiębiorstwa	-11.254
▁rzadziej	-11.254
strasz	-11.2543
▁wodach	-11.2544
▁Gruzji	-11.2544
▁zasług	-11.2546
▁wystawił	-11.2546
▁kwater	-11.2546
▁kwas	-11.2547
▁Michaela	-11.2548
▁Stara	-11.2551
▁pozostali	-11.2552
▁współcześnie	-11.2552
▁siedząc	-11.2552
▁Adolfa	-11.2553
▁metry	-11.2553
▁kierownictwo	-11.2556
▁podwodnych	-11.2556
▁niezależnie	-11.2557
▁piosenkarka	-11.2559
▁Pacyfiku	-11.2559
▁komórki	-11.256
▁muzea	-11.2562
▁hab	-11.2564
▁ogniem	-11.2565
▁marszałka	-11.2568
▁Son	-11.2568
▁Alfons	-11.2568
▁obronne	-11.2568
▁Konkurs	-11.257
Kl	-11.2571
burzeni	-11.2572
▁śląskim	-11.2574
▁Armię	-11.2574
▁Znajdują	-11.2575
▁morskiej	-11.2575
▁sędziego	-11.2575
▁lubelskiego	-11.2576
oss	-11.2576
▁spowodował	-11.2577
tive	-11.2577
▁Kolumbii	-11.2577
▁Stein	-11.2578
mechan	-11.2579
▁Austria	-11.2579
Stra	-11.258
▁rezerwowym	-11.2585
▁kształcił	-11.2586
▁elektrowni	-11.2587
▁Sil	-11.2587
▁wulkan	-11.2588
▁Konkursu	-11.2588
▁liczbą	-11.259
▁mit	-11.259
▁uzależni	-11.259
kowany	-11.259
także	-11.259
2019	-11.2592
▁uszkodzony	-11.2592
▁nurt	-11.2593
TA	-11.2594
▁Live	-11.2595
▁Krakowskiej	-11.2596
▁piwnic	-11.2597
▁prosty	-11.2598
▁Zbigniewa	-11.2598
▁naczelnego	-11.2598
▁rozegra	-11.2599
▁Jedną	-11.2599
▁podejmowan	-11.2603
bić	-11.2604
▁Skrzy	-11.2605
▁stryj	-11.2606
▁rozbudowa	-11.2607
▁Australian	-11.2608
▁Krym	-11.261
▁wieczor	-11.2611
▁Stre	-11.2611
prost	-11.2611
▁(9	-11.2612
▁matematyki	-11.2612
▁Ful	-11.2613
isi	-11.2614
▁Siergiej	-11.2615
▁wyższej	-11.2616
▁3:1	-11.2619
▁dialog	-11.2619
▁House	-11.2619
▁Hitlera	-11.262
▁stać	-11.2622
▁olbrzymi	-11.2623
PP	-11.2624
▁wysoki	-11.2624
leś	-11.2625
kcją	-11.2625
▁Gab	-11.2626
▁małym	-11.2627
▁koalicji	-11.2629
▁Jon	-11.263
▁gal	-11.263
▁USS	-11.2631
▁warmińsko	-11.2632
rzyc	-11.2635
itar	-11.2635
▁przeszło	-11.2636
▁fabularny	-11.2639
▁podkreśla	-11.264
▁napad	-11.2642
▁ciemno	-11.2644
▁założycielem	-11.2645
▁ochrona	-11.2646
akt	-11.2647
łożony	-11.2647
▁wybuchł	-11.2648
▁piłkę	-11.2648
lata	-11.265
▁republika	-11.2651
▁najlepszej	-11.2651
▁Zasad	-11.2651
gang	-11.2652
▁kwadrat	-11.2652
▁prezydentem	-11.2653
Blo	-11.2655
▁przedmiotem	-11.2657
▁drewniane	-11.2657
▁zapaśnik	-11.2657
kali	-11.2657
▁Ludwig	-11.2658
▁uprawnienia	-11.2658
orów	-11.2659
blo	-11.2659
CE	-11.266
▁Amerykanin	-11.266
▁Woło	-11.2662
▁szeregu	-11.2664
▁Mediolanie	-11.2664
ująca	-11.2664
▁prąd	-11.2666
▁skraju	-11.2667
▁Junior	-11.2667
▁fundator	-11.2667
chody	-11.267
▁lokalnym	-11.2672
biec	-11.2675
▁planet	-11.2675
▁przyjaciela	-11.2677
▁poważne	-11.268
▁miarę	-11.268
-14	-11.2681
▁nabył	-11.2681
▁boisku	-11.2683
▁Oscara	-11.2684
bą	-11.2684
▁ogóle	-11.2688
▁hymn	-11.2689
▁wcielony	-11.2689
awr	-11.269
nickim	-11.2691
▁dystrybu	-11.2691
▁internowany	-11.2692
▁Czerwonego	-11.2693
▁Najświętszego	-11.2694
rund	-11.2696
▁Poznańskiego	-11.2696
▁waha	-11.2701
▁odróżnieniu	-11.2701
▁praktyki	-11.2702
▁Institute	-11.2703
▁Współcześnie	-11.2704
▁otoczeniu	-11.2704
alizm	-11.2706
▁przedstawiając	-11.2707
▁triumf	-11.2707
godny	-11.2707
znaczeni	-11.2709
1998	-11.2709
▁Trz	-11.2709
▁Testamentu	-11.271
▁Króla	-11.2715
▁pęd	-11.2715
▁zjawisk	-11.2717
▁krakowski	-11.2718
trac	-11.2719
▁położonych	-11.2719
▁określenia	-11.2719
nowski	-11.2721
▁włoskich	-11.2722
▁legion	-11.2722
▁Potok	-11.2722
▁organów	-11.2723
▁graf	-11.2724
chodzących	-11.2724
rzucony	-11.2726
▁Zobacz	-11.2726
▁gospodarstw	-11.2726
▁przechodząc	-11.2727
▁społeczna	-11.2729
▁Sama	-11.2729
▁Cas	-11.2729
jską	-11.2731
enna	-11.2732
▁wsie	-11.2733
polskiej	-11.2735
▁organizacje	-11.2735
yjny	-11.2736
▁czterokrotnie	-11.2736
▁specjalnym	-11.2736
▁Nikołaj	-11.2738
▁organizatorem	-11.2738
▁wzgórzu	-11.274
▁karnych	-11.274
rogi	-11.274
drob	-11.2741
łowicz	-11.2741
My	-11.2741
▁gnieźnieński	-11.2741
▁metodą	-11.2742
laz	-11.2743
▁Andrew	-11.2744
▁odsłonięto	-11.2744
▁kariera	-11.2745
cenie	-11.2745
▁brytyjskim	-11.2746
Her	-11.2746
▁meta	-11.2746
▁stale	-11.2746
▁przyznano	-11.2748
▁ważną	-11.2748
▁greckiej	-11.2748
▁umożliwiając	-11.2749
▁mieściła	-11.275
▁Pale	-11.2752
▁wywołał	-11.2753
▁egzekucji	-11.2754
▁Młodość	-11.2754
▁sezonem	-11.2754
ziemne	-11.2755
▁mistrzów	-11.2756
pisanie	-11.2756
▁śluby	-11.2756
▁obiekcie	-11.2757
▁głębokości	-11.2759
▁Epi	-11.276
▁twórcy	-11.276
▁Radomiu	-11.2761
▁skutecznie	-11.2763
torium	-11.2763
dzkim	-11.2764
wad	-11.2764
▁maturę	-11.2765
▁wkroczył	-11.2766
▁AZS	-11.2766
▁poprowadził	-11.2768
▁ołtarzu	-11.2768
▁Sędzi	-11.2771
nut	-11.2771
letnią	-11.2772
▁Old	-11.2774
gur	-11.2775
▁kanonik	-11.2775
▁Bry	-11.2775
▁przerwie	-11.2776
atorów	-11.2776
Aleks	-11.2778
▁radnym	-11.2778
▁Saksonii	-11.2779
▁Główną	-11.2779
▁Renault	-11.2779
▁konfederacji	-11.2779
En	-11.278
▁Najwyższego	-11.2783
incent	-11.2783
▁reprezentuje	-11.2785
gię	-11.2785
▁zakres	-11.2786
▁fan	-11.2786
ickiego	-11.2787
cjusz	-11.2787
▁Rozkaz	-11.2787
▁Każda	-11.2788
krył	-11.2793
liwa	-11.2795
gląd	-11.2797
▁Ind	-11.2797
▁zająć	-11.2799
▁sędzi	-11.28
▁sięgnął	-11.2801
gy	-11.2802
FI	-11.2804
▁ciężkich	-11.2804
wirus	-11.2804
chodzącego	-11.2805
▁radzieckiej	-11.2805
▁Tarnowie	-11.2806
Demokrat	-11.2806
▁duchownych	-11.2806
kowanie	-11.2807
szczenia	-11.2808
▁dużego	-11.2808
▁Włodzimierza	-11.2808
▁dawnym	-11.281
▁Spółdzielni	-11.281
▁prędkość	-11.281
dera	-11.2812
wień	-11.2812
▁Luis	-11.2812
czeniu	-11.2813
▁utworze	-11.2813
Kor	-11.2814
▁tysiące	-11.2815
▁wapieni	-11.2816
▁Sło	-11.2817
▁geolog	-11.2817
▁Fal	-11.2818
▁Bach	-11.282
▁Benedykt	-11.2823
▁Gestapo	-11.2823
▁Konferencji	-11.2825
AF	-11.2825
▁awansowała	-11.2826
bau	-11.2827
▁psycho	-11.2828
Th	-11.2828
▁Wysz	-11.2828
▁zrealizowany	-11.2828
▁Północno	-11.2829
▁tymi	-11.2829
▁najstarszym	-11.283
żenie	-11.2831
▁życiowy	-11.2835
dynami	-11.2835
▁Wschodzie	-11.2835
▁farm	-11.2836
▁ładu	-11.2838
▁Bitwa	-11.2838
iano	-11.2838
▁Zespołu	-11.2839
▁chorób	-11.2839
▁biblioteka	-11.2839
▁funkcjonowała	-11.284
▁udziela	-11.2841
▁zbiegł	-11.2841
▁obronę	-11.2842
▁Książka	-11.2842
sprawiedliw	-11.2843
▁charakteru	-11.2843
ancouver	-11.2845
▁Słowenii	-11.2845
▁przedmioty	-11.2845
▁Budowę	-11.2848
cken	-11.2848
state	-11.2849
▁znaczy	-11.2849
▁Kant	-11.2849
▁fundusz	-11.2849
rent	-11.2852
▁Cher	-11.2853
Ci	-11.2854
▁glin	-11.2854
dali	-11.2855
▁pomiar	-11.2857
▁zależy	-11.2858
▁kara	-11.2858
lności	-11.2859
niczka	-11.286
▁zaczęło	-11.2861
▁różnymi	-11.2862
▁wypełnia	-11.2862
nr	-11.2863
▁Gospodarki	-11.2863
▁uchodzi	-11.2864
▁zaścianek	-11.2864
zam	-11.2864
padając	-11.2867
▁mieszkając	-11.2868
cis	-11.2869
▁srebro	-11.2869
ytu	-11.2869
▁Innym	-11.287
druk	-11.287
▁pistolet	-11.2873
cyjnego	-11.2873
▁Archiwum	-11.2873
▁Pamięci	-11.2873
▁spowodowane	-11.2875
▁Jezioro	-11.2875
▁Miała	-11.2876
▁zielone	-11.2876
iku	-11.2877
zili	-11.2877
bio	-11.2878
▁Mala	-11.2879
▁Działania	-11.2881
▁1850	-11.2881
▁pucharowe	-11.2881
▁białostockim	-11.2882
AA	-11.2882
▁Beat	-11.2883
▁fort	-11.2884
▁pokonali	-11.2886
▁żelaza	-11.2886
▁Gwinei	-11.2889
▁osiągnąć	-11.2889
▁metropolii	-11.2889
cyjnych	-11.289
kiel	-11.289
▁bada	-11.2891
Wol	-11.2892
▁rzut	-11.2892
▁czołg	-11.2894
pią	-11.2896
▁spadku	-11.2899
▁1846	-11.2901
▁wybuchem	-11.2902
▁pokryty	-11.2902
▁jasne	-11.2904
▁kapituły	-11.2905
rodow	-11.2905
lewski	-11.2906
▁Post	-11.2906
Fl	-11.2907
▁segment	-11.2908
Cha	-11.2909
▁interwencji	-11.2909
▁francuska	-11.2911
▁zajęta	-11.2911
▁Kosz	-11.2912
▁wyjechała	-11.2912
▁przestrzeń	-11.2915
▁oparta	-11.2915
borze	-11.2917
▁błon	-11.2917
▁zlikwidowano	-11.2918
grzewa	-11.2918
2022	-11.292
▁niewielkich	-11.2921
▁Barr	-11.2922
▁powietrze	-11.2922
▁medalistą	-11.2925
▁desant	-11.2926
hat	-11.2926
ciągnął	-11.2927
▁podstawą	-11.2927
▁Konstan	-11.2928
uś	-11.2929
▁masy	-11.2931
kończenie	-11.2932
▁Jacob	-11.2932
▁apel	-11.2933
▁Wileński	-11.2933
▁Bardzo	-11.2934
▁Macieja	-11.2935
▁Gie	-11.2936
▁wnętrze	-11.2936
▁kierunek	-11.2937
▁poległ	-11.2937
▁przedniej	-11.2938
▁próbuje	-11.2939
▁społeczną	-11.294
▁zostają	-11.294
▁matkę	-11.2942
▁hiszpańskiego	-11.2943
▁księciem	-11.2943
▁księgi	-11.2944
dawn	-11.2944
frank	-11.2945
mierzy	-11.2945
▁pracować	-11.2946
▁Inżynier	-11.2948
▁meksykański	-11.2948
▁konstrukcyjn	-11.295
kł	-11.295
▁środowisk	-11.2952
▁bliżej	-11.2953
▁Normandii	-11.2953
▁drobne	-11.2954
krzew	-11.2956
▁Powiatowej	-11.2956
▁muzycy	-11.2959
▁poparcia	-11.2959
▁uznania	-11.296
▁Ukończyła	-11.296
▁romantyczn	-11.2962
rodzin	-11.2963
▁północną	-11.2964
▁baraż	-11.2964
anowski	-11.2965
▁Alberta	-11.2968
▁zwyczajny	-11.2968
▁Podchorążych	-11.2969
szan	-11.2969
niesione	-11.297
trop	-11.2972
▁zabytki	-11.2972
▁selekcjonera	-11.2974
▁rzekę	-11.2975
▁Song	-11.2976
bot	-11.2976
▁wnuk	-11.2977
▁strukturę	-11.2977
▁Konkursie	-11.2978
tani	-11.2978
▁istniały	-11.2978
▁charakteryzuje	-11.2978
▁ligowe	-11.2979
▁Lib	-11.298
▁kolumny	-11.298
▁białostockiego	-11.298
▁racji	-11.298
▁odkrywa	-11.2982
▁Sportowy	-11.2982
zupełn	-11.2984
▁państwie	-11.2984
▁przyjęto	-11.2985
licy	-11.2985
▁Galerii	-11.2986
wnętrz	-11.2986
▁gabinecie	-11.2988
KW	-11.2991
▁Jel	-11.2991
arny	-11.2991
▁przybyli	-11.2992
lista	-11.2992
▁przywrócono	-11.2992
▁wiejskiej	-11.2992
▁cios	-11.2993
▁Szczególnie	-11.2993
▁podano	-11.2994
▁reprezentantem	-11.2996
2020	-11.2996
▁restauracji	-11.2998
▁starych	-11.2998
▁Mecze	-11.2999
▁sprzedając	-11.3
use	-11.3001
otwy	-11.3003
▁dopuszcza	-11.3004
EN	-11.3004
▁Gospodarka	-11.3005
▁kolejowych	-11.3008
▁Cen	-11.3013
▁ruiny	-11.3013
wcześniej	-11.3014
SO	-11.3014
atorem	-11.3015
▁zakończyły	-11.3016
▁Taylor	-11.3017
▁powtórzył	-11.3017
▁ruchem	-11.3018
▁lidera	-11.3019
▁transfer	-11.3021
ulu	-11.3021
▁Kongresu	-11.3021
▁niewielkiej	-11.3022
▁pośrodku	-11.3023
prawdziw	-11.3024
▁obaj	-11.3025
▁wspinacz	-11.3025
▁Joan	-11.3025
▁Górnik	-11.3026
rzem	-11.3027
▁otrzymywał	-11.3027
▁Pomorza	-11.3027
▁Nov	-11.303
▁inż	-11.303
▁Czwart	-11.3031
▁skupia	-11.3032
tul	-11.3032
▁odegrał	-11.3033
ońskiej	-11.3035
▁Aktor	-11.3038
▁masa	-11.3039
▁pejzaż	-11.3039
▁bloku	-11.3039
▁jeździe	-11.3042
▁ukazuje	-11.3043
óg	-11.3044
▁zatrzymał	-11.3044
▁Tuż	-11.3044
▁rektora	-11.3044
▁kadencję	-11.3046
▁Wiśni	-11.3049
▁3:0	-11.3051
▁stwierdzono	-11.3052
▁podlaskim	-11.3052
▁technik	-11.3053
▁konserw	-11.3053
▁Bit	-11.3054
ódzkiego	-11.3054
Leśn	-11.3054
elf	-11.3056
▁wojskowa	-11.3057
syn	-11.3057
▁budynkach	-11.3059
ister	-11.3059
▁Beck	-11.306
▁macierz	-11.306
▁Doktor	-11.3063
Wil	-11.3066
▁Rak	-11.3067
niowa	-11.3068
▁funkcjonariuszy	-11.3069
▁Polonii	-11.3069
▁dwaj	-11.307
▁ukazały	-11.3071
Ol	-11.3071
▁specjalny	-11.3071
▁Dzieciństwo	-11.3072
▁królowa	-11.3073
▁otrzymało	-11.3074
▁młodszy	-11.3074
▁Medi	-11.3075
▁Nauczyciel	-11.3075
▁jedyna	-11.3075
▁mniejszości	-11.3078
US	-11.3078
piór	-11.3079
▁Styl	-11.3081
▁czyni	-11.3081
▁aparat	-11.3082
dri	-11.3083
pens	-11.3087
▁powierzono	-11.3088
▁lepsze	-11.3089
▁leśne	-11.3089
ciany	-11.3089
▁patriarcha	-11.3091
trwa	-11.3091
▁badaczy	-11.3092
▁wynosząc	-11.3092
▁1859	-11.3093
▁wybitne	-11.3093
▁Firma	-11.3093
▁czołowych	-11.3094
scen	-11.3095
rodzie	-11.3096
▁coś	-11.3097
▁Spis	-11.3097
▁głąb	-11.3097
sal	-11.3098
▁Reprezentantów	-11.3099
▁Wiednia	-11.3099
ball	-11.3099
rzew	-11.31
▁Królestw	-11.3101
glia	-11.3101
▁szybki	-11.3106
▁broniąc	-11.3106
▁porzucił	-11.3109
Jul	-11.3109
▁organizowanych	-11.3109
▁amerykańską	-11.311
▁wybrzeży	-11.311
▁rektorem	-11.3112
▁turecki	-11.3113
siewicz	-11.3115
▁samorządowiec	-11.3115
iat	-11.3116
▁płotki	-11.3116
▁debiucie	-11.3117
▁muzyczną	-11.3117
strzelił	-11.3117
▁Ks	-11.3119
▁prestiż	-11.3119
jka	-11.3122
▁przystosowa	-11.3127
▁kursu	-11.3128
Zawod	-11.3129
▁Brązowy	-11.313
▁dziećmi	-11.313
▁rewolucyjn	-11.3132
▁dociera	-11.3133
▁kruch	-11.3133
pag	-11.3134
▁Inde	-11.3134
▁byt	-11.3136
▁założyli	-11.3136
▁elewacji	-11.314
ffa	-11.314
hom	-11.3141
siąg	-11.3142
▁mała	-11.3142
▁wejściem	-11.3143
▁reakcji	-11.3143
nion	-11.3143
▁Wysokie	-11.3146
▁etniczn	-11.3147
ewską	-11.3147
▁Przykład	-11.3148
tyzm	-11.3149
▁olimpijskim	-11.3149
iczno	-11.3151
szacow	-11.3152
▁zobaczyć	-11.3153
▁Zielonej	-11.3153
▁sowieckiej	-11.3154
▁Rzecz	-11.3154
arskich	-11.3154
▁deszcz	-11.3156
▁1858	-11.3156
hon	-11.3158
▁Największe	-11.3159
▁Rajd	-11.316
enta	-11.316
unku	-11.3162
▁Barbar	-11.3162
▁nagrodą	-11.3162
▁przygotował	-11.3162
padła	-11.3163
▁Witold	-11.3165
▁Międzynarodowy	-11.3168
▁rezygnacji	-11.3169
▁przejść	-11.3169
▁1812	-11.317
▁Kun	-11.3171
▁Gha	-11.3171
ouTube	-11.3172
▁Taksonomia	-11.3172
▁Turystyka	-11.3172
bron	-11.3173
▁rękę	-11.3173
pry	-11.3175
pina	-11.3175
▁powstaje	-11.3176
▁radiowych	-11.3178
▁użytkowa	-11.3178
▁opisane	-11.3179
▁zabił	-11.3179
▁Dziś	-11.3182
▁bronią	-11.3184
▁Toma	-11.3185
▁Mińsk	-11.3186
ial	-11.3186
▁producentem	-11.3186
SE	-11.3186
▁Mr	-11.3189
▁Dża	-11.3191
▁Luk	-11.3191
▁oblężenia	-11.3192
▁rozpoczęcia	-11.3192
▁Pierwszego	-11.3194
▁Obywatelskiej	-11.3194
Histor	-11.3196
▁miejski	-11.3196
życz	-11.3197
wina	-11.3199
▁Davisa	-11.3201
lib	-11.3201
▁życiowe	-11.3202
▁zakładach	-11.3202
▁Tony	-11.3202
▁wczesnych	-11.3203
▁ruin	-11.3204
▁granicami	-11.3208
dydaktyczn	-11.321
▁posługi	-11.321
▁świadczy	-11.321
▁katolickiej	-11.3212
▁State	-11.3213
▁Rou	-11.3217
tward	-11.3217
▁prowadzonej	-11.3218
▁awansu	-11.3219
▁ulicę	-11.322
▁będącego	-11.3221
▁jednostką	-11.3221
▁Punkt	-11.3222
▁naukowa	-11.3224
▁przeniesienie	-11.3224
:6	-11.3226
▁Disney	-11.3228
rki	-11.3228
▁skrót	-11.3228
▁samców	-11.3228
puszcza	-11.3228
▁powszechnej	-11.3228
▁Startował	-11.323
każ	-11.3232
▁strzelec	-11.3232
unki	-11.3233
▁hotelu	-11.3233
▁zamieszkując	-11.3236
▁Rot	-11.3236
▁Gla	-11.3236
▁decydując	-11.3239
▁Jedyn	-11.324
▁Lyn	-11.324
stę	-11.3241
▁ukrywa	-11.3241
▁Wincentego	-11.3241
▁Lyon	-11.3245
▁koncertową	-11.3247
strateg	-11.3247
▁Mariana	-11.3247
▁dotychczasowy	-11.325
wiadków	-11.3251
jed	-11.3252
▁Ark	-11.3253
▁1840	-11.3253
spar	-11.3253
pyt	-11.3255
▁ujawni	-11.3255
pełnienie	-11.3255
▁obserwacji	-11.3257
▁wziąć	-11.3257
illo	-11.3257
▁nieprzyjaciela	-11.3258
▁bojowy	-11.3259
▁trudno	-11.326
▁Księgi	-11.3262
▁oś	-11.3263
▁69	-11.3263
▁zmieniał	-11.3264
▁uwięziony	-11.3265
▁obecnych	-11.3267
ostrz	-11.3267
▁finałowym	-11.3267
▁średniowiecza	-11.3267
▁wchodziły	-11.3268
▁"(	-11.327
▁określany	-11.3271
▁głowa	-11.3272
▁Ustaw	-11.3273
▁Georgi	-11.3274
▁rywalizował	-11.3274
ske	-11.3276
▁opowiadania	-11.3277
▁lepszy	-11.3277
▁Albrecht	-11.3277
▁względów	-11.3277
▁jezior	-11.3278
▁traci	-11.3279
▁Tab	-11.328
trą	-11.3281
stawione	-11.3284
▁Trybunału	-11.3284
press	-11.3284
rich	-11.3285
▁przepływ	-11.3286
▁Rugby	-11.3287
▁przyjęta	-11.3287
▁wydanym	-11.329
▁faktu	-11.3291
▁prasie	-11.3293
posaż	-11.3293
▁85	-11.3294
▁Ski	-11.3298
kowania	-11.3299
▁astronom	-11.3301
▁Pl	-11.3302
▁historyczny	-11.3302
–1945	-11.3303
▁Hieronim	-11.3304
▁prawosławna	-11.3304
▁UJ	-11.3304
▁Sho	-11.3305
▁NHL	-11.3306
gera	-11.3308
▁głębi	-11.3308
tycznym	-11.3308
aya	-11.3309
▁łączący	-11.331
▁ju	-11.331
▁Thomasa	-11.3313
▁Autorem	-11.3317
Kolonia	-11.3319
rell	-11.332
aks	-11.332
▁parking	-11.332
▁szansę	-11.3321
▁historycznej	-11.3321
▁Esp	-11.3321
bad	-11.3322
turę	-11.3323
▁opór	-11.3323
Don	-11.3324
wodowa	-11.3324
▁minuty	-11.3326
▁opadają	-11.3326
zow	-11.3327
▁szyi	-11.3327
▁Dowództwo	-11.3327
▁Wszyscy	-11.3327
▁(...)	-11.3327
▁woda	-11.3328
Paw	-11.333
stri	-11.3331
domin	-11.3332
▁Macedonii	-11.3333
▁licznymi	-11.3334
▁1800	-11.3334
▁Dwór	-11.3335
rower	-11.3335
▁Barbara	-11.3335
stali	-11.3335
▁format	-11.3336
▁przebudowany	-11.3337
nikami	-11.3341
▁starcia	-11.3342
▁biur	-11.3343
▁będącej	-11.3343
▁kapitulacji	-11.3343
jeżdża	-11.3345
▁rodak	-11.3345
▁regularne	-11.3345
▁poparł	-11.3346
▁Grod	-11.3347
▁techniczne	-11.3348
chowa	-11.3349
▁szkielet	-11.335
▁zawdzięcza	-11.3351
▁Ewa	-11.3351
▁gubernator	-11.3353
Ge	-11.3353
▁montaż	-11.3353
▁wapienn	-11.3354
▁kierując	-11.3354
Dobr	-11.3355
▁Opa	-11.3356
głównie	-11.3358
krzyżowan	-11.336
▁Bóg	-11.336
▁Znany	-11.3361
▁Un	-11.3361
pur	-11.3362
▁datę	-11.3362
ździ	-11.3363
▁samodzielny	-11.3364
▁Konrad	-11.3365
▁gwałtown	-11.3367
arną	-11.3367
▁sióstr	-11.337
▁stokach	-11.337
▁powstałej	-11.3371
▁Belgradzie	-11.3371
zięci	-11.3371
▁160	-11.3372
▁społecznego	-11.3374
▁kamienica	-11.3376
▁konieczności	-11.3377
▁Som	-11.3377
▁Biblioteka	-11.3378
▁pasma	-11.3379
decy	-11.338
▁tamtejszym	-11.338
▁ataków	-11.3382
▁izb	-11.3383
▁użyte	-11.3384
▁lewicow	-11.3384
czan	-11.3385
▁odziedziczył	-11.3387
ząb	-11.3388
hausen	-11.3388
ołów	-11.3389
▁hebrajski	-11.3389
eczka	-11.339
▁zatwierdził	-11.339
szewskiego	-11.339
▁objęty	-11.3391
▁budynkiem	-11.3392
▁maj	-11.3393
▁osiedlu	-11.3393
▁Bou	-11.3395
wiązany	-11.3396
lock	-11.3396
▁instytucja	-11.3397
▁szósty	-11.3397
▁anime	-11.3399
▁kierownictwem	-11.34
▁miasteczka	-11.34
▁głową	-11.3402
▁śród	-11.3403
▁niektórzy	-11.3403
▁działaczka	-11.3407
▁zaczynał	-11.3407
▁Sum	-11.3408
▁Telewizji	-11.3413
włos	-11.3413
rządził	-11.3413
▁Małżeństwo	-11.3417
▁wystawian	-11.3417
▁żyją	-11.3419
▁Mans	-11.3421
ough	-11.3421
kazano	-11.3422
▁widział	-11.3422
▁paliwa	-11.3422
▁Miel	-11.3423
▁wprowadzenia	-11.3423
owników	-11.3423
▁sile	-11.3423
▁serwisie	-11.3425
▁programy	-11.3426
▁Chr	-11.3428
zbyt	-11.3428
▁Mistrzostwo	-11.3428
▁Bydgoszcz	-11.3429
0,5	-11.3429
▁ucieka	-11.3429
cyjna	-11.343
rzucając	-11.343
▁1837	-11.343
▁Richarda	-11.3432
▁ojcu	-11.3433
▁Clark	-11.3434
▁Młode	-11.3436
▁węzła	-11.3437
nan	-11.3438
▁dłoni	-11.3439
▁archiwum	-11.344
▁górnym	-11.344
haus	-11.3442
stąpił	-11.3443
grodzie	-11.3443
Synagog	-11.3444
5)	-11.3444
▁ojczyzny	-11.3445
▁Braci	-11.3446
▁Scen	-11.3446
John	-11.3447
▁Beau	-11.3448
szyna	-11.3449
▁przyjmując	-11.3449
▁niski	-11.3452
▁liturgiczne	-11.3452
liga	-11.3453
czyste	-11.3453
▁przywódców	-11.3453
▁uniknąć	-11.3453
▁kolejową	-11.3455
▁tkan	-11.3456
międzynarodowego	-11.3456
▁Rekordy	-11.3457
▁Chmiel	-11.3458
▁Radę	-11.3459
▁opracowania	-11.3463
bliźni	-11.3464
awców	-11.3465
▁górskich	-11.3465
toczył	-11.3465
sum	-11.3468
▁Składa	-11.3469
ines	-11.347
▁prowadzona	-11.3471
▁gabinetu	-11.3471
▁gabinet	-11.3472
SK	-11.3473
▁wschodniego	-11.3473
▁spodziewa	-11.3474
▁Alp	-11.3474
▁poemat	-11.3475
▁kok	-11.3475
▁rozwiązanie	-11.3475
▁następujący	-11.3476
▁psycholog	-11.3476
▁prasy	-11.3476
▁liczebności	-11.3477
▁salon	-11.3478
▁Egipt	-11.3479
▁lekarski	-11.3482
MC	-11.3483
▁pozbawione	-11.3484
▁zaprezentowany	-11.3484
▁wcielił	-11.3484
▁Koł	-11.3484
▁wytwórnię	-11.3484
żenia	-11.3484
▁Sau	-11.3485
▁wysokich	-11.3485
▁przeciwników	-11.3487
▁ustanowiony	-11.3487
▁natarcie	-11.3488
▁Hotel	-11.3488
▁71	-11.349
mani	-11.3491
▁późniejszego	-11.3491
▁ataki	-11.3492
ann	-11.3494
▁dziewiąte	-11.3494
dorf	-11.3498
▁rozgrywając	-11.3499
▁jaw	-11.35
IO	-11.3501
▁Wniebowzięcia	-11.3501
▁ulice	-11.3502
▁oddziela	-11.3502
leśni	-11.3502
▁filmowa	-11.3502
▁Wschodu	-11.3504
▁Ocean	-11.3504
▁kronik	-11.3505
▁pkt	-11.3505
bież	-11.3507
▁przygotowanie	-11.3507
▁listach	-11.3508
Książ	-11.3508
▁okazały	-11.3508
▁poszczególne	-11.3511
Roz	-11.3511
▁Archi	-11.3513
▁poetycki	-11.3513
▁zagrożony	-11.3513
▁osobę	-11.3514
arstwie	-11.3514
▁taras	-11.3518
▁wybierany	-11.3518
▁sąsiedni	-11.3519
▁Posiadał	-11.352
▁Pł	-11.352
▁tydzień	-11.3521
▁scenę	-11.3522
▁spowodowała	-11.3523
▁parlamencie	-11.3524
▁tworzeniu	-11.3524
rski	-11.3524
▁ziemią	-11.3524
▁Bał	-11.3524
▁staż	-11.3525
▁niższych	-11.3527
▁Amsterdamie	-11.3529
▁osiedli	-11.353
▁Kościel	-11.3531
▁pociągów	-11.3533
▁najwyższy	-11.3534
fund	-11.3535
▁narodu	-11.3536
▁posiadający	-11.3536
kod	-11.3536
▁Gorz	-11.3536
zeni	-11.3537
▁nieznane	-11.3537
▁Pir	-11.3537
▁imperium	-11.3538
▁początkach	-11.3538
ambi	-11.3538
▁Hamburgu	-11.3539
▁dyplomata	-11.3539
▁arcybiskupem	-11.3539
▁Nazwę	-11.3542
▁140	-11.3545
▁Dawid	-11.3546
▁strzelając	-11.3549
Saint	-11.3552
drzew	-11.3553
▁Augustyn	-11.3553
▁nagrywa	-11.3553
▁Treść	-11.3553
material	-11.3553
▁ustala	-11.3554
▁aktywnie	-11.3554
▁Has	-11.3555
▁singlem	-11.3557
▁japońskich	-11.3557
▁Ośrodka	-11.3558
▁przedstawiał	-11.356
Ewangeli	-11.3561
▁single	-11.3564
▁wydawnictw	-11.3564
▁Wei	-11.3564
Mal	-11.3564
▁większym	-11.3564
▁socjalistyczn	-11.3566
▁kościelne	-11.3566
łożone	-11.3568
▁posłów	-11.3569
jewicz	-11.3569
▁wystartowała	-11.3569
gło	-11.357
KP	-11.3571
▁szlachecka	-11.3572
▁konstytucji	-11.3572
▁zdecydowanie	-11.3575
zew	-11.3575
▁liderem	-11.3575
-0	-11.3577
▁ogranicza	-11.3578
▁NMP	-11.3578
▁przerwy	-11.3578
▁radnego	-11.3579
morska	-11.3579
▁dziesiątce	-11.3582
▁Bran	-11.3583
▁zabudowań	-11.3583
▁wydawany	-11.3584
▁dekanacie	-11.3585
administracyjnej	-11.3586
▁Joachim	-11.3589
▁Materiał	-11.3589
oryg	-11.3589
▁Rub	-11.359
▁proste	-11.3591
tacza	-11.3592
wyższy	-11.3592
IT	-11.3596
zek	-11.3596
▁artyleryjski	-11.3598
▁tablicę	-11.36
▁Węgry	-11.3601
▁Klasztor	-11.3602
▁ogólny	-11.3602
▁płaszcz	-11.3603
chodząc	-11.3603
twie	-11.3605
▁sanktuarium	-11.3606
▁porozumienie	-11.3606
▁pocisk	-11.3606
▁albumem	-11.3606
▁Academy	-11.3609
▁Helsinkach	-11.3609
łaz	-11.361
bierając	-11.361
smo	-11.3611
▁Wall	-11.3611
▁żółte	-11.3611
▁frakcji	-11.3612
▁zespołach	-11.3612
▁stoki	-11.3615
ozaur	-11.3615
endorf	-11.3616
dur	-11.3616
▁podlegał	-11.3617
▁karty	-11.3617
▁kolejowego	-11.3618
▁Koncert	-11.3619
▁alkohol	-11.3622
alu	-11.3624
▁Montrealu	-11.3625
▁Sak	-11.3626
▁Wynik	-11.3626
▁Małe	-11.3626
▁sędziów	-11.3628
brand	-11.3628
dowo	-11.3629
▁Wielokrotnie	-11.3629
▁Problem	-11.3629
zęb	-11.3631
czycy	-11.3631
▁Chart	-11.3632
▁zbiornik	-11.3633
dasz	-11.3635
▁gdyby	-11.3635
▁rodzinne	-11.3636
▁NATO	-11.3636
▁stanowiący	-11.3641
▁przewoz	-11.3641
-7	-11.3642
▁ludu	-11.3643
rosyjski	-11.3643
technik	-11.3643
▁Znaczenie	-11.3644
▁animowany	-11.3645
▁odtąd	-11.3647
▁Czarno	-11.3649
▁Francuzów	-11.3653
▁Maur	-11.3656
▁dywizja	-11.3657
▁istnieć	-11.3657
▁Bielsku	-11.3658
▁Austro	-11.3659
▁pozwalał	-11.3659
▁brytyjska	-11.366
▁większego	-11.3662
▁czterema	-11.3664
stwu	-11.3666
▁Tarn	-11.3666
▁obiegu	-11.3666
▁aktu	-11.3667
▁podstawową	-11.3667
▁wuj	-11.3667
▁dzieciństwie	-11.3667
▁wykonuje	-11.3667
▁znaczący	-11.3667
towie	-11.3668
orient	-11.3669
niebieski	-11.3669
▁Miejsca	-11.367
▁japońskiej	-11.367
▁służąc	-11.3671
▁Królowej	-11.3673
War	-11.3673
▁stowarzyszenie	-11.3674
▁kontrolowan	-11.3674
tten	-11.3675
▁urzędników	-11.3676
▁pozostawił	-11.3677
▁naczelny	-11.3678
▁Johanna	-11.368
▁szwedzkiego	-11.3681
▁regulamin	-11.3682
ideo	-11.3683
▁polityce	-11.3685
▁grała	-11.3685
▁zwiększa	-11.3687
▁Zimowych	-11.3688
▁przynależności	-11.3688
▁pisze	-11.3689
▁pomóc	-11.3691
▁browar	-11.3691
ref	-11.3692
▁Wilna	-11.3692
▁Feli	-11.3692
▁buk	-11.3694
▁Pac	-11.3695
▁późno	-11.3696
▁Ash	-11.3697
▁Abraham	-11.3701
▁Mieszkańcy	-11.3701
▁zagadnienia	-11.3705
▁Niepokalan	-11.3705
▁promocji	-11.3705
rew	-11.3706
▁modlitwy	-11.3708
▁przesłan	-11.3708
▁wspólnot	-11.3709
▁lodzie	-11.371
bergu	-11.371
▁Przeciw	-11.3711
▁utworzone	-11.3712
▁najazd	-11.3713
▁Arena	-11.3714
bina	-11.3714
▁stanowiskach	-11.3716
▁badacz	-11.3717
▁łącznik	-11.3717
▁biegną	-11.3717
▁zamknięta	-11.3719
dian	-11.372
▁szkolnym	-11.3721
▁wejściu	-11.3722
tol	-11.3723
▁konserwator	-11.3724
uty	-11.3724
ląskim	-11.3725
piewa	-11.3725
anii	-11.3725
▁opery	-11.3726
▁Francją	-11.3727
▁konkursów	-11.3727
▁intelektu	-11.3727
▁powołania	-11.3729
▁show	-11.3734
▁Sportu	-11.3736
▁rodzeństwa	-11.3736
prowadzona	-11.3739
ślad	-11.3739
▁ochronę	-11.374
awski	-11.374
▁połączeniu	-11.3743
▁dodatkowy	-11.3744
▁oceny	-11.3744
▁kolejna	-11.3745
▁Zjednoczonej	-11.3745
▁wspierając	-11.3745
▁drukarni	-11.3746
▁Fro	-11.3746
▁południową	-11.3746
▁Członkowie	-11.3747
▁młode	-11.3747
▁litery	-11.3747
yjnego	-11.3748
▁nabożeństw	-11.3748
▁zmarłych	-11.375
▁nagroda	-11.375
▁klimat	-11.3751
France	-11.3752
▁bł	-11.3752
▁jeziorem	-11.3753
▁Srebrnym	-11.3753
▁chłopak	-11.3755
▁użycie	-11.3757
▁ósmy	-11.3757
▁Theatre	-11.3757
▁średnie	-11.3757
prowadzono	-11.3757
▁nazistowski	-11.3758
tekst	-11.3758
opi	-11.3759
▁kopii	-11.3759
ogen	-11.3761
▁pełnym	-11.3762
▁Free	-11.3763
▁Bag	-11.3764
▁skóry	-11.3764
▁Republika	-11.3764
▁pozyskan	-11.3765
▁istniejący	-11.3766
▁ukraińskiej	-11.3767
▁katolickim	-11.3768
2021	-11.3768
▁twarzy	-11.3769
▁Anty	-11.377
▁jednostkę	-11.377
IUCN	-11.3774
▁Sytuacja	-11.3774
▁przedostał	-11.3774
▁następcy	-11.3774
▁przenosi	-11.3777
▁wykorzystuje	-11.3777
▁Prezes	-11.3777
▁dialekt	-11.3777
▁przedstawiające	-11.3778
▁zadeklarowało	-11.3779
▁członkinią	-11.378
▁pełniący	-11.378
berta	-11.378
▁rzeźba	-11.3781
▁March	-11.3781
char	-11.3782
▁słowacki	-11.3782
nieśli	-11.3782
▁przepis	-11.3783
▁księży	-11.3784
▁centralnym	-11.3784
▁żadne	-11.3785
▁chemiczne	-11.3785
▁ważnych	-11.3785
▁wyniósł	-11.3785
▁Opieki	-11.3786
▁przełomu	-11.3787
robot	-11.3788
▁czerwony	-11.3788
▁Biuro	-11.3789
grzeb	-11.379
▁dzisieńskim	-11.3791
▁zawodowa	-11.3791
–13	-11.3791
▁podają	-11.3794
▁marynarzy	-11.3794
tier	-11.3795
▁następca	-11.3795
▁Union	-11.3796
▁dołączyła	-11.3796
▁mnichów	-11.3797
▁Kres	-11.3797
mień	-11.3798
▁Zagranicznych	-11.3798
▁Ofiar	-11.3799
litz	-11.3799
▁ludowej	-11.38
▁teledysku	-11.3801
rzekł	-11.3801
▁Silv	-11.3801
▁dzieckiem	-11.3802
Ab	-11.3803
▁Sche	-11.3804
▁pościg	-11.3804
▁gospodarczych	-11.3804
▁opanowan	-11.3805
▁rektor	-11.3806
▁katastrofy	-11.3806
▁zachodnio	-11.3807
avi	-11.3807
łup	-11.3808
▁Pło	-11.3812
iff	-11.3813
srebr	-11.3813
▁Dwie	-11.3814
▁wyświetla	-11.3816
▁pastor	-11.3816
ziemny	-11.3816
▁Królestwie	-11.3817
▁adiutant	-11.3819
▁odtwarza	-11.3819
▁wyróżniony	-11.3819
▁niedługo	-11.3819
▁End	-11.382
▁nakaz	-11.3822
▁nauczycielka	-11.3823
▁zawierające	-11.3825
Ste	-11.3825
pale	-11.3825
▁aktorki	-11.3825
fir	-11.3826
▁Sud	-11.3826
▁Rządu	-11.3826
▁korony	-11.3826
▁królów	-11.3826
▁Społecznych	-11.383
▁byłych	-11.3831
▁biograf	-11.3835
▁Petera	-11.3836
▁płaskorzeźb	-11.3836
padli	-11.3837
▁Jaskinia	-11.3839
▁rozwiązany	-11.384
eti	-11.3842
▁Srebr	-11.3844
▁filmowej	-11.3845
▁wybudował	-11.3846
lement	-11.3846
▁terytoria	-11.3846
słon	-11.3848
dykt	-11.3849
spec	-11.385
▁obydwu	-11.385
karz	-11.3852
▁Pic	-11.3852
▁zbocza	-11.3853
▁eksploatacji	-11.3854
▁ukazywał	-11.3854
▁kierowców	-11.3854
▁odznaczenie	-11.3854
cro	-11.3855
▁Studios	-11.3857
▁wzrosła	-11.3858
sley	-11.3858
▁zamieszki	-11.3858
▁Ernst	-11.3858
▁Jork	-11.3859
▁Smoleńsk	-11.3861
gaj	-11.3862
▁nadania	-11.3862
▁1792	-11.3862
▁States	-11.3863
▁Izbie	-11.3864
▁Marc	-11.3864
▁silników	-11.3865
robił	-11.3868
▁poprosił	-11.387
alent	-11.3872
▁finans	-11.3872
1999	-11.3873
▁Lev	-11.3873
projekt	-11.3874
▁Skarb	-11.3875
▁wykup	-11.3877
▁struktura	-11.388
▁dostarcza	-11.388
▁zwanego	-11.388
▁kibucu	-11.3883
▁hołd	-11.3886
antem	-11.3886
arek	-11.3887
▁napastnik	-11.3887
▁Major	-11.3888
▁podpułkownik	-11.3891
▁kryzysu	-11.3891
▁rasy	-11.3895
OK	-11.3896
uder	-11.3896
ender	-11.3897
zał	-11.3898
▁BRT	-11.3899
▁przyszłego	-11.3899
▁Marco	-11.3899
▁podobnych	-11.39
▁soboru	-11.39
▁uniemożliwi	-11.3901
▁Iwana	-11.3902
▁religijnej	-11.3903
▁teologiczne	-11.3904
▁uczestnikiem	-11.3905
▁Rzesz	-11.3905
▁prywatnym	-11.3906
cre	-11.3906
▁Road	-11.3907
cew	-11.3909
kh	-11.3909
▁Tul	-11.3909
▁zamyka	-11.3909
▁Kształcił	-11.391
▁mechanik	-11.3911
▁sztukę	-11.3916
▁ról	-11.3917
prawę	-11.3917
bow	-11.3918
ńcem	-11.3918
pak	-11.3918
inae	-11.3921
yjną	-11.3922
▁Odry	-11.3922
Die	-11.3923
▁kościelnych	-11.3925
▁Hay	-11.3925
Ke	-11.3925
▁Rosjanie	-11.3925
▁początkiem	-11.3926
▁Małopolski	-11.3926
▁dwadzieścia	-11.3927
mienny	-11.3931
▁wykonywane	-11.3931
krycie	-11.3931
vor	-11.3934
▁odkryty	-11.3934
▁opowiadań	-11.3936
komuni	-11.3936
klej	-11.3941
▁Będąc	-11.3942
▁Wewnątrz	-11.3942
ńsku	-11.3942
▁przypadki	-11.3943
▁Had	-11.3945
▁Arabski	-11.3945
▁marszałek	-11.3945
▁Hollywood	-11.3945
rzeczeni	-11.3946
arnego	-11.3946
▁dół	-11.3947
▁Wilson	-11.3947
▁pilota	-11.3951
▁rozwojem	-11.3952
▁wygrali	-11.3952
▁bibliotek	-11.3953
▁Brzeg	-11.3954
▁partyzant	-11.3956
onda	-11.3956
▁Fan	-11.3956
nowy	-11.3957
UFC	-11.3958
▁Josepha	-11.3958
▁przeniesione	-11.3959
▁ludowego	-11.3959
Księga	-11.3959
▁badawcze	-11.396
▁głowie	-11.3962
▁Zachował	-11.3962
▁rozwinął	-11.3963
▁muzyce	-11.3963
▁filozofię	-11.3964
▁ujawnił	-11.3964
▁napisana	-11.3964
wrócony	-11.3964
arn	-11.3965
NT	-11.3965
▁efekty	-11.3966
▁ludźmi	-11.3966
▁Gan	-11.3966
▁zasob	-11.3968
▁stałym	-11.3968
▁ppor	-11.3971
▁Powrócił	-11.3971
liwe	-11.3972
LA	-11.3974
▁Lipsku	-11.3974
▁pruskiego	-11.3975
ranż	-11.3977
All	-11.3977
szowie	-11.398
▁Opera	-11.3981
▁Brytyjski	-11.3984
Sokół	-11.3984
sam	-11.3987
skrzydł	-11.3989
Hi	-11.3991
▁Lubi	-11.3991
▁Tło	-11.3993
▁zawierają	-11.3994
▁dymisji	-11.3995
▁pospolity	-11.3995
▁balet	-11.3995
krywa	-11.3995
▁piętra	-11.3995
▁akademii	-11.3996
▁wygnan	-11.3997
▁Barbary	-11.3997
stąpienie	-11.3997
IC	-11.3998
osław	-11.3998
▁istotny	-11.3998
▁dwunastu	-11.3999
Kra	-11.3999
SB	-11.4
▁Zachodniego	-11.4
▁Regi	-11.4
▁Mali	-11.4001
▁młodym	-11.4001
kara	-11.4001
▁kolejowe	-11.4001
Charakterystyczn	-11.4002
▁czasopismo	-11.4002
▁składający	-11.4002
▁Unia	-11.4003
▁Nicola	-11.4003
stop	-11.4005
awskiego	-11.4008
▁przepisów	-11.4009
▁miejscowością	-11.4009
Król	-11.401
▁tradycja	-11.4012
▁Mariusz	-11.4013
▁sięgając	-11.4013
▁Kultura	-11.4013
▁specjalist	-11.4014
Ac	-11.4015
right	-11.4017
▁poprzedniej	-11.4017
▁jesieni	-11.4017
▁zjawiska	-11.4019
▁grającego	-11.4019
Pireneje	-11.4019
▁pewnego	-11.402
▁ukazując	-11.4021
▁Piast	-11.4022
▁oblicze	-11.4022
▁zboczach	-11.4023
▁służyć	-11.4023
stych	-11.4024
▁odmiany	-11.4024
▁bramy	-11.4025
▁Mill	-11.4026
▁procedur	-11.4026
▁nadawany	-11.4027
▁oficjalnej	-11.4028
▁pojawiał	-11.4028
▁księdze	-11.403
▁znaną	-11.403
▁sportową	-11.4031
▁pło	-11.4032
▁zyskała	-11.4032
▁rozmiar	-11.4034
▁szeregi	-11.4035
▁Francja	-11.4037
▁muzyczna	-11.4037
▁prasowy	-11.4038
▁rogu	-11.4038
rest	-11.4039
żka	-11.4039
▁narożnik	-11.404
▁pancernych	-11.4042
trój	-11.4042
ologicznego	-11.4045
▁krytyki	-11.4046
▁różnego	-11.4047
▁Chu	-11.4048
▁grzbietu	-11.405
-11	-11.405
▁Wojna	-11.4051
Bor	-11.4051
▁Korony	-11.4054
▁każdą	-11.4055
▁Turynie	-11.4062
miejsc	-11.4062
▁rejencji	-11.4062
Ti	-11.4065
▁nadzwyczajnego	-11.4067
▁wzrok	-11.407
▁wpływa	-11.4073
▁historyków	-11.4074
▁oficjalny	-11.4075
▁Dolna	-11.4077
▁Kit	-11.4077
▁Publicznego	-11.408
▁Dolina	-11.4081
▁Mołdawii	-11.4081
rani	-11.4083
▁radzieckie	-11.4083
▁Zakonu	-11.4084
▁siłą	-11.4084
ump	-11.4087
▁produkcją	-11.4087
▁metalu	-11.4088
kanclerz	-11.4088
▁powinno	-11.4089
▁turystycznych	-11.4089
▁dziekanem	-11.4089
▁społeczno	-11.4089
▁wójt	-11.4089
stym	-11.409
house	-11.4092
▁królewski	-11.4092
Sam	-11.4092
iąc	-11.4095
▁choroba	-11.4095
▁Portugal	-11.4096
▁wyjeździe	-11.4097
▁przedsiębiorca	-11.4098
które	-11.4098
▁ewidencji	-11.4098
▁Lei	-11.4099
▁studiu	-11.41
ted	-11.4101
▁doradcą	-11.4101
▁ufundował	-11.4101
▁szczytem	-11.4103
▁Spartak	-11.4104
licza	-11.4104
▁dam	-11.4104
▁dowiedział	-11.4109
▁straży	-11.4109
▁pomorskim	-11.411
▁solowy	-11.4114
▁przyszły	-11.4114
▁Złotego	-11.4114
świadcza	-11.4115
▁kujawsko	-11.4116
▁odpowiedni	-11.4117
Er	-11.4117
▁parametr	-11.4118
▁powierzył	-11.4119
▁ciężarów	-11.4119
▁zmniejsza	-11.412
▁dowodów	-11.4122
▁obecne	-11.4122
▁szczególne	-11.4123
▁chemii	-11.4123
▁armią	-11.4123
dowie	-11.4125
▁żąda	-11.4125
▁wpływów	-11.4127
▁niespełn	-11.4127
▁marszu	-11.4127
Piotr	-11.4132
▁funkcjonował	-11.4132
▁Trój	-11.4133
▁wysoką	-11.4134
Tur	-11.4134
▁Lewis	-11.4135
▁uwzględni	-11.4135
ńczy	-11.4135
prowadzili	-11.4135
▁Konstantynopola	-11.4137
▁Górach	-11.4137
▁aktywne	-11.4137
▁Architektury	-11.4138
iniego	-11.4138
IA	-11.4141
▁wyroku	-11.4142
▁szpieg	-11.4145
▁użytkowników	-11.4146
▁rozwiązaniu	-11.4146
tworzony	-11.4146
▁wydarzeniach	-11.4146
som	-11.4147
▁diecezjalny	-11.415
▁Johannes	-11.4153
cięte	-11.4154
▁nielicznych	-11.4155
ojc	-11.4156
jściu	-11.4156
▁Wojny	-11.4157
rosły	-11.4158
▁Kup	-11.4158
▁prowadzono	-11.4159
▁sekcja	-11.4159
▁podoficerów	-11.416
▁przekształcił	-11.4162
▁pokolenia	-11.4162
▁tkanin	-11.4163
glo	-11.4164
▁Res	-11.4164
jczyk	-11.4166
▁siłę	-11.4166
arskie	-11.4166
▁uchwałą	-11.4166
▁Geografia	-11.4167
▁Kamil	-11.4167
idy	-11.4168
▁CF	-11.4168
ekspres	-11.4169
dag	-11.417
▁pojęcia	-11.417
▁Brun	-11.4171
▁Cały	-11.4172
▁Fat	-11.4173
▁Gry	-11.4173
▁mężczyźni	-11.4173
▁płytki	-11.4175
orum	-11.4177
▁ambasador	-11.4177
▁troje	-11.4178
▁ile	-11.4179
▁płac	-11.4179
łamania	-11.4179
▁posiadanie	-11.418
▁Hard	-11.418
▁Rado	-11.418
▁Mich	-11.418
▁informacja	-11.4181
▁znacznej	-11.4181
▁lewo	-11.4182
▁Blue	-11.4183
▁Rolnictwa	-11.4185
▁sekundy	-11.4186
▁podziemia	-11.4187
▁zrobił	-11.4187
▁zwycięzcy	-11.4188
istyczne	-11.4189
▁doprowadziła	-11.4191
stone	-11.4191
owując	-11.4192
fur	-11.4194
▁Zjazd	-11.4196
▁wewnętrznej	-11.4196
bory	-11.4196
lana	-11.4197
▁najwyższe	-11.4197
▁Powązkach	-11.4198
istycznej	-11.4201
stawił	-11.4201
▁Heleny	-11.4202
▁postanowili	-11.4202
▁randze	-11.4203
stadt	-11.4204
▁zapewnić	-11.4206
▁Microsoft	-11.4209
▁Maz	-11.421
▁jam	-11.421
▁1857	-11.4211
cyjno	-11.4213
▁utrzymać	-11.4213
▁popełnił	-11.4214
dens	-11.4216
▁ostry	-11.4216
▁śluz	-11.4217
▁polscy	-11.4219
prawie	-11.4219
▁oznak	-11.422
▁powrócić	-11.422
▁Marszałk	-11.422
▁Izb	-11.4221
▁filmowych	-11.4221
▁kolekcjoner	-11.4222
For	-11.4222
wraca	-11.4222
▁PKP	-11.4223
▁białym	-11.4224
▁porażki	-11.4224
▁nakładzie	-11.4224
▁Reprezentacja	-11.4224
▁nagle	-11.4225
▁Cesarz	-11.4226
ystyczny	-11.4226
ario	-11.4227
▁nikt	-11.4228
acyjna	-11.4229
▁anioł	-11.423
sili	-11.4231
▁ratusz	-11.4232
▁przeciwnikiem	-11.4233
▁lista	-11.4234
▁ulokowan	-11.4234
▁wbrew	-11.4236
▁odpowiednik	-11.4236
▁szkic	-11.4236
▁ekonomicznych	-11.4236
▁tunel	-11.4236
▁Pietro	-11.4238
▁bojowe	-11.4238
▁twórcą	-11.4238
▁ból	-11.4239
IP	-11.4239
▁występujące	-11.4239
▁obejmujący	-11.424
▁funkcjonują	-11.4241
ryk	-11.4241
▁Dariusz	-11.4242
▁Faza	-11.4243
▁Krajowego	-11.4243
▁Zginął	-11.4246
Ros	-11.4246
▁powodem	-11.4247
▁stopy	-11.4247
▁dobro	-11.4248
▁warszawski	-11.4248
▁1856	-11.425
łość	-11.4253
istycznych	-11.4254
▁odgrywa	-11.4256
▁generacja	-11.4256
▁Zamku	-11.4257
▁dotyczący	-11.4257
▁smak	-11.4258
▁satyr	-11.4258
▁rozmów	-11.4259
▁Jerozolimie	-11.426
▁metropolity	-11.426
▁stary	-11.426
▁Całość	-11.4261
▁amatorski	-11.4261
▁zgadza	-11.4262
▁Stanu	-11.4263
ison	-11.4263
▁Janowi	-11.4266
▁Florencji	-11.4268
▁prowadzili	-11.4268
▁Sali	-11.4268
▁Włochy	-11.4269
zną	-11.4269
▁Regionu	-11.427
Czar	-11.427
▁Powązkowskim	-11.4271
▁powietrzne	-11.4273
▁przekonani	-11.4273
▁doświadczenie	-11.4274
▁poszukiwania	-11.4275
▁wspólne	-11.4277
▁widowisk	-11.4278
lskiej	-11.4278
▁muzułmański	-11.4278
▁przygotowywan	-11.4278
czyna	-11.4278
▁kalendarz	-11.428
▁indywidualne	-11.4281
▁dokumencie	-11.4282
▁Shan	-11.4282
pers	-11.4282
▁Szkol	-11.4282
▁pozostawion	-11.4282
▁parlamentarne	-11.4282
▁Wierzb	-11.4283
▁Działa	-11.4283
▁baza	-11.4285
▁Trybunał	-11.4289
mand	-11.429
▁tańca	-11.4291
▁mury	-11.4292
[...]
